{"0": "<|endoftext|>", "1": "\u0100", "2": "\u0101", "3": "\u0102", "4": "\u0103", "5": "\u0104", "6": "\u0105", "7": "\u0106", "8": "\u0107", "9": "\u0108", "10": "\u0109", "11": "\u010a", "12": "\u010b", "13": "\u010c", "14": "\u010d", "15": "\u010e", "16": "\u010f", "17": "\u0110", "18": "\u0111", "19": "\u0112", "20": "\u0113", "21": "\u0114", "22": "\u0115", "23": "\u0116", "24": "\u0117", "25": "\u0118", "26": "\u0119", "27": "\u011a", "28": "\u011b", "29": "\u011c", "30": "\u011d", "31": "\u011e", "32": "\u011f", "33": "\u0120", "34": "!", "35": "\"", "36": "#", "37": "$", "38": "%", "39": "&", "40": "'", "41": "(", "42": ")", "43": "*", "44": "+", "45": ",", "46": "-", "47": ".", "48": "/", "49": "0", "50": "1", "51": "2", "52": "3", "53": "4", "54": "5", "55": "6", "56": "7", "57": "8", "58": "9", "59": ":", "60": ";", "61": "<", "62": "=", "63": ">", "64": "?", "65": "@", "66": "A", "67": "B", "68": "C", "69": "D", "70": "E", "71": "F", "72": "G", "73": "H", "74": "I", "75": "J", "76": "K", "77": "L", "78": "M", "79": "N", "80": "O", "81": "P", "82": "Q", "83": "R", "84": "S", "85": "T", "86": "U", "87": "V", "88": "W", "89": "X", "90": "Y", "91": "Z", "92": "[", "93": "\\", "94": "]", "95": "^", "96": "_", "97": "`", "98": "a", "99": "b", "100": "c", "101": "d", "102": "e", "103": "f", "104": "g", "105": "h", "106": "i", "107": "j", "108": "k", "109": "l", "110": "m", "111": "n", "112": "o", "113": "p", "114": "q", "115": "r", "116": "s", "117": "t", "118": "u", "119": "v", "120": "w", "121": "x", "122": "y", "123": "z", "124": "{", "125": "|", "126": "}", "127": "~", "128": "\u0121", "129": "\u0122", "130": "\u0123", "131": "\u0124", "132": "\u0125", "133": "\u0126", "134": "\u0127", "135": "\u0128", "136": "\u0129", "137": "\u012a", "138": "\u012b", "139": "\u012c", "140": "\u012d", "141": "\u012e", "142": "\u012f", "143": "\u0130", "144": "\u0131", "145": "\u0132", "146": "\u0133", "147": "\u0134", "148": "\u0135", "149": "\u0136", "150": "\u0137", "151": "\u0138", "152": "\u0139", "153": "\u013a", "154": "\u013b", "155": "\u013c", "156": "\u013d", "157": "\u013e", "158": "\u013f", "159": "\u0140", "160": "\u0141", "161": "\u0142", "162": "\u00a1", "163": "\u00a2", "164": "\u00a3", "165": "\u00a4", "166": "\u00a5", "167": "\u00a6", "168": "\u00a7", "169": "\u00a8", "170": "\u00a9", "171": "\u00aa", "172": "\u00ab", "173": "\u00ac", "174": "\u0143", "175": "\u00ae", "176": "\u00af", "177": "\u00b0", "178": "\u00b1", "179": "\u00b2", "180": "\u00b3", "181": "\u00b4", "182": "\u00b5", "183": "\u00b6", "184": "\u00b7", "185": "\u00b8", "186": "\u00b9", "187": "\u00ba", "188": "\u00bb", "189": "\u00bc", "190": "\u00bd", "191": "\u00be", "192": "\u00bf", "193": "\u00c0", "194": "\u00c1", "195": "\u00c2", "196": "\u00c3", "197": "\u00c4", "198": "\u00c5", "199": "\u00c6", "200": "\u00c7", "201": "\u00c8", "202": "\u00c9", "203": "\u00ca", "204": "\u00cb", "205": "\u00cc", "206": "\u00cd", "207": "\u00ce", "208": "\u00cf", "209": "\u00d0", "210": "\u00d1", "211": "\u00d2", "212": "\u00d3", "213": "\u00d4", "214": "\u00d5", "215": "\u00d6", "216": "\u00d7", "217": "\u00d8", "218": "\u00d9", "219": "\u00da", "220": "\u00db", "221": "\u00dc", "222": "\u00dd", "223": "\u00de", "224": "\u00df", "225": "\u00e0", "226": "\u00e1", "227": "\u00e2", "228": "\u00e3", "229": "\u00e4", "230": "\u00e5", "231": "\u00e6", "232": "\u00e7", "233": "\u00e8", "234": "\u00e9", "235": "\u00ea", "236": "\u00eb", "237": "\u00ec", "238": "\u00ed", "239": "\u00ee", "240": "\u00ef", "241": "\u00f0", "242": "\u00f1", "243": "\u00f2", "244": "\u00f3", "245": "\u00f4", "246": "\u00f5", "247": "\u00f6", "248": "\u00f7", "249": "\u00f8", "250": "\u00f9", "251": "\u00fa", "252": "\u00fb", "253": "\u00fc", "254": "\u00fd", "255": "\u00fe", "256": "\u00ff", "257": "\u0120t", "258": "\u0120a", "259": "he", "260": "in", "261": "re", "262": "\u0120the", "263": "on", "264": "er", "265": "\u0120s", "266": "\u0120w", "267": "at", "268": "\u0120o", "269": "en", "270": "\u0120c", "271": "it", "272": "is", "273": "an", "274": "or", "275": "\u0120b", "276": "es", "277": "ed", "278": "\u0120f", "279": "ing", "280": "\u0120p", "281": "ou", "282": "\u0120an", "283": "al", "284": "\u0120to", "285": "ar", "286": "\u0120m", "287": "\u0120in", "288": "\u0120of", "289": "\u0120h", "290": "\u0120d", "291": "\u00e2\u0122", "292": "as", "293": "ic", "294": "\u0120and", "295": "\u0120th", "296": "le", "297": "om", "298": "ion", "299": "ll", "300": "ent", "301": "\u0120n", "302": "\u0120l", "303": "\u0120re", "304": "st", "305": "ve", "306": "\u0120e", "307": "ly", "308": "ro", "309": "\u0120be", "310": "\u0120g", "311": "id", "312": "ut", "313": "ac", "314": "ot", "315": "\u0120T", "316": "\u0120I", "317": "\u0120that", "318": "\u0120on", "319": "ay", "320": "\u0120S", "321": "\u0120is", "322": "et", "323": "im", "324": "am", "325": "ad", "326": "ow", "327": "se", "328": "ig", "329": "\u0120for", "330": "\u00e2\u0122\u013b", "331": "\u0120A", "332": "ver", "333": "ur", "334": "ct", "335": "ld", "336": "\u0120C", "337": "\u0120u", "338": "\u0120st", "339": "\u0120y", "340": "\u0120it", "341": "\u0120he", "342": "ir", "343": "ation", "344": "ith", "345": "\u0120wh", "346": "\u0120M", "347": "ce", "348": "ter", "349": "ol", "350": "\u0120we", "351": "il", "352": "\u0120with", "353": "\u0120as", "354": "\u0120B", "355": "ch", "356": "ill", "357": "nd", "358": "\u0120P", "359": "\u0120was", "360": "ers", "361": "\u0120you", "362": "ke", "363": "\u0120\u00e2\u0122", "364": "\u0120con", "365": "\u0120de", "366": "\u0120r", "367": "her", "368": "if", "369": "ate", "370": "ag", "371": "\u0120at", "372": "\u0120ha", "373": "\u0120W", "374": "\u0120se", "375": "\u0120H", "376": "ore", "377": "\u0120pro", "378": "ul", "379": "pp", "380": "ment", "381": "ri", "382": "\u0120are", "383": "\u0120D", "384": "\u01201", "385": "us", "386": "est", "387": "ist", "388": "\u0120com", "389": "and", "390": "\u0120R", "391": "op", "392": "ain", "393": "\u0120The", "394": "\u01202", "395": "igh", "396": "rom", "397": "\u0120(", "398": "ort", "399": "od", "400": "\u0120ne", "401": "\u0120F", "402": "um", "403": "un", "404": "\u0120ex", "405": "res", "406": "ab", "407": "\u00e2\u0122\u013f", "408": "\u0120not", "409": "\u0120N", "410": "\u0120v", "411": "ess", "412": "\u0120have", "413": "ity", "414": "em", "415": "ould", "416": "\u0120or", "417": "th", "418": "\u0120by", "419": "os", "420": "ant", "421": "\u0120G", "422": "ive", "423": "\u0120from", "424": "\u0120al", "425": "el", "426": "'s", "427": "oc", "428": "art", "429": "\u0120su", "430": "\u0120L", "431": "\u0120sh", "432": "\u0120this", "433": "nt", "434": "qu", "435": "ight", "436": "pe", "437": "ust", "438": "\u0120le", "439": "ies", "440": "\u0120E", "441": "end", "442": "\u0120ch", "443": "\u0120sa", "444": "out", "445": "\u0120ab", "446": "The", "447": "all", "448": "ie", "449": "ack", "450": "red", "451": "00", "452": "\u0120\u00e2\u0122\u013e", "453": "\u0120has", "454": "ally", "455": "\u0120J", "456": "\u0120pl", "457": "\u0120go", "458": "ard", "459": "iv", "460": "\u0120his", "461": "ome", "462": "ap", "463": "ost", "464": "gh", "465": "ear", "466": "\u0120O", "467": "\u0120tr", "468": "our", "469": "ast", "470": "\u0120j", "471": "ak", "472": "ud", "473": "\u0120do", "474": "\u0120they", "475": "\u0120but", "476": "\u0120wor", "477": "rou", "478": "\u0120can", "479": "ge", "480": "\u0120will", "481": "\u0120said", "482": "\u0120whe", "483": "\u0120U", "484": "\u0120k", "485": "ich", "486": "\u0120all", "487": "ok", "488": "\u0120\"", "489": "ide", "490": "\u0120who", "491": "\u0120int", "492": "ame", "493": "ans", "494": "ther", "495": "ial", "496": "\u0120out", "497": "ff", "498": "\u0120their", "499": "ong", "500": "ect", "501": "pl", "502": "ice", "503": "ure", "504": "pt", "505": "one", "506": "\u0120more", "507": "age", "508": "ions", "509": "act", "510": "ike", "511": "\u0120me", "512": "\u0120up", "513": "ous", "514": "ine", "515": "\u0120ad", "516": "\u0120about", "517": "ated", "518": "ra", "519": "ber", "520": "\u0120one", "521": "\u0120were", "522": "\u0120so", "523": "\u0120us", "524": "ime", "525": "og", "526": "\u0120K", "527": "ep", "528": "ia", "529": "\u0120had", "530": "are", "531": "ub", "532": "cc", "533": "\u0120would", "534": "\u0120cl", "535": "\u012020", "536": "\u0120im", "537": "\u0120which", "538": "ind", "539": "ue", "540": "ake", "541": "\u0120cont", "542": "iz", "543": "very", "544": "\u0120ag", "545": "\u0120te", "546": "\u0120off", "547": "\u0120comp", "548": "\u0120un", "549": "\u0120been", "550": "\u0120St", "551": "so", "552": "\u0120en", "553": "per", "554": "ign", "555": "au", "556": "\u0120Th", "557": "ary", "558": "ace", "559": "\u0120year", "560": "ip", "561": "ew", "562": "\u0120like", "563": "ere", "564": "ven", "565": "ook", "566": "\u0120inc", "567": "ays", "568": "\u0120man", "569": "\u0120pe", "570": "ry", "571": "ose", "572": "\u0120res", "573": "able", "574": "ite", "575": "\u0120per", "576": "ass", "577": "ord", "578": "\u0120sp", "579": "ire", "580": "\u0120In", "581": "\u0120other", "582": "mer", "583": "\u0120some", "584": "ile", "585": "ib", "586": "ence", "587": "ople", "588": "\u0120201", "589": "ks", "590": "ations", "591": "\u0120over", "592": "ical", "593": "\u0120there", "594": "ress", "595": "\u0120dis", "596": "ult", "597": "int", "598": "\u0120new", "599": "own", "600": "\u0120also", "601": "\u0120than", "602": "\u0120ar", "603": "\u0120bec", "604": "ru", "605": "\u0120them", "606": "ance", "607": "ount", "608": "ough", "609": "\u0120app", "610": "port", "611": "ail", "612": "\u0120part", "613": "\u0120your", "614": "\u0120when", "615": "ree", "616": "\u0120what", "617": "orm", "618": "ond", "619": "\u0120people", "620": "fter", "621": "\u0120sc", "622": "\u0120Ch", "623": "av", "624": "ase", "625": "\u0120qu", "626": "\u0120any", "627": "\u0120just", "628": "\u0120its", "629": "\u0120Y", "630": "ach", "631": "\u0120time", "632": "\u0120It", "633": "\u0120kn", "634": "\u0120her", "635": "\u01203", "636": "ens", "637": "lic", "638": "\u0120rec", "639": "reat", "640": "\u0120my", "641": "\u0120get", "642": "\u0120if", "643": "\u0120V", "644": "ian", "645": ".\u00e2\u0122\u013f", "646": "\u0120into", "647": "ound", "648": "\u0120work", "649": "\u0120tw", "650": "irst", "651": "vel", "652": "ction", "653": "\u0120no", "654": "du", "655": "ings", "656": "ory", "657": "ick", "658": "ors", "659": "\u0120our", "660": "ition", "661": "ident", "662": "ob", "663": "\u0120-", "664": "\u0120pre", "665": "ove", "666": "\u0120play", "667": "ang", "668": "ink", "669": "ause", "670": "wn", "671": "amp", "672": "te", "673": "ade", "674": "hing", "675": "ates", "676": "ark", "677": "\u0120ro", "678": "\u0120pol", "679": "\u0120she", "680": "vers", "681": "\u0120co", "682": ",\u00e2\u0122\u013f", "683": "\u0120after", "684": "\u0120first", "685": "\u0120could", "686": "\u0120how", "687": "\u0120He", "688": "ne", "689": "\u012019", "690": "ious", "691": "nder", "692": "ild", "693": "\u0120acc", "694": "\u0120him", "695": "aw", "696": "'t", "697": "ons", "698": "\u0120po", "699": "\u0120only", "700": "\u0120fe", "701": "\u0120att", "702": "ict", "703": "hed", "704": "\u0120pr", "705": "\u0120two", "706": "rit", "707": "ov", "708": "ish", "709": "\u0120comm", "710": "\u00e2\u0122\u013e", "711": "form", "712": "\u0120spe", "713": "\u0120act", "714": "we", "715": "erv", "716": "\u0120bl", "717": "ft", "718": "\u0120bet", "719": "\u0120dec", "720": ".\"", "721": "ning", "722": "\u0120back", "723": "\u0120most", "724": "ces", "725": "ood", "726": "ck", "727": "\u0120\u00e2\u0122\u0135", "728": "\u0120am", "729": "oy", "730": "\u0120did", "731": "rough", "732": "iff", "733": "ater", "734": "round", "735": "\u0120again", "736": "\u01204", "737": "ual", "738": "day", "739": "ise", "740": "\u0120under", "741": "\u0120des", "742": "\u0120want", "743": "ull", "744": "sel", "745": "\u0120cons", "746": "\u0120\u00e2\u0122\u0136", "747": "..", "748": "\u0120because", "749": "\u0120now", "750": "lud", "751": "ents", "752": "\u0120years", "753": "man", "754": "tern", "755": "ublic", "756": "ec", "757": "\u0120need", "758": "\u0120even", "759": "\u0120$", "760": "iss", "761": "\u0120inv", "762": "\u0120know", "763": "\u0120We", "764": "\u0120see", "765": "ments", "766": "ced", "767": "\u0120add", "768": ",\"", "769": "ting", "770": "old", "771": "\u0120ind", "772": "\u0120sec", "773": "fore", "774": "uch", "775": "\u0120every", "776": "urn", "777": "\u01205", "778": "\u0120supp", "779": "\u0120make", "780": "pect", "781": "\u0120Un", "782": "\u0120em", "783": "\u0120these", "784": "ock", "785": "oll", "786": "\u0120where", "787": "ject", "788": "In", "789": "ational", "790": "vern", "791": "xt", "792": "\u0120bu", "793": "\u0120look", "794": "Th", "795": "\u0120And", "796": "oss", "797": "\u0120don", "798": "\u0120ev", "799": "ump", "800": "ating", "801": "\u0120way", "802": "\u0120being", "803": "\u0120rem", "804": "\u0120right", "805": "ily", "806": "\u0120may", "807": "ng", "808": "row", "809": "lect", "810": "iew", "811": "\u0120then", "812": "\u0120many", "813": "\u0120[", "814": "\u0120diff", "815": "\u0120def", "816": "ason", "817": "\u0120rel", "818": "\u0120call", "819": "\u0120But", "820": "\u0120Tr", "821": "ont", "822": "ied", "823": "les", "824": "ased", "825": "\u0120includ", "826": "\u0120think", "827": "aking", "828": "\u0120reg", "829": ").", "830": "meric", "831": "\u0120imp", "832": "\u0120through", "833": "ath", "834": "ited", "835": "rib", "836": "\u0120sy", "837": "\u0120should", "838": "\u0120pres", "839": "\u0120say", "840": "ell", "841": "\u0120fl", "842": "uring", "843": "\u0120last", "844": "\u0120those", "845": "ower", "846": "\u0120very", "847": "ty", "848": "other", "849": "\u0120much", "850": "000", "851": "ities", "852": "ific", "853": "\u0120state", "854": "\u0120This", "855": "ative", "856": "\u0120show", "857": "tle", "858": "hen", "859": "\u0120br", "860": "ss", "861": "arg", "862": "\u0120well", "863": "oth", "864": "\u0120ph", "865": "\u0120Wh", "866": "\u0120count", "867": "als", "868": "und", "869": "\u0120does", "870": "\u0120down", "871": "\u0120own", "872": "arly", "873": "\u0120end", "874": "\u0120ass", "875": "\u0120bel", "876": "\u0120use", "877": "ics", "878": "ange", "879": "--", "880": "ts", "881": "\u0120long", "882": "\u0120Americ", "883": "ters", "884": "ince", "885": "\u0120before", "886": "omet", "887": "gr", "888": "\u0120mon", "889": "ward", "890": "\u0120govern", "891": "\u0120start", "892": "\u0120report", "893": "ible", "894": "\u0120ke", "895": "up", "896": "ues", "897": "\u0120New", "898": "\u0120fin", "899": "\u0120team", "900": "ble", "901": "\u0120made", "902": "ife", "903": "olog", "904": "ener", "905": "),", "906": "\u0120such", "907": "ren", "908": "com", "909": "\u0120200", "910": "oun", "911": "erson", "912": "ek", "913": "ix", "914": "\u0120sm", "915": "\u00e2\u0122\u0136", "916": "lp", "917": "ility", "918": "\u0120going", "919": "ism", "920": "ful", "921": "\u0120world", "922": "ually", "923": "\u0120stud", "924": "ists", "925": "\u0120good", "926": "\u0120ac", "927": "tain", "928": "It", "929": "\u0120sub", "930": "\u0120eff", "931": "ini", "932": "\u0120sur", "933": "\u0120against", "934": "its", "935": "\u0120game", "936": "\u0120set", "937": "ork", "938": "\u01206", "939": "\u0120gu", "940": "\u0120point", "941": "\u0120ent", "942": "ys", "943": "gan", "944": "ars", "945": "li", "946": "stem", "947": "\u0120prov", "948": "\u0120still", "949": "roup", "950": "\u0120while", "951": "illion", "952": "\u0120help", "953": "\u0120lead", "954": "ween", "955": "ef", "956": "ax", "957": "ank", "958": "alk", "959": "imes", "960": "\u0120says", "961": "\u0120ob", "962": "ms", "963": "cy", "964": "\u0120produ", "965": "\u0120gr", "966": "\u0120inter", "967": "\u0120inst", "968": "\u0120str", "969": "cess", "970": "\u0120sim", "971": "self", "972": "\u0120conf", "973": "io", "974": "\u0120col", "975": "\u0120take", "976": "\u0120min", "977": "ures", "978": "arch", "979": "\u0120same", "980": "\u0120though", "981": "\u0120between", "982": "ollow", "983": "\u0120offic", "984": "ever", "985": "\u0120cr", "986": "\u0120differe", "987": "ool", "988": "uss", "989": "ution", "990": "land", "991": "\u0120disc", "992": "air", "993": "\u0120op", "994": "ah", "995": "\u0120ed", "996": "\u0120high", "997": "read", "998": "\u0120num", "999": "\u0120law", "1000": "\u0120sign", "1001": "way", "1002": "\u0120government", "1003": "gg", "1004": "\u0120Re", "1005": "led", "1006": "ner", "1007": "hip", "1008": "atch", "1009": "hes", "1010": "ames", "1011": "any", "1012": "\u0120ter", "1013": "\u0120somet", "1014": "cent", "1015": "velop", "1016": "ted", "1017": "We", "1018": "\u0120ref", "1019": "\u0120trans", "1020": "ten", "1021": "\u0120ins", "1022": "\u0120run", "1023": "\u0120ser", "1024": "\u0120found", "1025": "\u0120three", "1026": "ives", "1027": "ave", "1028": "\u0120mem", "1029": "\u0120around", "1030": "\u0120here", "1031": "ather", "1032": "\u0120med", "1033": "\u0120real", "1034": "\u0120used", "1035": "ouse", "1036": "\u012010", "1037": "ved", "1038": "\u0120exp", "1039": "az", "1040": "\u0120Ar", "1041": "cept", "1042": "oot", "1043": "\u0120system", "1044": "\u0120You", "1045": "ci", "1046": "\u0120really", "1047": "\u0120mod", "1048": "ving", "1049": "con", "1050": "cer", "1051": "\u0120group", "1052": "\u0120support", "1053": "\u01207", "1054": "\u0120cour", "1055": "ets", "1056": "ale", "1057": "nin", "1058": "ins", "1059": "\u0120ret", "1060": "\u0120hand", "1061": "\u0120public", "1062": "\u0120spec", "1063": "pr", "1064": "\u0120Le", "1065": "ying", "1066": "\u0120great", "1067": "\u0120car", "1068": "ense", "1069": "\u0120ext", "1070": ".[", "1071": "ton", "1072": "irect", "1073": "\u0120cur", "1074": "\u0120fam", "1075": "\u0120Com", "1076": "alth", "1077": "\u0120happ", "1078": "\u0120fact", "1079": "ph", "1080": "\u0120exper", "1081": "\u0120They", "1082": "\u0120Trump", "1083": "\u0120fr", "1084": "\u0120wom", "1085": "\u0120Is", "1086": "\u0120cap", "1087": "\u0120both", "1088": "\u0120day", "1089": "\u0120find", "1090": "\u0120Al", "1091": "ular", "1092": "\u0120read", "1093": "ines", "1094": "oh", "1095": "ices", "1096": "\u0120det", "1097": "\u0120lit", "1098": "\u0120sl", "1099": "\u0120rep", "1100": "uth", "1101": "ered", "1102": "\u0120during", "1103": "\u0120Sh", "1104": "\u0120As", "1105": "\u01200", "1106": "\u0120serv", "1107": "\u0120month", "1108": "the", "1109": "ision", "1110": "\u0120cre", "1111": "\u0120develop", "1112": "\u0120big", "1113": "min", "1114": "\u01208", "1115": "\u0120person", "1116": "akes", "1117": "\u0120follow", "1118": "\u0120Cl", "1119": "\u0120iss", "1120": "ex", "1121": "\u0120told", "1122": "\u0120since", "1123": "ared", "1124": "med", "1125": "ically", "1126": "\u0120week", "1127": "ages", "1128": "ivers", "1129": "\u0120war", "1130": "\u0120few", "1131": "orth", "1132": "ording", "1133": "\u0120cent", "1134": "\u0120leg", "1135": "aj", "1136": "get", "1137": "\u0120polit", "1138": "ves", "1139": "ash", "1140": "\u0120expl", "1141": "\u0120lot", "1142": "ric", "1143": "\u0120Se", "1144": "\u0120belie", "1145": "ata", "1146": "\u0120gener", "1147": "\u0120too", "1148": "\u01209", "1149": "der", "1150": "rent", "1151": "\u0120opp", "1152": "Wh", "1153": "\u0120requ", "1154": "\u0120contin", "1155": "\u0120prot", "1156": "iet", "1157": "bers", "1158": "anc", "1159": "\u0120fil", "1160": "ention", "1161": "ness", "1162": "\u0120cle", "1163": "\u0120resp", "1164": "\u0120put", "1165": "ized", "1166": "\u0120If", "1167": "\u0120another", "1168": "20", "1169": "chool", "1170": "\u0120inf", "1171": "\u0120something", "1172": "\u0120De", "1173": "\u0120different", "1174": "\u0120cor", "1175": "\u0120loc", "1176": "ute", "1177": "\u0120invest", "1178": "\u0120soc", "1179": "\u0120power", "1180": "\u0120che", "1181": "uc", "1182": "\u0120'", "1183": "\u0120pass", "1184": "\u0120commun", "1185": "\u0120life", "1186": "\u0120Fr", "1187": "\u0120plan", "1188": "ody", "1189": "\u0120rele", "1190": "\u0120head", "1191": "ience", "1192": "\u0120things", "1193": "ned", "1194": "\u0120far", "1195": "\u0120art", "1196": "\u0120poss", "1197": "\u0120met", "1198": "thing", "1199": "ox", "1200": "erest", "1201": "\u0120camp", "1202": "ross", "1203": "arge", "1204": "\u0120vot", "1205": "This", "1206": "view", "1207": "ier", "1208": "\u0120child", "1209": "ants", "1210": "\u0120ask", "1211": "\u0120.", "1212": "\u0120might", "1213": "\u0120each", "1214": "ize", "1215": "iness", "1216": "\u0120dep", "1217": "\u0120never", "1218": "\u0120next", "1219": "ield", "1220": "\u0120second", "1221": "\u0120mark", "1222": "tt", "1223": "\u0120quest", "1224": "\u0120bus", "1225": "\u0120adv", "1226": "ik", "1227": "\u0120An", "1228": "...", "1229": "\u0120dem", "1230": "\u0120For", "1231": "\u0120come", "1232": "\u0120got", "1233": "\u0120\u00e2\u0122\u013a", "1234": "\u0120open", "1235": "\u0120best", "1236": "ient", "1237": "ital", "1238": "\u0120allow", "1239": "\u0120That", "1240": "rat", "1241": "\u0120seem", "1242": "\u0120post", "1243": "ple", "1244": "nce", "1245": "\u0120feel", "1246": "\u0120Pro", "1247": "\u0120US", "1248": "ug", "1249": "\u0120pri", "1250": "gram", "1251": "\u0120percent", "1252": "cl", "1253": "\u0120home", "1254": "\u0120dist", "1255": "\u0120direct", "1256": "ired", "1257": "\u0120incre", "1258": "\u0120contro", "1259": "\u0120Rep", "1260": "son", "1261": "orn", "1262": "less", "1263": "osed", "1264": "\u0120result", "1265": "\u0120hard", "1266": "\u0120care", "1267": "ately", "1268": "\u0120million", "1269": "chn", "1270": "\u0120comple", "1271": "\u0120place", "1272": "\u0120without", "1273": "\u0120inform", "1274": "\u0120including", "1275": "\u0120import", "1276": "\u0120av", "1277": "conom", "1278": "\u0120hum", "1279": "ama", "1280": "\u0120ide", "1281": "\u0120proble", "1282": "\u0120build", "1283": "\u0120top", "1284": "\u0120number", "1285": "\u0120country", "1286": "gy", "1287": "oney", "1288": "aim", "1289": "\u0120Bl", "1290": "ret", "1291": "ral", "1292": "ably", "1293": "uro", "1294": "\u0120stand", "1295": "\u0120gl", "1296": "\u0120el", "1297": "riend", "1298": "\u0120four", "1299": "ished", "1300": "ways", "1301": "\u0120partic", "1302": "\u0120better", "1303": "\u0120tri", "1304": "But", "1305": "\u0120recent", "1306": "\u0120interest", "1307": "\u0120mov", "1308": "\u0120let", "1309": "co", "1310": "ration", "1311": "\u0120season", "1312": "\u0120less", "1313": "ead", "1314": "\u0120turn", "1315": "\u0120little", "1316": "\u0120beh", "1317": "\u0120mil", "1318": "\u0120appro", "1319": "ract", "1320": "line", "1321": "\u0120bro", "1322": "ling", "1323": "ised", "1324": "\u0120called", "1325": "app", "1326": "10", "1327": "\u0120case", "1328": "\u0120dr", "1329": "\u0120Ind", "1330": "\u0120rest", "1331": "\u0120left", "1332": "\u0120pop", "1333": "\u0120ann", "1334": "\u0120Z", "1335": "ency", "1336": "ode", "1337": "\u0120move", "1338": "\u0120attack", "1339": "ina", "1340": "\u0120There", "1341": "\u0120keep", "1342": "\u0120full", "1343": "ering", "1344": "\u0120didn", "1345": "be", "1346": "\u0120fun", "1347": "\u0120main", "1348": "ajor", "1349": "__", "1350": "\u0120effect", "1351": "inal", "1352": "leg", "1353": "\u0120prev", "1354": "\u0120program", "1355": "\u0120using", "1356": "\u0120test", "1357": "rem", "1358": "\u0120pay", "1359": "ature", "1360": "\u0120ear", "1361": "to", "1362": "\u0120val", "1363": "\u0120police", "1364": "\u0120writ", "1365": "\u0120form", "1366": "\u0120econom", "1367": "\u0120data", "1368": "\u0120news", "1369": "\u0120pos", "1370": "\u0120win", "1371": "\u0120American", "1372": "\u0120level", "1373": "\u0120sit", "1374": "\u0120char", "1375": "ains", "1376": "iving", "1377": "uck", "1378": "\u0120small", "1379": "ined", "1380": "ready", "1381": "He", "1382": "\u0120school", "1383": "\u0120list", "1384": "ology", "1385": "rap", "1386": "ided", "1387": "mit", "1388": "ploy", "1389": "'re", "1390": "ger", "1391": "\u0120eas", "1392": "\u0120process", "1393": "ird", "1394": "\u0120change", "1395": "\u0120women", "1396": "\u0120current", "1397": "\u0120rece", "1398": "\u0120prom", "1399": "\u0120hist", "1400": "\u0120dri", "1401": "\u0120=", "1402": "reen", "1403": "\u0120president", "1404": "\u0120company", "1405": "\u0120So", "1406": "used", "1407": "\u0120mat", "1408": "ruct", "1409": "\u0120already", "1410": "ohn", "1411": "\u0120United", "1412": "wit", "1413": "\u0120ty", "1414": "\u0120why", "1415": "\u0120bre", "1416": "\u0120unt", "1417": "\u0120money", "1418": "\u0120sol", "1419": "\u0120always", "1420": "\u0120later", "1421": "\u0120expect", "1422": "\u0120techn", "1423": "\u0120business", "1424": "\u0120How", "1425": "\u0120official", "1426": "ron", "1427": "\u0120Q", "1428": "\u0120Ob", "1429": "stand", "1430": "iversity", "1431": "\u0120bo", "1432": "\u0120book", "1433": "\u0120Ph", "1434": "aign", "1435": "\u0120thing", "1436": "\u0120class", "1437": "\u0120project", "1438": "ases", "1439": "\u0120claim", "1440": "\u0120job", "1441": "\u0120information", "1442": "\u0120organ", "1443": "aff", "1444": "\u0120She", "1445": "ards", "1446": "\u0120talk", "1447": "\u0120Be", "1448": "\u0120design", "1449": "\u0120story", "1450": "\u0120chang", "1451": "\u0120major", "1452": "\u0120able", "1453": "\u0120prof", "1454": "\u0120--", "1455": "lection", "1456": "iven", "1457": "ertain", "1458": "\u0120rese", "1459": "\u0120health", "1460": "\u0120vis", "1461": "\u0120past", "1462": "urs", "1463": "\u0120free", "1464": "outh", "1465": "here", "1466": "\u0120Ad", "1467": "\u0120oper", "1468": "ption", "1469": "\u0120away", "1470": "ior", "1471": "\u0120Can", "1472": "\u0120must", "1473": "\u0120city", "1474": "ample", "1475": "ians", "1476": "rist", "1477": "sc", "1478": "ural", "1479": "\u0120happen", "1480": "uthor", "1481": "\u012018", "1482": "\u0120important", "1483": "acy", "1484": "urity", "1485": "\u0120kill", "1486": "\u0120sk", "1487": "\u0120est", "1488": "ured", "1489": "\u0120old", "1490": "\u0120pat", "1491": "ury", "1492": "ending", "1493": "\u0120doesn", "1494": "ission", "1495": "\u0120least", "1496": "---", "1497": "\u0120grow", "1498": "\u0120edit", "1499": "\u0120var", "1500": "ained", "1501": "St", "1502": "\u0120cost", "1503": "\u0120Go", "1504": "ney", "1505": "ider", "1506": "ides", "1507": "els", "1508": "\u0120days", "1509": "\u0120tell", "1510": "\u0120hop", "1511": "\u0120stre", "1512": "\u0120campaign", "1513": "side", "1514": "\u012012", "1515": "\u0120men", "1516": "\u0120came", "1517": "\u0120aff", "1518": "\u0120const", "1519": "resident", "1520": "\u0120enough", "1521": "\u0120view", "1522": "ccess", "1523": "\u0120kind", "1524": "\u0120Mar", "1525": "oad", "1526": "\u0120Sp", "1527": "ern", "1528": "\u0120making", "1529": "\u0120large", "1530": "\u0120record", "1531": "50", "1532": "ush", "1533": "\u0120friend", "1534": "\u0120mar", "1535": "\u0120family", "1536": "\u00e2\u0122\u00a6", "1537": "ley", "1538": "\u0120elect", "1539": "ded", "1540": "eral", "1541": "\u0120polic", "1542": "\u0120tax", "1543": "ising", "1544": "ror", "1545": "by", "1546": "pped", "1547": "ality", "1548": "ator", "1549": "ified", "1550": "As", "1551": "ived", "1552": "arent", "1553": "\u0120until", "1554": "ee", "1555": "ional", "1556": "\u0120political", "1557": "\u0120vide", "1558": "\u0120deal", "1559": "ries", "1560": "alf", "1561": "augh", "1562": "\u0120ve", "1563": "\u0120working", "1564": "ued", "1565": "\u0120Republic", "1566": "\u0120took", "1567": "\u0120deb", "1568": "bs", "1569": "If", "1570": "ister", "1571": "\u0120line", "1572": "\u0120John", "1573": "aining", "1574": "\u0120air", "1575": "---", "1576": "\u0120es", "1577": "\u0120intern", "1578": "\u0120fore", "1579": "iol", "1580": "ane", "1581": "ocrat", "1582": "\u0120become", "1583": "\u0120actually", "1584": "aps", "1585": "ony", "1586": "\u0120mean", "1587": "work", "1588": "\u0120fund", "1589": "\u0120Sc", "1590": "ware", "1591": "19", "1592": "ember", "1593": "\u0120Pl", "1594": "\u0120former", "1595": "\u0120often", "1596": "\u0120Euro", "1597": "ott", "1598": "\u0120won", "1599": "\u0120give", "1600": "ann", "1601": "oint", "1602": "\u0120according", "1603": "\u0120ever", "1604": "most", "1605": "eng", "1606": "year", "1607": "wh", "1608": "aring", "1609": "\u0120games", "1610": "ison", "1611": "\u0120human", "1612": "\u0120bas", "1613": "ization", "1614": "\u0120return", "1615": "\u0120times", "1616": "\u0120order", "1617": "\u0120Russ", "1618": "\u0120word", "1619": "\u0120bit", "1620": "\u0120Dem", "1621": "\u0120name", "1622": "11", "1623": "\u0120sever", "1624": "\u0120All", "1625": "\u0120dev", "1626": "icle", "1627": "uture", "1628": "for", "1629": "ither", "1630": "\u0120par", "1631": "\u0120199", "1632": "\u0120Mc", "1633": "\u0120wr", "1634": "\u0120Con", "1635": "raft", "1636": "\u0120sing", "1637": "\u0120perform", "1638": "\u0120Sy", "1639": "\u0120market", "1640": "\u0120fac", "1641": "\u0120charac", "1642": "There", "1643": "iqu", "1644": "\u0120Or", "1645": "idd", "1646": "\u0120At", "1647": "\u0120May", "1648": "\u0120ra", "1649": "\u0120doing", "1650": "\u0120appear", "1651": "ER", "1652": "ched", "1653": "\u0120players", "1654": "\u0120la", "1655": "\u0120night", "1656": "ene", "1657": "\u0120lear", "1658": "aken", "1659": "rop", "1660": "ats", "1661": "mber", "1662": "\u0120today", "1663": "\u0120early", "1664": "\u012015", "1665": "\u0120seen", "1666": "//", "1667": "\u0120having", "1668": "\u0120,", "1669": "\u0120pot", "1670": "\u0120children", "1671": "\u0120event", "1672": "\u0120media", "1673": "\u0120social", "1674": "\u0120crit", "1675": "\u0120President", "1676": "\u0120whether", "1677": "\u0120several", "1678": "\u0120control", "1679": "idence", "1680": "\u0120meet", "1681": "sh", "1682": "\u0120milit", "1683": "\u0120press", "1684": "\u0120went", "1685": "artment", "1686": "\u0120five", "1687": "\u0120young", "1688": "ories", "1689": "\u0120sure", "1690": "\u0120prop", "1691": "iously", "1692": "\u0120equ", "1693": "\u0120beg", "1694": "\u0120question", "1695": "\u0120occ", "1696": "\u0120likely", "1697": "vert", "1698": "une", "1699": "\u0120members", "1700": "br", "1701": "ands", "1702": "\u0120certain", "1703": "\u0120eng", "1704": "\u0120water", "1705": "\u0120York", "1706": "\u0120example", "1707": "ots", "1708": "\u0120Col", "1709": "\u0120arg", "1710": "\u0120side", "1711": "\u0120ant", "1712": "\u0120done", "1713": "\u0120vers", "1714": "enn", "1715": "\u0120invol", "1716": "\u0120Mr", "1717": "\u0120States", "1718": "\u0120Europe", "1719": "ended", "1720": "let", "1721": "\u0120along", "1722": "\u0120short", "1723": "\u0120success", "1724": "ential", "1725": "\u0120months", "1726": "ball", "1727": "\u0120hour", "1728": "\u012011", "1729": "ium", "1730": "\u0120sex", "1731": "iver", "1732": "ially", "1733": "And", "1734": "lf", "1735": "empt", "1736": "\u0120within", "1737": "\u0120desc", "1738": "imate", "1739": "\u0120course", "1740": "\u0120fight", "1741": "ster", "1742": "urch", "1743": "ubl", "1744": "\u0120among", "1745": "\u0120activ", "1746": "uff", "1747": "\u00e2\u0122\u0135", "1748": "ague", "1749": "\u0120once", "1750": "\u0120future", "1751": "\u0120investig", "1752": "ulation", "1753": "rew", "1754": "\u0120possible", "1755": "\u0120Obama", "1756": "\u0120cho", "1757": "nect", "1758": "\u0120understand", "1759": "iting", "1760": "\u0120concer", "1761": "\u0120On", "1762": "\u0120]", "1763": "ones", "1764": "ortun", "1765": "\u0120problem", "1766": "\u0120Br", "1767": "\u0120priv", "1768": "\u0120means", "1769": "\u0120viol", "1770": "\u0120Car", "1771": "\u0120author", "1772": "itive", "1773": "\u0120No", "1774": "ggest", "1775": "\u0120avail", "1776": "oci", "1777": "ourn", "1778": "my", "1779": "\u0120known", "1780": "\u0120product", "1781": "\u0120non", "1782": "ivid", "1783": "\u0120thought", "1784": "\u0120yet", "1785": "gress", "1786": "\u0120across", "1787": "\u0120protect", "1788": "\u0120local", "1789": "ler", "1790": "\u0120hold", "1791": "\u0120Te", "1792": "\u0120fail", "1793": "inc", "1794": "\u0120When", "1795": "\u0120State", "1796": "\u0120community", "1797": "\u0120reason", "1798": "\u0120orig", "1799": "ede", "1800": "\u0120suggest", "1801": "\u0120&", "1802": "12", "1803": "\u0120makes", "1804": "verage", "1805": "ald", "1806": "not", "1807": "por", "1808": "back", "1809": "\u01202016", "1810": "\u0120i", "1811": "book", "1812": "\u0120asked", "1813": "ederal", "1814": "orld", "1815": "\u0120reported", "1816": "You", "1817": "aged", "1818": "ensive", "1819": "\u0120given", "1820": "\u0120strong", "1821": "\u0120prob", "1822": "\u0120mus", "1823": "\u0120others", "1824": "\u0120believe", "1825": "\u0120video", "1826": "iber", "1827": "\u0120ben", "1828": "\u0120getting", "1829": "\u0120House", "1830": "ances", "1831": "\u0120announ", "1832": "\u0120light", "1833": "ging", "1834": "ored", "1835": "ober", "1836": "\u0120University", "1837": "\u012030", "1838": "\u0120Co", "1839": "itions", "1840": "\u0120ident", "1841": "iron", "1842": "\u0120sent", "1843": "\u0120cut", "1844": "\u0120lim", "1845": "\u0120ca", "1846": "\u0120Christ", "1847": "iety", "1848": "30", "1849": "urther", "1850": "\u0120sour", "1851": "\u0120creat", "1852": "\u0120cond", "1853": "\u0120X", "1854": "rest", "1855": "ams", "1856": "'ve", "1857": "\u0120net", "1858": "ashing", "1859": "\u0120bat", "1860": "ament", "1861": "\u0120national", "1862": ".,", "1863": "\u0120close", "1864": "arm", "1865": "\u0120started", "1866": "\u0120saf", "1867": "\u0120death", "1868": "aster", "1869": "\u0120available", "1870": "\u0120hig", "1871": "For", "1872": "\u0120based", "1873": "\u0120issue", "1874": "of", "1875": "\u0120indust", "1876": "\u0120Democrat", "1877": "\u0120low", "1878": "\u0120following", "1879": "resent", "1880": "\u0120account", "1881": "\u0120land", "1882": "use", "1883": "\u0120Cent", "1884": "\u0120employ", "1885": "\u0120love", "1886": "\u01202015", "1887": "\u0120#", "1888": "\u0120history", "1889": "\u0120ago", "1890": "orts", "1891": "selves", "1892": "\u0120mom", "1893": "ana", "1894": "\u0120party", "1895": "\u0120Am", "1896": "ability", "1897": "eb", "1898": "\u0120series", "1899": "\u0120comes", "1900": "\u0120trying", "1901": "uly", "1902": "utes", "1903": "\u0120almost", "1904": "gether", "1905": "ument", "1906": "\u0120together", "1907": "ination", "1908": "AT", "1909": "\u0120America", "1910": "\u0120idea", "1911": "pro", "1912": "ief", "1913": "\u0120access", "1914": "\u0120foc", "1915": "hers", "1916": "ilar", "1917": "\u0120Fl", "1918": "reed", "1919": "ails", "1920": "\u0120commit", "1921": "itional", "1922": "\u0120isn", "1923": "\u0120Sen", "1924": "\u0120clear", "1925": "\u012016", "1926": "\u0120One", "1927": "\u0120trad", "1928": "\u0120Min", "1929": "though", "1930": "ring", "1931": "\u0120What", "1932": "\u0120pract", "1933": "\u0120added", "1934": "\u0120impro", "1935": "\u0120experience", "1936": "erence", "1937": "\u0120film", "1938": "15", "1939": "\u0120half", "1940": "ustom", "1941": "ged", "1942": "\u0120hit", "1943": "\u0120Bro", "1944": "witter", "1945": "rict", "1946": "\u0120anal", "1947": "inton", "1948": "ograp", "1949": "unch", "1950": "\u01202014", "1951": "\u0120rul", "1952": "ividual", "1953": "\u0120looking", "1954": "\u0120six", "1955": "\u0120live", "1956": "\u0120anything", "1957": "\u0120area", "1958": "\u0120complete", "1959": "erman", "1960": "minist", "1961": "\u0120miss", "1962": "rael", "1963": "\u0120Comm", "1964": "\u0120Ex", "1965": "\u0120fav", "1966": "\u0120ris", "1967": "nes", "1968": "\u0120present", "1969": "ai", "1970": "ote", "1971": "rug", "1972": "\u0120saying", "1973": "raw", "1974": "aid", "1975": "\u0120Canad", "1976": "\u0120vict", "1977": "IN", "1978": "cially", "1979": "\u0120bad", "1980": "ows", "1981": "uge", "1982": "\u0120taken", "1983": "oto", "1984": "\u0120entire", "1985": "\u0120Pr", "1986": "ators", "1987": "\u0120bill", "1988": "\u0120compet", "1989": "af", "1990": "\u0120mor", "1991": "\u0120Eng", "1992": "\u0120behind", "1993": "ien", "1994": "\u0120aut", "1995": "\u0120To", "1996": "'m", "1997": "\u0120court", "1998": "play", "1999": "\u0120try", "2000": "ev", "2001": "\u0120military", "2002": "\u0120z", "2003": "\u0120near", "2004": "osp", "2005": "\u0120mult", "2006": "What", "2007": "\u0120face", "2008": "wards", "2009": "\u0120er", "2010": "\u012014", "2011": "\u0120security", "2012": "\u0120Pol", "2013": "sy", "2014": "\u0120proper", "2015": "\u0120discuss", "2016": "\u0120threat", "2017": "\u0120tot", "2018": "ert", "2019": "\u0120study", "2020": "\u0120single", "2021": "\u0120rather", "2022": "\u0120individual", "2023": "\u0120Af", "2024": "\u0120Brit", "2025": "\u0120War", "2026": "\u0120\u00c2", "2027": "ttp", "2028": "\u0120quick", "2029": "\u0120Don", "2030": "\u0120mind", "2031": "\u0120Sec", "2032": "lement", "2033": "ales", "2034": "atic", "2035": "An", "2036": "\u0120North", "2037": "amed", "2038": "aper", "2039": "\u0120publ", "2040": "\u0120policy", "2041": "\u0120mess", "2042": "ris", "2043": "par", "2044": "\u0120black", "2045": "\u0120wanted", "2046": "\u0120fall", "2047": "irc", "2048": "**", "2049": "off", "2050": "\u0120food", "2051": "\u0120sum", "2052": "\u0120someone", "2053": "lling", "2054": "ids", "2055": "On", "2056": "\u0120|", "2057": "\u0120/", "2058": "\u0120cult", "2059": "\u0120special", "2060": "\u0120comb", "2061": "\u0120key", "2062": "\u0120player", "2063": "\u0120redu", "2064": "\u0120Gr", "2065": "\u0120bring", "2066": "\u012013", "2067": "\u0120compan", "2068": "\u012017", "2069": "ply", "2070": "\u0120Dep", "2071": "\u0120attempt", "2072": "\u0120National", "2073": "\u0120taking", "2074": "\u0120Bar", "2075": "When", "2076": "ON", "2077": "ify", "2078": "olution", "2079": "\u0120:", "2080": "viron", "2081": "\u0120foot", "2082": "\u0120Cal", "2083": "://", "2084": "\u0120else", "2085": "\u0120pret", "2086": "\u0120body", "2087": "\u0120space", "2088": "elt", "2089": "rote", "2090": "over", "2091": "\u0120probably", "2092": "16", "2093": "icult", "2094": ".)", "2095": "\u0120front", "2096": "\u0120cou", "2097": "\u0120nothing", "2098": "\u0120Im", "2099": "\u0120sw", "2100": "ashington", "2101": "\u0120connect", "2102": "ches", "2103": "\u0120World", "2104": "\u0120research", "2105": "14", "2106": "\u0120Clinton", "2107": "\u0120City", "2108": "ming", "2109": "\u0120coming", "2110": "\u0120points", "2111": "\u0120Israel", "2112": "\u0120however", "2113": "RE", "2114": "\u0120describ", "2115": "\u0120jo", "2116": "go", "2117": "\u0120signific", "2118": "\u0120similar", "2119": "yn", "2120": "reme", "2121": "cing", "2122": "\u0120benef", "2123": "lier", "2124": "\u0120Man", "2125": "\u0120Aust", "2126": "\u0120imm", "2127": "\u0120decision", "2128": "\u0120either", "2129": "aces", "2130": "Ad", "2131": "\u0120coun", "2132": "ault", "2133": "So", "2134": "\u0120mass", "2135": "\u0120Har", "2136": "\u0120sus", "2137": "\u0120targ", "2138": "ully", "2139": "\u0120feat", "2140": "That", "2141": "\u0120conv", "2142": "\u0120exist", "2143": "irl", "2144": "\u0120enc", "2145": "\u01202013", "2146": "\u0120rights", "2147": "\u0120service", "2148": "\u0120Su", "2149": "asing", "2150": "sw", "2151": "IS", "2152": "\u0120fire", "2153": "\u0120doc", "2154": "\u0120wrote", "2155": "\u0120further", "2156": "\u0120house", "2157": "rodu", "2158": "\u0120fig", "2159": "\u0120chall", "2160": "\u0120ban", "2161": "ww", "2162": "\u0120third", "2163": "mb", "2164": "\u0120wa", "2165": "\u0120create", "2166": "\u0120stop", "2167": "\u0120field", "2168": "now", "2169": "\u0120pick", "2170": "AN", "2171": "ape", "2172": "ively", "2173": "\u0120meas", "2174": "\u0120repl", "2175": "\u0120compl", "2176": "ung", "2177": "\u0120With", "2178": "\u0120issues", "2179": "pping", "2180": "\u0120begin", "2181": "\u0120super", "2182": "amer", "2183": "\u0120step", "2184": "eal", "2185": "ried", "2186": "ently", "2187": "\u0120whole", "2188": "\u0120relations", "2189": "\u0120seems", "2190": "\u0120)", "2191": "\u0120companies", "2192": "pecially", "2193": "\u0120due", "2194": "\u0120exec", "2195": "\u0120cand", "2196": "\u0120everything", "2197": "\u0120federal", "2198": "\u0120Ed", "2199": "\u0120Gu", "2200": "\u0120states", "2201": "\u0120ey", "2202": "\u0120room", "2203": "aul", "2204": "\u0120tra", "2205": "\u0120watch", "2206": "oon", "2207": "\u0120Ge", "2208": "\u0120custom", "2209": "\u0120leaders", "2210": "13", "2211": "uation", "2212": "\u0120However", "2213": "pite", "2214": "\u0120Jan", "2215": "\u0120Washington", "2216": "Ch", "2217": "lam", "2218": "\u0120self", "2219": "\u0120role", "2220": "ran", "2221": "ilt", "2222": "\u0120sound", "2223": "\u0120lab", "2224": "att", "2225": "head", "2226": "\u0120dam", "2227": "ivil", "2228": "\u0120officials", "2229": "\u0120stri", "2230": "\u01202012", "2231": "\u0120tre", "2232": "iday", "2233": "ibility", "2234": "\u0120released", "2235": "lu", "2236": "\u0120Inst", "2237": "\u0120began", "2238": "\u0120Dav", "2239": "\u0120App", "2240": "\u0120South", "2241": "\u0120opt", "2242": "obal", "2243": "\u0120students", "2244": "\u0120treat", "2245": "\u0120final", "2246": "\u0120character", "2247": "\u0120position", "2248": "\u0120matter", "2249": "\u00c3\u00a9", "2250": "ender", "2251": "\u0120ener", "2252": "lim", "2253": "\u0120outside", "2254": "ery", "2255": "sec", "2256": "ades", "2257": "\u0120dou", "2258": "vironment", "2259": "\u0120development", "2260": "\u0120statement", "2261": "\u0120himself", "2262": "\u01202017", "2263": "\u0120above", "2264": "like", "2265": "\u0120stat", "2266": "\u0120init", "2267": "\u0120break", "2268": "\u0120100", "2269": "\u0120amount", "2270": "\u0120provide", "2271": "\u0120hours", "2272": "\u0120itself", "2273": "\u0120themselves", "2274": "\u0120office", "2275": "\u0120represent", "2276": "\u0120action", "2277": "\u0120Part", "2278": "\u0120di", "2279": "\u0120became", "2280": "\u0120198", "2281": "\u0120general", "2282": "\u0120continue", "2283": "\u0120countries", "2284": "\u0120Intern", "2285": "\u0120neg", "2286": "\u0120address", "2287": "iod", "2288": "\u012025", "2289": "\u0120gun", "2290": "aced", "2291": "ask", "2292": "\u0120true", "2293": "\u0120specific", "2294": "ograph", "2295": "umb", "2296": "arter", "2297": "reg", "2298": "\u0120larg", "2299": "\u0120significant", "2300": "lish", "2301": "\u0120simply", "2302": "\u0120Ass", "2303": "\u0120Res", "2304": "\u0120wasn", "2305": "'ll", "2306": "ili", "2307": "\u0120interview", "2308": "acebook", "2309": "\u0120ground", "2310": "\u0120rad", "2311": "oid", "2312": "ogn", "2313": "\u0120difficult", "2314": "\u0120running", "2315": "\u0120Just", "2316": "\u0120evidence", "2317": "\u0120administ", "2318": "BC", "2319": "\u0120cop", "2320": "17", "2321": "ream", "2322": "\u0120drug", "2323": "\u0120version", "2324": "ogle", "2325": "\u0120bar", "2326": "\u0120agree", "2327": "iddle", "2328": "eks", "2329": "\u0120building", "2330": "\u0120China", "2331": "\u0120needs", "2332": "\u0120profess", "2333": "angu", "2334": "\u0120groups", "2335": "right", "2336": "\u0120typ", "2337": "\u0120respons", "2338": "\u0120common", "2339": "\u0120shows", "2340": "\u0120everyone", "2341": "\u0120dom", "2342": "\u0120dest", "2343": "\u0120red", "2344": "\u0120needed", "2345": "\u0120ball", "2346": "\u0120woman", "2347": "___", "2348": "\u0120German", "2349": "\u0120lat", "2350": "\u0120below", "2351": "\u0120tem", "2352": "light", "2353": "ournal", "2354": "\u0120music", "2355": "\u0120exc", "2356": "\u0120release", "2357": "ift", "2358": "\u0120inj", "2359": "\u0120pretty", "2360": "\u0120Ab", "2361": "AR", "2362": "ribut", "2363": "\u0120Med", "2364": "\u0120include", "2365": "\u0120saw", "2366": "\u0120deep", "2367": "\u0120ap", "2368": "body", "2369": "18", "2370": "\u0120played", "2371": "\u0120quite", "2372": "\u0120industry", "2373": "\u0120charg", "2374": "\u0120mag", "2375": "\u0120energy", "2376": "\u0120playing", "2377": "\u0120mot", "2378": "\u012050", "2379": "\u0120candid", "2380": "\u0120sense", "2381": "\u0120phys", "2382": "\u0120late", "2383": "\u0120alleg", "2384": "\u0120white", "2385": "\u0120His", "2386": "eg", "2387": "ival", "2388": "\u0120friends", "2389": "\u0120gen", "2390": "\u0120legal", "2391": "atur", "2392": "bo", "2393": "\u0120anim", "2394": "isc", "2395": "yle", "2396": "\u0120After", "2397": "omm", "2398": "How", "2399": "AS", "2400": "where", "2401": "\u0120abs", "2402": "lev", "2403": "\u0120instead", "2404": "\u0120billion", "2405": "\u0120lost", "2406": "\u0120especially", "2407": "\u0120value", "2408": "\u0120Mus", "2409": "\u0120West", "2410": "\u0120host", "2411": "osing", "2412": "oring", "2413": "\u0120hom", "2414": "\u0120News", "2415": "time", "2416": "ager", "2417": "\u0120ple", "2418": "istic", "2419": "\u0120weeks", "2420": "epend", "2421": "\u0120Not", "2422": "ccording", "2423": "\u0120forward", "2424": "\u0120deter", "2425": "\u0120election", "2426": "\u0120recently", "2427": "\u0120jud", "2428": "\u0120track", "2429": "\u0120suff", "2430": "\u0120vote", "2431": "\u0120Twitter", "2432": "\u0120object", "2433": "irt", "2434": "lt", "2435": "medi", "2436": "\u0120period", "2437": "\u0120changes", "2438": "\u0120opportun", "2439": "\u0120White", "2440": "\u0120Oct", "2441": "\u0120lo", "2442": "\u0120longer", "2443": "arc", "2444": "eed", "2445": "oke", "2446": "\u0120ep", "2447": "\u0120pain", "2448": "ique", "2449": "\u0120soon", "2450": "\u0120site", "2451": "\u0120{", "2452": "hod", "2453": "ript", "2454": "ached", "2455": "\u0120accept", "2456": "\u0120Cong", "2457": "___", "2458": "irm", "2459": "\u0120shoot", "2460": "\u0120economic", "2461": "\u0120hope", "2462": "\u0120moment", "2463": "\u0120decl", "2464": "lege", "2465": "\u0120consum", "2466": "\u0120Will", "2467": "\u0120pie", "2468": "\u0120tit", "2469": "\u0120check", "2470": "oph", "2471": "oe", "2472": "\u0120potential", "2473": "\u0120block", "2474": "\u0120March", "2475": "ole", "2476": "\u0120wrong", "2477": "duct", "2478": "ners", "2479": "ij", "2480": "\u0120Sept", "2481": "den", "2482": "\u0120Department", "2483": "\u0120higher", "2484": "onse", "2485": "\u0120cred", "2486": "\u0120online", "2487": "\u0120focus", "2488": "\u012024", "2489": "\u0120consider", "2490": "key", "2491": "\u0120educ", "2492": "ancial", "2493": "\u0120My", "2494": "ns", "2495": "iding", "2496": "\u0120circ", "2497": "\u0120works", "2498": "\u0120relig", "2499": "\u0120share", "2500": "\u0120parent", "2501": "cial", "2502": "\u0120held", "2503": "25", "2504": "\u0120pred", "2505": "\u0120Dr", "2506": "\u0120walk", "2507": "\u0120webs", "2508": "ularly", "2509": "==", "2510": "\u0120reve", "2511": "\u0120led", "2512": "lear", "2513": "\u0120stay", "2514": "\u0120These", "2515": "overed", "2516": "\u0120stru", "2517": "alt", "2518": "\u0120Republican", "2519": "\u0120risk", "2520": "\u0120words", "2521": "\u0120Aug", "2522": "\u0120rev", "2523": "\u0120sold", "2524": "\u0120review", "2525": "icro", "2526": "\u0120contract", "2527": "\u0120results", "2528": "\u0120services", "2529": "\u0120laws", "2530": "They", "2531": "\u0120code", "2532": "cil", "2533": "\u0120Mich", "2534": "\u0120wind", "2535": "\u0120function", "2536": "\u0120aud", "2537": "\u0120ce", "2538": "\u0120Syri", "2539": "put", "2540": "aut", "2541": "\u0120total", "2542": "fect", "2543": "\u0120article", "2544": "\u0120age", "2545": "\u0120applic", "2546": "\u0120minutes", "2547": "\u0120personal", "2548": "ilities", "2549": "\u0120anyone", "2550": "uary", "2551": "ients", "2552": "itution", "2553": "asons", "2554": "\u0120June", "2555": "ateg", "2556": "\u0120prim", "2557": "anger", "2558": "\u0120target", "2559": "fer", "2560": "\u0120den", "2561": "\u0120earlier", "2562": "ule", "2563": "\u0120favor", "2564": "\u0120express", "2565": "haps", "2566": "\u0120dead", "2567": "\u0120answ", "2568": "\u0120upd", "2569": "ech", "2570": "\u0120popular", "2571": "che", "2572": "\u0120comput", "2573": "\u0120Ste", "2574": "\u0120vol", "2575": "pril", "2576": "\u0120necess", "2577": "ham", "2578": "\u0120hy", "2579": "\u0120rate", "2580": "ES", "2581": "aging", "2582": "\u0120technology", "2583": "apan", "2584": "\u0120respect", "2585": "val", "2586": "\u0120environment", "2587": "\u01202011", "2588": "Ph", "2589": "\u0120received", "2590": "\u0120expected", "2591": "\u0120Sm", "2592": "ends", "2593": "ude", "2594": "\u0120goal", "2595": "\u0120created", "2596": "\u0120base", "2597": "\u0120surpr", "2598": "\u0120anti", "2599": "\u0120Par", "2600": "\u0120July", "2601": "eter", "2602": "tee", "2603": "\u0120problems", "2604": "uel", "2605": "\u0120ways", "2606": "\u0120port", "2607": "iple", "2608": "action", "2609": "\u0120private", "2610": "\u0120Do", "2611": "\u0120scient", "2612": "\u0120increase", "2613": "ray", "2614": "reet", "2615": "\u0120announced", "2616": "\u0120comment", "2617": "isl", "2618": "\u0120cannot", "2619": "\u0120easy", "2620": "Al", "2621": "\u0120shot", "2622": "\u0120Congress", "2623": "\u0120questions", "2624": "bit", "2625": "\u0120force", "2626": "\u0120Pe", "2627": "aterial", "2628": "\u0120impact", "2629": "hern", "2630": "\u0120et", "2631": "\u0120Mond", "2632": "ples", "2633": "\u0120pack", "2634": "\u0120+", "2635": "\u0120pur", "2636": "\u0120Facebook", "2637": "\u0120langu", "2638": "atives", "2639": "\u0120God", "2640": "\u0120En", "2641": "\u0120involved", "2642": "omb", "2643": "aving", "2644": "ills", "2645": "60", "2646": "lex", "2647": "hood", "2648": "onst", "2649": "\u0120Austral", "2650": "\u0120div", "2651": "uesday", "2652": "\u0120execut", "2653": "ctor", "2654": "\u0120model", "2655": "itiz", "2656": "\u0120sen", "2657": "\u0120speak", "2658": "\u0120staff", "2659": "\u0120exact", "2660": "\u0120civil", "2661": "ees", "2662": "ires", "2663": "\u0120nearly", "2664": "\u0120type", "2665": "ourt", "2666": "okes", "2667": "\u0120original", "2668": "\u0120cases", "2669": "\u0120content", "2670": "\u0120197", "2671": "\u0120relationship", "2672": "\u0120terror", "2673": "\u0120Google", "2674": "To", "2675": "\u0120leave", "2676": "\u0120Friday", "2677": "\u0120response", "2678": "\u0120capt", "2679": "\u0120inside", "2680": "\u0120<", "2681": "\u0120phot", "2682": "lled", "2683": "\u0120fans", "2684": "\u0120April", "2685": "\u0120international", "2686": "\u0120coll", "2687": "cast", "2688": "\u0120heart", "2689": "\u0120average", "2690": "\u0120broad", "2691": "\u0120arrest", "2692": "\u0120users", "2693": "\u0120Count", "2694": "\u0120cal", "2695": "At", "2696": "rel", "2697": "\u0120cell", "2698": "\u0120worth", "2699": "\u0120Em", "2700": "\u0120soft", "2701": "\u0120ur", "2702": "\u0120living", "2703": "bor", "2704": "\u0120Red", "2705": "\u0120nation", "2706": "ips", "2707": "ky", "2708": "\u0120killed", "2709": "\u0120reports", "2710": "\u01202010", "2711": "\u00e3\u0123", "2712": "\u0120becom", "2713": "\u0120source", "2714": "\u0120Monday", "2715": "\u0120Tuesday", "2716": "\u0120subject", "2717": "\u0120worked", "2718": "atural", "2719": "ests", "2720": "\u0120estab", "2721": "\u0120immedi", "2722": "EN", "2723": "\u0120respond", "2724": "\u0120global", "2725": "\u0120associ", "2726": "joy", "2727": "ellig", "2728": "\u0120club", "2729": "ops", "2730": "\u0120Americans", "2731": "ael", "2732": "\u0120obs", "2733": "ites", "2734": "\u0120Per", "2735": "\u0120Pal", "2736": "\u0120chance", "2737": "\u0120oil", "2738": "\u0120Act", "2739": "\u0120ability", "2740": "\u0120takes", "2741": "rought", "2742": "\u0120weap", "2743": "hel", "2744": "\u0120price", "2745": "\u0120Japan", "2746": "ological", "2747": "\u0120director", "2748": "izing", "2749": "\u0120workers", "2750": "\u0120terms", "2751": "\u0120road", "2752": "mon", "2753": "\u0120published", "2754": "\u0120del", "2755": "ext", "2756": "\u0120While", "2757": "\u0120tou", "2758": "\u0120phone", "2759": "rain", "2760": "\u0120collect", "2761": "\u0120financial", "2762": "\u0120mid", "2763": "osition", "2764": "\u0120decided", "2765": "ises", "2766": "OR", "2767": "\u0120Russia", "2768": "\u0120Some", "2769": "\u0120mother", "2770": "\u0120squ", "2771": "\u0120Wed", "2772": "\u0120lack", "2773": "\u0120defin", "2774": "ovember", "2775": "\u012040", "2776": "\u0120girl", "2777": "\u0120store", "2778": "\u0120gave", "2779": "\u0120buy", "2780": "\u0120influ", "2781": "\u0120Calif", "2782": "\u0120log", "2783": "\u0120happened", "2784": "\u0120require", "2785": "\u0120Now", "2786": "\u0120emer", "2787": "ino", "2788": "\u0120fem", "2789": "\".", "2790": "ese", "2791": "\u0120capital", "2792": "clus", "2793": "\u0120foreign", "2794": "\u0120currently", "2795": "\u0120Off", "2796": "based", "2797": "\u0120San", "2798": "\u0120goes", "2799": "\u0120By", "2800": "oved", "2801": "\u0120Geor", "2802": "vertise", "2803": "\u0120situation", "2804": "\u0120indic", "2805": "\u0120offer", "2806": "\u0120whose", "2807": "\u0120@", "2808": "\u0120tal", "2809": "\u0120material", "2810": "\u0120lives", "2811": "unt", "2812": "\u0120affect", "2813": "rown", "2814": "ought", "2815": "hem", "2816": "\u0120plans", "2817": "nesday", "2818": "\u0120arri", "2819": "\u0120bur", "2820": "\u0120member", "2821": "\u0120pict", "2822": "ursday", "2823": "\u0120Feb", "2824": "\u0120particip", "2825": "ruction", "2826": "\u0120recogn", "2827": "\u0120turned", "2828": "\u0120method", "2829": "\u0120events", "2830": "\u0120January", "2831": "\u0120Hill", "2832": "\u0120network", "2833": "One", "2834": "\u0120teams", "2835": "\u0120Sund", "2836": "\u0120bank", "2837": "\u0120meeting", "2838": "40", "2839": "rect", "2840": "\u0120norm", "2841": "\u0120introdu", "2842": "\u0120simple", "2843": "fully", "2844": "\u0120Ag", "2845": "\u0120Islam", "2846": "\u0120ill", "2847": "\u0120huge", "2848": "\u0120September", "2849": "\u0120regard", "2850": "\u0120areas", "2851": "\u0120cy", "2852": "order", "2853": "\u0120Cor", "2854": "\u0120TV", "2855": "\u0120Me", "2856": "bl", "2857": "\u0120couple", "2858": "\u0120approach", "2859": "aur", "2860": "\u0120career", "2861": "\u0120Afric", "2862": "\u0120Gl", "2863": "load", "2864": "\",", "2865": "\u0120deli", "2866": "oud", "2867": "\u0120race", "2868": "\u0120performance", "2869": "\u0120page", "2870": "ety", "2871": "apt", "2872": "\u0120November", "2873": "\u0120tool", "2874": "\u0120David", "2875": "\u0120felt", "2876": "\u0120quickly", "2877": "\u0120mis", "2878": "\u0120numbers", "2879": "oor", "2880": "\u0120email", "2881": "\u0120El", "2882": "\u012021", "2883": "aily", "2884": "\u0120ord", "2885": "istan", "2886": "\u0120administration", "2887": "\u0120hon", "2888": "\u0120Wednesday", "2889": "\u0120victim", "2890": "\u0120Paul", "2891": "\u0120via", "2892": "\u0120improve", "2893": "\u0120engine", "2894": "chie", "2895": "\u0120fre", "2896": "\u0120pull", "2897": "\u0120Ang", "2898": "\u0120round", "2899": "\u0120built", "2900": "\u012022", "2901": "\u0120pers", "2902": "\u0120European", "2903": "\u0120dig", "2904": "\u0120Thursday", "2905": "\u0120father", "2906": "ornia", "2907": "\u0120loss", "2908": "avy", "2909": "\u0120thous", "2910": "\u00c2\u0143", "2911": "\u0120http", "2912": "ructure", "2913": "\u0120production", "2914": "\u0120boy", "2915": "ume", "2916": "lin", "2917": "\u0120heard", "2918": "down", "2919": "Sh", "2920": "\u0120economy", "2921": "\u00e2\u0122\u013f.", "2922": "\u0120enjoy", "2923": "\u0120August", "2924": "\u0120trade", "2925": "\u0120Sch", "2926": "face", "2927": "\u0120website", "2928": "iment", "2929": "\u0120secret", "2930": "\u0120cover", "2931": "\u0120reveal", "2932": "\u0120wide", "2933": "\u0120board", "2934": "\u0120match", "2935": "\u0120Court", "2936": "AL", "2937": "\u0120allowed", "2938": "\u0120hands", "2939": "\u0120spent", "2940": "\u0120travel", "2941": "\u0120lower", "2942": "\u0120repe", "2943": "atory", "2944": "\u0120poll", "2945": "\u0120included", "2946": "cember", "2947": "\u0120ste", "2948": "\u0120October", "2949": "\u0120neigh", "2950": "\u0120legisl", "2951": "orters", "2952": "uses", "2953": "\u0120behav", "2954": "iction", "2955": "\u0120knew", "2956": "\u0120text", "2957": "\u0120wants", "2958": "\u0120town", "2959": "ights", "2960": "\u0120British", "2961": "\u0120separ", "2962": "ences", "2963": "estern", "2964": "\u0120visit", "2965": "\u0120Canada", "2966": "anks", "2967": "ctions", "2968": "With", "2969": "\u0120perfect", "2970": "\u0120gets", "2971": "ession", "2972": "\u0120movement", "2973": "\u0120aren", "2974": "ishing", "2975": "raz", "2976": "ground", "2977": "agement", "2978": "\u0120tried", "2979": "\u0120cause", "2980": "?\u00e2\u0122\u013f", "2981": "gest", "2982": "\u0120}", "2983": "\u0120forces", "2984": "\u0120Sunday", "2985": "\u0120ens", "2986": "After", "2987": "force", "2988": "ceed", "2989": "\u0120attention", "2990": "\u0120particular", "2991": "\u0120bi", "2992": "urd", "2993": "][", "2994": "\u0120veh", "2995": "\u0120bud", "2996": "\u0120fear", "2997": "\u0120population", "2998": "ened", "2999": "\u0120various", "3000": "\u0120UK", "3001": "\u0120reach", "3002": "\u0120looks", "3003": "\u012023", "3004": "\u0120California", "3005": "\u0120brought", "3006": "\u0120vo", "3007": "\u0120Kore", "3008": "\u0120link", "3009": "ibly", "3010": ");", "3011": "arily", "3012": "\u0120IS", "3013": "200", "3014": "\u0120previous", "3015": "ED", "3016": "\u0120mention", "3017": "\u0120Russian", "3018": "\u0120morning", "3019": "\u0120Qu", "3020": "cle", "3021": "idered", "3022": "'d", "3023": "\u0120fair", "3024": "\u0120growth", "3025": "aker", "3026": "\u0120Sw", "3027": "undred", "3028": "99", "3029": "sequ", "3030": "yond", "3031": "\u0120progress", "3032": "\u0120fell", "3033": "alled", "3034": "\u0120song", "3035": "iam", "3036": "ening", "3037": "\u0120Cont", "3038": "AC", "3039": "\u0120training", "3040": "field", "3041": "hold", "3042": "uk", "3043": "\u0120size", "3044": "\u0120Black", "3045": "cies", "3046": "\u0120December", "3047": "idents", "3048": "\u0120contact", "3049": "ledge", "3050": "\u0120hor", "3051": "\u0120Her", "3052": "\u0120demand", "3053": "While", "3054": "\u0120image", "3055": "\u0120rac", "3056": "\u0120hot", "3057": "ification", "3058": "OS", "3059": "\u0120leader", "3060": "set", "3061": "ecause", "3062": "\u0120rules", "3063": "\u0120prep", "3064": "\u0120liber", "3065": "ze", "3066": "\u0120search", "3067": "\u0120ess", "3068": "\u0120Post", "3069": "\u0120citiz", "3070": "\u0120upon", "3071": "\u0120strugg", "3072": "\u0120Street", "3073": "\u0120latest", "3074": "come", "3075": "ondon", "3076": "\u0120independ", "3077": "US", "3078": "uments", "3079": "inks", "3080": "arth", "3081": "\u0120features", "3082": "\u0120coach", "3083": "\u0120Park", "3084": "iant", "3085": "\u0120fast", "3086": "Tr", "3087": "oo", "3088": "sych", "3089": "\u0120talking", "3090": "\u0120Jew", "3091": "omp", "3092": "\u0120addition", "3093": "ges", "3094": "\u0120star", "3095": "\u0120wond", "3096": "\u0120Senate", "3097": "IT", "3098": "\u0120Pat", "3099": "\u0120speed", "3100": "\u0120exam", "3101": "\u0120considered", "3102": "raq", "3103": "icles", "3104": "aries", "3105": "\u0120reb", "3106": "\u0120levels", "3107": "eth", "3108": "\u0120Times", "3109": "\u0120County", "3110": "elligence", "3111": "\u0120slow", "3112": "\u0120investigation", "3113": "bed", "3114": "ps", "3115": "ille", "3116": "\u0120conduct", "3117": "aph", "3118": "\u0120Party", "3119": "22", "3120": "\u0120King", "3121": "\u0120medical", "3122": "\u0120mach", "3123": "\u0120sn", "3124": "imately", "3125": "vent", "3126": "\u0120achie", "3127": "\u0120language", "3128": "aturday", "3129": "\u0120card", "3130": "unk", "3131": "\u0120sort", "3132": "\u0120critic", "3133": "ope", "3134": "\u0120Tex", "3135": "\u0120Center", "3136": "\u0120pen", "3137": "\u0120und", "3138": "\u0120India", "3139": "\u0120paper", "3140": "wo", "3141": "ysis", "3142": "IC", "3143": "\u01202008", "3144": "pir", "3145": "\u0120conserv", "3146": "\u0120parents", "3147": "\u0120sexual", "3148": "ma", "3149": "\u0120systems", "3150": "\u0120prior", "3151": "uit", "3152": "asc", "3153": "imin", "3154": "\u0120doll", "3155": "\u0120written", "3156": "uf", "3157": "\u0120box", "3158": "\u0120spokes", "3159": "igr", "3160": "\u0120seek", "3161": "\u0120sens", "3162": "eared", "3163": "het", "3164": "\u0120document", "3165": "idge", "3166": "\u0120increasing", "3167": "\u0120hear", "3168": "ani", "3169": "atform", "3170": "\u0120draw", "3171": "\u0120seven", "3172": "\u0120son", "3173": "\u0120Muslim", "3174": "\u0120effort", "3175": "ruary", "3176": "\u0120jobs", "3177": "\u0120Iran", "3178": "\u0120extreme", "3179": "\u0120prevent", "3180": "\u0120learn", "3181": "ining", "3182": "\u0120serious", "3183": "\u0120regul", "3184": "rast", "3185": "\u0120inn", "3186": "\u0120range", "3187": "\u0120...", "3188": "room", "3189": "\u0120violence", "3190": "\u0120eight", "3191": "\u0120Mark", "3192": "80", "3193": "ources", "3194": "\u0120Iraq", "3195": "itch", "3196": "OP", "3197": "\u0120surve", "3198": "\u0120completely", "3199": "\u0120conc", "3200": "\u01202009", "3201": "eff", "3202": "\u0120message", "3203": "ico", "3204": "tr", "3205": "ha", "3206": "\u0120\u00e2", "3207": "\u0120obv", "3208": "\u0120interesting", "3209": "reedom", "3210": "She", "3211": "\u0120screen", "3212": "abor", "3213": "\u0120opportunity", "3214": "\u0120climate", "3215": "24", "3216": "\u0120majority", "3217": "\u0120Ke", "3218": "anced", "3219": "\u0120particularly", "3220": "\u0120doub", "3221": "\u0120journal", "3222": "\u0120despite", "3223": "\u0120Rom", "3224": "\u0120claims", "3225": "fort", "3226": "\u0120answer", "3227": "\u0120Char", "3228": "\u0120society", "3229": "\u0120London", "3230": "\u0120defense", "3231": "\u0120carry", "3232": "entially", "3233": "aming", "3234": "\u0120guy", "3235": "\u0120extra", "3236": "ension", "3237": "\u0120Donald", "3238": "isions", "3239": "\u0120attacks", "3240": "\u0120required", "3241": "erve", "3242": "rench", "3243": "illed", "3244": "\u0120biggest", "3245": "vertisement", "3246": "\u0120East", "3247": "\u0120exactly", "3248": "\u0120paid", "3249": "mp", "3250": "\u0120More", "3251": "iers", "3252": "ibr", "3253": "...", "3254": "\u0120experien", "3255": "lying", "3256": "uclear", "3257": "inese", "3258": "isi", "3259": "\u0120modern", "3260": "\u0120remain", "3261": "\u0120quarter", "3262": "\u0120officers", "3263": "ett", "3264": "\u0120hundred", "3265": "\u0120cross", "3266": "\u0120except", "3267": "utions", "3268": "ari", "3269": "\u0120table", "3270": "\u0120practice", "3271": "inally", "3272": "\u0120natural", "3273": "\u0120middle", "3274": "erc", "3275": "\u012027", "3276": "\u0120certainly", "3277": "na", "3278": "\u0120dro", "3279": "oses", "3280": "\u0120Saturday", "3281": "\u0120stories", "3282": "\u0120Net", "3283": "\u0120histor", "3284": "\u0120gas", "3285": "\u0120products", "3286": "\u0120surv", "3287": "\u0120looked", "3288": "\u0120sometimes", "3289": "nces", "3290": "\u0120stuff", "3291": "\u0120rout", "3292": "\u0120science", "3293": "\u0120finally", "3294": "\u0120user", "3295": "\u0120Tur", "3296": "AM", "3297": "\u0120summer", "3298": "\u0120movie", "3299": "\u0120blood", "3300": "ospital", "3301": "aves", "3302": "\u0120communic", "3303": "\u0120aw", "3304": "ously", "3305": "\u0120lay", "3306": "\u0120changed", "3307": "\u0120term", "3308": "\u0120ones", "3309": "\u0120leading", "3310": "\u0120described", "3311": "\u0120Sand", "3312": "\u0120imag", "3313": "\u0120February", "3314": "fl", "3315": "\u0120prison", "3316": "\u0120convers", "3317": "ny", "3318": "\u0120details", "3319": "icks", "3320": "\u0120starting", "3321": "\u0120Spe", "3322": "\u0120quality", "3323": "\u0120occur", "3324": "\u0120pan", "3325": "hib", "3326": "\u0120showed", "3327": "\u0120named", "3328": "\u0120giving", "3329": "\u0120ult", "3330": "\u0120remains", "3331": "\u0120McC", "3332": "uing", "3333": "\u0120region", "3334": "pper", "3335": "\u0120provided", "3336": "\u0120costs", "3337": "akers", "3338": "\u0120Soc", "3339": "arr", "3340": "\u0120damage", "3341": "\u0120mob", "3342": "\u0120danger", "3343": "\u0120fit", "3344": "aught", "3345": "\u0120TH", "3346": "\u0120chief", "3347": "\u0120poor", "3348": "\u0120path", "3349": "\u0120Mor", "3350": "ida", "3351": "\u0120education", "3352": "\u0120multiple", "3353": "\u0120continued", "3354": "enge", "3355": "\u0120Int", "3356": "\u0120growing", "3357": "No", "3358": "\u0120demonst", "3359": "\u0120*", "3360": "\u0120parts", "3361": "\u012026", "3362": "\u0120writing", "3363": "\u0120comments", "3364": "\u012028", "3365": "\u0120ment", "3366": "yl", "3367": "\u0120maintain", "3368": "\u0120safe", "3369": "\u0120assist", "3370": "\u0120thinking", "3371": "\u0120Des", "3372": "inary", "3373": "\u0120Republicans", "3374": "\u0120Even", "3375": "\u0120purp", "3376": "\u0120request", "3377": "\u0120write", "3378": "\u0120fix", "3379": "\u0120item", "3380": "\u0120purch", "3381": "ables", "3382": "\u0120died", "3383": "\u0120Democratic", "3384": "\u0120Coun", "3385": "FL", "3386": "ara", "3387": "ago", "3388": "\u0120ready", "3389": "coin", "3390": "\u0120wouldn", "3391": "\u0120implement", "3392": "23", "3393": "\u0120increased", "3394": "\u0120culture", "3395": "\u0120efforts", "3396": "\u0120voters", "3397": "ux", "3398": "pre", "3399": "\u0120camer", "3400": "\u0120mill", "3401": "aly", "3402": "oper", "3403": "\u0120reading", "3404": "mitted", "3405": "iminal", "3406": "\u0120file", "3407": "\u0120usually", "3408": "\u0120calls", "3409": "\u0120spot", "3410": "Im", "3411": "\u0120effects", "3412": "\u0120Gener", "3413": "zz", "3414": "\u0120perhaps", "3415": "ban", "3416": "\u0120alone", "3417": "arian", "3418": "iles", "3419": "\u0120First", "3420": "\u0120although", "3421": "\u0120towards", "3422": "hest", "3423": "\u0120League", "3424": "\u0120consist", "3425": "\u0120Bill", "3426": "\u0120Texas", "3427": "\u0120select", "3428": "\u0120guys", "3429": "\u0120standard", "3430": "\u0120Michael", "3431": "\u0120subst", "3432": "\u0120cele", "3433": "\u0120beyond", "3434": "\u0120directly", "3435": "\u0120platform", "3436": "\u0120Chinese", "3437": "\u0120(@", "3438": "\u0120hous", "3439": "using", "3440": "itute", "3441": "\u0120speech", "3442": "\u0120reality", "3443": "egr", "3444": "icated", "3445": "\u0120kids", "3446": "\u0120James", "3447": "\u0120avoid", "3448": "\u0120throughout", "3449": "\u0120football", "3450": "\u0120student", "3451": "\u0120tur", "3452": "\u0120couldn", "3453": "BI", "3454": "ford", "3455": "\u0120unf", "3456": "\u0120immediately", "3457": "oul", "3458": "\u0120rob", "3459": "\u0120Ne", "3460": "\u0120includes", "3461": "\u0120cat", "3462": "\u0120concept", "3463": "\u0120center", "3464": "\u0120choice", "3465": "\u0120scene", "3466": "\u0120complex", "3467": "anch", "3468": "\u0120additional", "3469": "sp", "3470": "\u0120Mon", "3471": "\u0120challeng", "3472": "\u0120Cons", "3473": "\u0120wife", "3474": "\u0120clos", "3475": "\u0120tro", "3476": "\u0120recomm", "3477": "\u0120researc", "3478": "Re", "3479": "\u0120epis", "3480": "itor", "3481": "All", "3482": "\u0120ver", "3483": "\u0120Minister", "3484": "\u0120sle", "3485": "\u0120corpor", "3486": "\u0120\u00e2\u0122\u00a6", "3487": "\u0120designed", "3488": "\u0120Ser", "3489": "agon", "3490": "\u0120remember", "3491": "\u0120software", "3492": "\u0120safety", "3493": "\u0120Indian", "3494": "wise", "3495": "\u0120gone", "3496": "\u0120il", "3497": "astic", "3498": "ports", "3499": "\u0120cast", "3500": "\u0120sell", "3501": "\u0120toward", "3502": "\u0120agency", "3503": "\u0120ten", "3504": "\u0120officer", "3505": "aches", "3506": "bur", "3507": "\u0120figure", "3508": "\u0120piece", "3509": "\u0120brain", "3510": "omen", "3511": "\u0120battle", "3512": "\u0120Jack", "3513": "\u0120counter", "3514": "men", "3515": "\u0120debate", "3516": "airs", "3517": "ression", "3518": "ston", "3519": "\u0120thousands", "3520": "adem", "3521": "\u0120swe", "3522": "rupt", "3523": "\u0120ahead", "3524": "\u0120opin", "3525": "ingin", "3526": "icient", "3527": "Now", "3528": "imum", "3529": "\u0120relative", "3530": "irth", "3531": "\u0120letter", "3532": "\u0120receive", "3533": "\u0120pressure", "3534": "\u0120Bo", "3535": "\u0120\u00d0", "3536": "\u0120blog", "3537": "ilies", "3538": "ampions", "3539": "\u0120>", "3540": "\u0120sil", "3541": "\u0120moved", "3542": "\u0120launch", "3543": "\u0120appears", "3544": "\u0120option", "3545": "\u0120Play", "3546": "\u0120passed", "3547": "\u0120ut", "3548": "\u0120prec", "3549": "\u0120stage", "3550": "roy", "3551": "oes", "3552": "\u012060", "3553": "\u0120clean", "3554": "\u0120Serv", "3555": "olute", "3556": "\u0120II", "3557": "atever", "3558": "berg", "3559": "OT", "3560": "\u0120property", "3561": "27", "3562": "\u0120helped", "3563": "\u0120drive", "3564": "\u0120Apple", "3565": "just", "3566": "\u0120alleged", "3567": "\u0120Green", "3568": "\u0120twe", "3569": "new", "3570": "\u0120disapp", "3571": "\u0120tour", "3572": "\u0120meaning", "3573": "\u0120rock", "3574": "\u0120dog", "3575": "\u0120x", "3576": "urt", "3577": "itation", "3578": "\u0120cris", "3579": "\u0120Associ", "3580": "\u0120suspect", "3581": "\u0120date", "3582": "\u0120Rich", "3583": "aughter", "3584": "\u0120moving", "3585": "\u0120score", "3586": "\u0120Democrats", "3587": "\u0120organization", "3588": "\u0120sat", "3589": "\u0120conditions", "3590": "\u0120touch", "3591": "\u0120dark", "3592": "\u0120command", "3593": "\u0120Then", "3594": "\u0120ign", "3595": "?\"", "3596": "\u0120reasons", "3597": "\u0120budget", "3598": "\u0120crow", "3599": "\u0120park", "3600": "more", "3601": "\u0120nuclear", "3602": "\u0120myself", "3603": "\u0120nom", "3604": "\u0120deg", "3605": "\u0120happy", "3606": "\u0120device", "3607": "\u0120difference", "3608": "rief", "3609": "\u0120Sim", "3610": "\u0120maybe", "3611": "\u0120beginning", "3612": "AD", "3613": "\u0120copy", "3614": "\u0120nature", "3615": "\u0120failed", "3616": "wood", "3617": "\u0120fan", "3618": "\u0120characters", "3619": "yan", "3620": "\u0120computer", "3621": "\u0120encour", "3622": "sis", "3623": "\u0120aim", "3624": "\u0120Mart", "3625": "\u0120title", "3626": "\u0120wall", "3627": "\u0120compared", "3628": "\u0120league", "3629": "ocked", "3630": "\u0120Super", "3631": "ean", "3632": "ivity", "3633": "\u0120estim", "3634": "add", "3635": "\u0120Val", "3636": "\u0120Star", "3637": "\u0120college", "3638": "\u0120eyes", "3639": "\u0120shown", "3640": "\u0120English", "3641": "\u0120century", "3642": "\u0120powerful", "3643": "\u0120Day", "3644": "lease", "3645": "ource", "3646": "\u0120bal", "3647": "aint", "3648": "\u0120limited", "3649": "\u0120yes", "3650": "\u0120band", "3651": "\u0120contribut", "3652": "\u0120positive", "3653": "\u0120forced", "3654": "\u0120necessary", "3655": "\u0120Che", "3656": "\u0120refer", "3657": "\u0120candidate", "3658": "\u0120stra", "3659": "\u0120disp", "3660": "35", "3661": "cient", "3662": "\u0120books", "3663": "\u0120trust", "3664": "AP", "3665": "\u0120French", "3666": "\u0120largest", "3667": "26", "3668": "\u0120arch", "3669": "enty", "3670": "\u0120sal", "3671": "\u0120Here", "3672": "aud", "3673": "\u0120conference", "3674": "\u0120Rober", "3675": "\u0120note", "3676": "\u0120analysis", "3677": "ufact", "3678": "\u0120spending", "3679": "\u0120presidential", "3680": "45", "3681": "\u0120Of", "3682": "\u0120citizens", "3683": "orks", "3684": "\u0120schools", "3685": "igration", "3686": "\u0120Syria", "3687": "\u0120throw", "3688": "\u0120Ben", "3689": "venue", "3690": "\u0120aware", "3691": "\u0120meant", "3692": "\u0120executive", "3693": "\u0120eventually", "3694": "My", "3695": "\u0120physical", "3696": "\u0120followed", "3697": "\u0120feature", "3698": "ares", "3699": "\u0120firm", "3700": "\u0120treatment", "3701": "\u0120Tor", "3702": "\u0120Wind", "3703": "\u0120streng", "3704": "\u0120mix", "3705": "\u0120confir", "3706": "\u0120bott", "3707": "ero", "3708": "\u0120correct", "3709": "orney", "3710": "\u012029", "3711": "\u0120Dis", "3712": "\u0120grad", "3713": "\u0120religious", "3714": "\u0120easily", "3715": "band", "3716": "\u0120autom", "3717": "\u0120esc", "3718": "\u0120pus", "3719": "board", "3720": "\u0120cool", "3721": "etro", "3722": "\u0120196", "3723": "\u0120families", "3724": "\u0120illeg", "3725": "ressed", "3726": "craft", "3727": "cul", "3728": "rated", "3729": "\u0120actions", "3730": "\u0120overall", "3731": "\u0120Air", "3732": "\u0120Mex", "3733": "\u0120allows", "3734": "\u0120gives", "3735": "\u0120feed", "3736": "\u0120\u00c2\u00a3", "3737": "):", "3738": "\u0120susp", "3739": "ube", "3740": "\u0120yourself", "3741": "By", "3742": "Is", "3743": "\u0120draft", "3744": "ken", "3745": "bum", "3746": "\u0120smart", "3747": "\u0120appeared", "3748": "ram", "3749": "\u0120detail", "3750": "\u0120income", "3751": "iring", "3752": "\u0120analy", "3753": "\u0120Bel", "3754": "\u0120signed", "3755": "New", "3756": "encies", "3757": "\u0120Ham", "3758": "\u0120central", "3759": "\u0120ideas", "3760": "\u0120ang", "3761": "\u0120Govern", "3762": "\u0120senior", "3763": "Advertisement", "3764": "\u0120frequ", "3765": "\u0120weapons", "3766": "ID", "3767": "\u0120display", "3768": "\u0120har", "3769": "\u0120promot", "3770": "\u0120nice", "3771": "inn", "3772": "\u0120credit", "3773": "\u0120decades", "3774": "\u0120psych", "3775": "\u0120politics", "3776": "Don", "3777": "\u0120Bre", "3778": "\u0120crime", "3779": "OM", "3780": "EC", "3781": "chan", "3782": "\u0120uses", "3783": "\u0120door", "3784": "\u0120dise", "3785": "uty", "3786": "\u0120International", "3787": "\u0120unique", "3788": "28", "3789": "\u0120altern", "3790": "\u0120lif", "3791": "According", "3792": "\u0120drop", "3793": "\u0120sales", "3794": "mar", "3795": "\u0120developed", "3796": "***", "3797": "resh", "3798": "\u0120customers", "3799": "ET", "3800": "\u0120benefits", "3801": "\u0120conflic", "3802": "urance", "3803": "Ar", "3804": "\u0120related", "3805": "\u0120crisis", "3806": "\u0120School", "3807": "\u0120mist", "3808": "erry", "3809": "iable", "3810": "\u0120predict", "3811": "\u0120noted", "3812": "\u0120Cap", "3813": "29", "3814": "\u0120Australia", "3815": "\u0120EU", "3816": "box", "3817": "\u0120truth", "3818": "part", "3819": "\u0120goals", "3820": "iny", "3821": "\u0120individuals", "3822": "\u0120charge", "3823": "\u0120Earth", "3824": "\u0120beaut", "3825": "\u0120continues", "3826": "onents", "3827": "\u0120Union", "3828": "\u0120Arab", "3829": "\u0120observ", "3830": "\u0120rap", "3831": "\u0120challenge", "3832": "que", "3833": "\u0120sto", "3834": "nown", "3835": "\u0120apparent", "3836": "\u0120Angel", "3837": "itely", "3838": "\u0120Smith", "3839": "Be", "3840": "\u0120lic", "3841": "\u0120projects", "3842": "\u0120peace", "3843": "\u0120measure", "3844": "\u0120Police", "3845": "oti", "3846": "\u0120intelligence", "3847": "\u0120Christian", "3848": "\u0120previously", "3849": "\u0120Germany", "3850": "\u0120fully", "3851": "\u0120rule", "3852": "\u0120manager", "3853": "\u0120brother", "3854": "\u0120rates", "3855": "\u0120advant", "3856": "change", "3857": "\u0120expand", "3858": "\u0120clearly", "3859": "\u0120reform", "3860": "net", "3861": "\u0120lines", "3862": "\u0120successful", "3863": "riage", "3864": "\u0120highly", "3865": "\u0120larger", "3866": "ounds", "3867": "Un", "3868": "\u0120traff", "3869": "\u0120spread", "3870": "iance", "3871": "\u0120seemed", "3872": "\u0120Council", "3873": "\u0120straight", "3874": "Some", "3875": "\u0120criminal", "3876": "\u0120Comp", "3877": "\u0120minor", "3878": "\u0120emb", "3879": "\u0120George", "3880": "\u0120programs", "3881": "iced", "3882": "attle", "3883": "owers", "3884": "\u0120Franc", "3885": "\u0120incident", "3886": "\u0120resources", "3887": "21", "3888": "\u0120Tom", "3889": "\u0120greater", "3890": "\u0120primary", "3891": "IA", "3892": "inated", "3893": "antly", "3894": "\u0120knowledge", "3895": "Pro", "3896": "\u0120studies", "3897": "while", "3898": "dom", "3899": "\u0120save", "3900": "orter", "3901": "\u0120web", "3902": "ategy", "3903": "\u0120kept", "3904": "\u0120attract", "3905": "ki", "3906": "\u0120Flor", "3907": "olic", "3908": "\u0120spir", "3909": "\u0120emot", "3910": "\u0120color", "3911": "\u0120feet", "3912": "sey", "3913": "\u0120rare", "3914": "\u0120reached", "3915": "\u0120arm", "3916": "\u0120Ant", "3917": "secut", "3918": "\u0120High", "3919": "levision", "3920": "\u0120Internet", "3921": "\u0120Brown", "3922": "oday", "3923": "iders", "3924": "osh", "3925": "\u0120favorite", "3926": "\u0120Cr", "3927": "\u0120places", "3928": "\u0120Rec", "3929": "rs", "3930": "\u0120regular", "3931": "wide", "3932": "ota", "3933": "vere", "3934": "bon", "3935": "\u0120manufact", "3936": "\u0120laun", "3937": "\u0120Def", "3938": "100", "3939": "\u0120send", "3940": "term", "3941": "\u0120prem", "3942": "roll", "3943": "lick", "3944": "icit", "3945": "ingly", "3946": "\u0120knows", "3947": "\u0120shooting", "3948": "\u0120activity", "3949": "\u0120pun", "3950": "\u0120sources", "3951": "\u0120normal", "3952": "icago", "3953": "onent", "3954": "ser", "3955": "\u0120status", "3956": "\u0120fighting", "3957": "ville", "3958": "\u0120voice", "3959": "\u0120rise", "3960": "ocks", "3961": "\u0120fine", "3962": "\u0120owners", "3963": "\u0120caused", "3964": "\u0120claimed", "3965": "\u0120Mac", "3966": "\u0120enem", "3967": "\u0120liter", "3968": "\u0120Rob", "3969": "\u0120Up", "3970": "\u0120General", "3971": "aith", "3972": "EO", "3973": "\u0120options", "3974": "\u01202007", "3975": "\u0120integr", "3976": "ength", "3977": "usion", "3978": "\u0120spend", "3979": "\u0120Gold", "3980": "ado", "3981": "\u0120cities", "3982": "miss", "3983": "\u0120organiz", "3984": "ING", "3985": "\u0120ended", "3986": "www", "3987": "\u0120researchers", "3988": "iled", "3989": "\u0120calling", "3990": "\u0120shut", "3991": "\u0120reflect", "3992": "\u0120La", "3993": "org", "3994": "mission", "3995": "mark", "3996": "\u00e2\u0122\u013f,", "3997": "oles", "3998": "70", "3999": "roid", "4000": "\u0120prices", "4001": "\u0120Every", "4002": "\u0120album", "4003": "\u0120From", "4004": "ifying", "4005": "\u0120employees", "4006": "\u0120female", "4007": "\u0120England", "4008": "ya", "4009": "\u0120virt", "4010": "\u0120crowd", "4011": "\u0120haven", "4012": "\u0120raised", "4013": "mittee", "4014": "\u0120ele", "4015": "uana", "4016": "\u0120jump", "4017": "33", "4018": "\u0120supposed", "4019": "itness", "4020": "\u0120happens", "4021": "\u0120adding", "4022": "\u0120policies", "4023": "\u0120names", "4024": "\u0120charges", "4025": "\u0120pros", "4026": "\u0120trou", "4027": "ica", "4028": "ribution", "4029": "\u0120basic", "4030": "uman", "4031": "Not", "4032": "iverse", "4033": "inger", "4034": "\u0120Mag", "4035": "\u0120concerns", "4036": "\u0120traditional", "4037": "\u0120wait", "4038": "\u0120plant", "4039": "\u0120absolute", "4040": "\u0120acqu", "4041": "\u0120hospital", "4042": "\u0120funding", "4043": "\u0120Bay", "4044": "\u0120print", "4045": "\u0120slight", "4046": "rol", "4047": "\u0120commer", "4048": "\u0120patients", "4049": "\u0120authorities", "4050": "\u0120minister", "4051": "Sc", "4052": "\u0120creating", "4053": "\u0120freedom", "4054": "\u0120AP", "4055": "\u0120mechan", "4056": "\u0120scen", "4057": "\u0120Mo", "4058": "\u0120style", "4059": "\u0120seeing", "4060": "\u0120grand", "4061": ".\u00e2\u0122\u013b", "4062": "\u0120beat", "4063": "\u0120lik", "4064": "dd", "4065": "ona", "4066": "rian", "4067": "\u0120station", "4068": "\u0120Scott", "4069": "see", "4070": "\u0120push", "4071": "ijuana", "4072": "\u0120behavior", "4073": "\u0120leaving", "4074": "\u0120cry", "4075": "\u0120impl", "4076": "\u0120birth", "4077": "\u0120ir", "4078": "\u0120actual", "4079": "EL", "4080": "pen", "4081": "\u0120ensure", "4082": "\u0120offered", "4083": "\u0120agreement", "4084": "\u0120Florida", "4085": "\u0120eth", "4086": "soft", "4087": "\u0120Hillary", "4088": "\u0120posted", "4089": "\u0120Reg", "4090": "\u0120gold", "4091": "\u0120Sun", "4092": "\u0120Ber", "4093": "\u0120weekend", "4094": "\u0120green", "4095": "\u0120Most", "4096": "\u0120adult", "4097": "alse", "4098": "\u0120weight", "4099": "OU", "4100": ".'", "4101": "acing", "4102": "\u0120determin", "4103": "\u0120vac", "4104": "Here", "4105": "\u0120revealed", "4106": "\u0120Well", "4107": "\u0120application", "4108": "\u0120mostly", "4109": "\u0120values", "4110": "\u0120propos", "4111": "itude", "4112": "\u0120Alex", "4113": "aby", "4114": "\u0120willing", "4115": "earch", "4116": "\u0120rank", "4117": "\u0120adop", "4118": "\u0120According", "4119": "\u0120establ", "4120": "\u0120eye", "4121": "\u0120records", "4122": "amb", "4123": "ection", "4124": "\u00e2\u0122\u00a2", "4125": "500", "4126": "\u0120enforce", "4127": "http", "4128": "\u0120picture", "4129": "\u0120believed", "4130": "pri", "4131": "\u0120mer", "4132": "uild", "4133": "\u0120brief", "4134": "\u0120Let", "4135": "\u0120learned", "4136": "\u0120Law", "4137": "\u0120install", "4138": "\u0120strategy", "4139": "\u0120appl", "4140": "igned", "4141": "\u0120choose", "4142": "istry", "4143": "gen", "4144": "SA", "4145": "\u0120dire", "4146": "\u0120wonder", "4147": "\u0120qual", "4148": "\u0120massive", "4149": "\u0120devices", "4150": "\u0120benefit", "4151": "\u0120wild", "4152": "\u0120parties", "4153": "\u0120Chicago", "4154": "\u0120lawy", "4155": "\u0120People", "4156": "\u0120uns", "4157": "cher", "4158": "\u0120cars", "4159": "\u0120Trans", "4160": "\u0120Port", "4161": "cont", "4162": "\u0120Phil", "4163": "\u0120arrested", "4164": "\u0120mount", "4165": "\u0120whatever", "4166": "\u0120wat", "4167": "\u0120Oh", "4168": "\u0120France", "4169": "\u0120street", "4170": "\u0120;", "4171": "\u0120provides", "4172": "\u0120whom", "4173": "\u0120assault", "4174": "90", "4175": "liament", "4176": "\u0120asking", "4177": "\u0120influence", "4178": "ties", "4179": "\u0120judge", "4180": "\u0120lose", "4181": "\u0120fat", "4182": "\u0120feeling", "4183": "\u0120operations", "4184": "\u0120produced", "4185": "\u0120temper", "4186": "ste", "4187": "\u0120critical", "4188": "\u0120Lou", "4189": "\u0120Secret", "4190": "\u0120negoti", "4191": "point", "4192": "\u0120mission", "4193": "\u0120enter", "4194": "\u0120Bush", "4195": "Ex", "4196": "\u0120images", "4197": "\u00d0\u00be", "4198": "\u0120Stud", "4199": "\u0120confirmed", "4200": "\u0120showing", "4201": "IL", "4202": "\u0120district", "4203": "ription", "4204": "\u0120runs", "4205": "\u0120pattern", "4206": "\u0120tend", "4207": "\u0120Mat", "4208": "===", "4209": "\u0120border", "4210": "\u0120residents", "4211": "orial", "4212": "rav", "4213": "\u0120debt", "4214": "However", "4215": "\u0120\u00c3", "4216": "aked", "4217": "\u0120cru", "4218": "\u0120teac", "4219": "\u0120Committee", "4220": "mine", "4221": "Cl", "4222": "\u0120opposition", "4223": "\u0120celebr", "4224": "\u0120Wall", "4225": "\u0120Health", "4226": "\u0120section", "4227": "\u0120defend", "4228": "\u0120etc", "4229": "estic", "4230": "\u0120produce", "4231": "icial", "4232": "\u0120Commission", "4233": "\u0120drink", "4234": "\u0120independent", "4235": "\u0120Mod", "4236": "ront", "4237": "cell", "4238": "\u0120Why", "4239": "\u0120brand", "4240": "ented", "4241": "ugg", "4242": "ags", "4243": "\u0120core", "4244": "\u0120Press", "4245": "\u0120tick", "4246": "\u0120digital", "4247": "\u0120Bit", "4248": "\u0120hero", "4249": "\u0120advoc", "4250": "\u0120dollars", "4251": "ae", "4252": "\u0120Sam", "4253": "ocr", "4254": "rial", "4255": "\u0120effective", "4256": "\u0120solution", "4257": "\u0120Mal", "4258": "\u0120vill", "4259": "\u0120interested", "4260": "\u0120Korea", "4261": "\u0120highest", "4262": "BA", "4263": "irg", "4264": "ords", "4265": "\u0120memory", "4266": "\u0120opening", "4267": "\u0120worse", "4268": "\u0120learning", "4269": "\u0120responsible", "4270": "\u0120trial", "4271": "\u0120daily", "4272": "\u0120kick", "4273": "\u0120theory", "4274": "\u0120Other", "4275": "\u0120offers", "4276": "\u0120Palest", "4277": "me", "4278": "\u0120replace", "4279": "\u0120restrict", "4280": "\u0120mur", "4281": "\u0120Get", "4282": "\u0120Office", "4283": "\u0120agreed", "4284": "\u0120television", "4285": "\u0120Francis", "4286": "cience", "4287": "\u0120Micro", "4288": "\u0120Because", "4289": "\u0120occas", "4290": "ST", "4291": "illing", "4292": "CC", "4293": "\u0120train", "4294": "\u0120investment", "4295": "\u0120vs", "4296": "\u0120types", "4297": "iation", "4298": "\u0120Western", "4299": "icians", "4300": "\u0120chair", "4301": "aks", "4302": "\u0120miles", "4303": "\u0120millions", "4304": "no", "4305": "gency", "4306": "\u0120chem", "4307": "\u0120Justice", "4308": "\u0120Del", "4309": "\u0120generally", "4310": "\u0120basis", "4311": "\u0120proposed", "4312": "\u012080", "4313": "\u0120Mike", "4314": "\u0120Mil", "4315": "\u0120Cup", "4316": "These", "4317": "ipe", "4318": "\u0120heavy", "4319": "\u0120explained", "4320": "\u0120Our", "4321": "\u0120map", "4322": "uries", "4323": "AA", "4324": "rad", "4325": "\u0120der", "4326": "oly", "4327": "\u0120partners", "4328": "ander", "4329": "\u0120opinion", "4330": "\u0120defe", "4331": "\u0120onto", "4332": "\u0120protest", "4333": "Con", "4334": "Get", "4335": "\u0120associated", "4336": "\u0120load", "4337": "rig", "4338": "azing", "4339": "\u0120NFL", "4340": "rate", "4341": "oom", "4342": "44", "4343": "win", "4344": "\u0120Found", "4345": "\u0120male", "4346": "\u0120becomes", "4347": "\u0120reject", "4348": "outhern", "4349": "===", "4350": "\u0120Security", "4351": "vest", "4352": "\u0120coal", "4353": "\u0120obtain", "4354": "\u0120destroy", "4355": "\u0120advantage", "4356": "\u0120assum", "4357": "\u0120Liber", "4358": "\u0120condition", "4359": "\u0120announce", "4360": "\u0120hundreds", "4361": "\u0120achieve", "4362": "\u0120opened", "4363": "eline", "4364": "\u0120understanding", "4365": "odes", "4366": "\u0120Johnson", "4367": "coming", "4368": "icip", "4369": "\u0120surround", "4370": "ading", "4371": "bert", "4372": "orthern", "4373": "well", "4374": "upp", "4375": "\u0120initial", "4376": "\u0120Att", "4377": "\u0120Big", "4378": "\u0120sleep", "4379": "36", "4380": "\u0120ship", "4381": "\u0120marriage", "4382": "\u0120management", "4383": "\u0120Windows", "4384": "\u0120thus", "4385": "\u0120limit", "4386": "\u0120born", "4387": "\u0120becoming", "4388": "known", "4389": "\u0120photo", "4390": "\u0120easier", "4391": "FC", "4392": "\u0120Great", "4393": "\u0120rat", "4394": "\u0120legislation", "4395": "\u0120controvers", "4396": "\u0120unlike", "4397": "\u0120electric", "4398": "\u0120Many", "4399": "32", "4400": "\u0120camera", "4401": "\u0120Mad", "4402": "witch", "4403": "\u0120accused", "4404": "\u0120spl", "4405": "\u0120neighbor", "4406": "\u0120double", "4407": "\u0120ice", "4408": "\u0120species", "4409": "\u0120shared", "4410": "lant", "4411": "\u0120join", "4412": "\u0120illegal", "4413": "\u012031", "4414": "\u0120Lab", "4415": "\u01202006", "4416": "Mr", "4417": "\u0120harm", "4418": "\u0120machine", "4419": "\u0120served", "4420": "\u0120Jer", "4421": "GB", "4422": "\u0120extremely", "4423": "olf", "4424": "\u0120active", "4425": "\u012035", "4426": "\u0120serve", "4427": "\u0120documents", "4428": "\u0120Islamic", "4429": "\u0120frame", "4430": "\u0120strik", "4431": "level", "4432": "za", "4433": "\u0120Dist", "4434": "\u0120audience", "4435": "BS", "4436": "\u0120location", "4437": "\u0120AM", "4438": "\u0120scientists", "4439": "\u0120bottom", "4440": "orrow", "4441": "\u0120victims", "4442": "\u0120Art", "4443": "\u0120wealth", "4444": "\u0120professional", "4445": "\u0120resist", "4446": "\u0120reduce", "4447": "\u0120belief", "4448": "\u0120nine", "4449": "\u0120solid", "4450": "\u0120winning", "4451": "\u0120marijuana", "4452": "ears", "4453": "\u0120Uk", "4454": "\u0120negative", "4455": "75", "4456": "iful", "4457": "ih", "4458": "\u0120communities", "4459": "\u0120returned", "4460": "ortunately", "4461": "\u0120incred", "4462": "\u0120PM", "4463": "\u0120Institute", "4464": "met", "4465": "tered", "4466": "\u0120church", "4467": "PS", "4468": "\u0120department", "4469": "\u0120Sanders", "4470": "\u0120ran", "4471": "\u0120victory", "4472": "rey", "4473": "\u0120purpose", "4474": "\u012090", "4475": "\u0120Commun", "4476": "\u0120amb", "4477": "lands", "4478": "\u0120vehicle", "4479": "\u0120internet", "4480": "\u0120leadership", "4481": "\u0120Hall", "4482": "istics", "4483": "\u0120bomb", "4484": "ios", "4485": "\u0120mobile", "4486": "ghan", "4487": "\u0120instance", "4488": "ipped", "4489": "38", "4490": "\u0120separate", "4491": "\u0120existing", "4492": "\u0120notice", "4493": "\u0120hearing", "4494": "\u0120die", "4495": "\u0120explain", "4496": "\u0120doubt", "4497": "\u0120faith", "4498": "\u0120teach", "4499": "house", "4500": "\u0120Your", "4501": "atically", "4502": "\u0120episode", "4503": "\u0120bed", "4504": "\u0120watching", "4505": "\u0120comfort", "4506": "\u0120Canadian", "4507": "\u0120Bank", "4508": "\u0120notes", "4509": "\u0120radio", "4510": "irgin", "4511": "\u0120Ev", "4512": "\u0120fresh", "4513": "\u0120unc", "4514": "\u0120views", "4515": "\u0120Inc", "4516": "\u0120putting", "4517": "asy", "4518": "\u0120Sl", "4519": "\u0120Fin", "4520": "\u0120supporters", "4521": "\u0120conservative", "4522": "\u0120purs", "4523": "\u0120argument", "4524": "omas", "4525": "\u0120micro", "4526": "ario", "4527": "acity", "4528": "\u0120launched", "4529": "scrib", "4530": "works", "4531": "OL", "4532": "\u0120appeal", "4533": "iliar", "4534": "\u0120items", "4535": "\u0120committee", "4536": "resp", "4537": "which", "4538": "\u0120definitely", "4539": "ada", "4540": "\u0120dangerous", "4541": "iller", "4542": "zen", "4543": "\u0120coverage", "4544": "\u0120direction", "4545": "\u0120Over", "4546": "\u0120charged", "4547": "\u0120floor", "4548": "\u0120sun", "4549": "PA", "4550": "\u0120max", "4551": "ography", "4552": "34", "4553": "EM", "4554": "\u0120Carol", "4555": "\u0120Church", "4556": "\u0120Fox", "4557": "\u0120issued", "4558": "\u0120drugs", "4559": "Image", "4560": "\u0120task", "4561": "ipp", "4562": "\u0120background", "4563": "\u0120competition", "4564": "\u0120trend", "4565": "\u0120stated", "4566": "vention", "4567": "andom", "4568": "\u0120traffic", "4569": "\u0120FBI", "4570": "\u0120commercial", "4571": "\u0120Direct", "4572": "itt", "4573": "\u0120spoke", "4574": "\u0120sett", "4575": "inct", "4576": "\u0120transfer", "4577": "\u0120suggested", "4578": "\u0120structure", "4579": "\u0120sites", "4580": "\u0120hus", "4581": "\u0120north", "4582": "\u0120Since", "4583": "\u0120Like", "4584": "\u0120restaur", "4585": "ampionship", "4586": "\u0120labor", "4587": "\u0120decade", "4588": "\u0120Bur", "4589": "\u0120repeated", "4590": "\u0120Game", "4591": "\u0120react", "4592": "oman", "4593": "\u0120cards", "4594": "\u0120animals", "4595": "going", "4596": "\u0120novel", "4597": "ctors", "4598": "bing", "4599": "but", "4600": "NA", "4601": "ribute", "4602": "\u0120daughter", "4603": "anted", "4604": "\u0120driving", "4605": "\u0120closed", "4606": "\u0120worst", "4607": "\u0120contain", "4608": "\u0120entirely", "4609": "\u0120ded", "4610": "\u0120Britain", "4611": "ici", "4612": "Bl", "4613": "ady", "4614": "\u0120driver", "4615": "\u0120Wil", "4616": "\u0120disease", "4617": "\u0120telling", "4618": "iling", "4619": "\u0120smaller", "4620": "\u0120discovered", "4621": "\u0120nor", "4622": "akistan", "4623": "\u0120refere", "4624": "\u0120Pri", "4625": "Americ", "4626": "\u0120Los", "4627": "\u0120hack", "4628": "equ", "4629": "!\u00e2\u0122\u013f", "4630": "ference", "4631": "\u0120Que", "4632": "spe", "4633": "\u0120false", "4634": "\u0120cash", "4635": "\u0120concerned", "4636": "ulf", "4637": "\u0120plays", "4638": "\u0120surface", "4639": "semb", "4640": "udd", "4641": "\u0120supported", "4642": "annel", "4643": "ulated", "4644": "\u0120tools", "4645": "oyal", "4646": "\u0120compar", "4647": "\u0120transport", "4648": "\u0120Chris", "4649": "\u0120experiment", "4650": "\u0120finding", "4651": "night", "4652": "\u0120categ", "4653": "\u00e3\u0124", "4654": "ait", "4655": "\u0120aspect", "4656": "##", "4657": "\u0120businesses", "4658": "\u012070", "4659": "\u0120UN", "4660": "\u0120farm", "4661": "\u0120please", "4662": "\u0120older", "4663": "azon", "4664": "how", "4665": "\u0120activities", "4666": "\u0120requires", "4667": "phone", "4668": "CH", "4669": "\u0120gay", "4670": "\u0120Jones", "4671": "ibrary", "4672": "\u0120strength", "4673": "48", "4674": "\u0120wel", "4675": "do", "4676": "andon", "4677": "\u0120insurance", "4678": "\u0120consequ", "4679": "37", "4680": "\u0120largely", "4681": "\u0120murder", "4682": "NN", "4683": "55", "4684": "\u0120exerc", "4685": "\u0120caught", "4686": "\u0120candidates", "4687": "kins", "4688": "\u0120Israeli", "4689": "\u0120allowing", "4690": "icy", "4691": "\u0120blue", "4692": "\u0120Are", "4693": "\u0120annual", "4694": "\u0120Ken", "4695": "\u0120testing", "4696": "ius", "4697": "ossible", "4698": "\u0120strateg", "4699": "\u0120Sup", "4700": "\u0120raise", "4701": "\u0120stock", "4702": "arant", "4703": "overy", "4704": "\u0120Robert", "4705": "izes", "4706": "gers", "4707": "\u0120decisions", "4708": "\u0120accur", "4709": "rick", "4710": "\u0120context", "4711": "\u0120fuel", "4712": "\u0120Ac", "4713": "SP", "4714": "osure", "4715": "lor", "4716": "\u0120Ukrain", "4717": "\u0120concern", "4718": "\u0120afford", "4719": "\u0120believes", "4720": "\u0120construction", "4721": "\u0120truly", "4722": "***", "4723": "\u0120Ty", "4724": "\u0120Miss", "4725": "\u0120ge", "4726": "\u0120justice", "4727": "igrants", "4728": "\u0120generation", "4729": "\u0120highlight", "4730": "rim", "4731": "\u0120Tre", "4732": "\u0120unit", "4733": "\u0120presence", "4734": "\u0120Jewish", "4735": "anging", "4736": "!!", "4737": "\u0120Sil", "4738": "\u00d0\u00b0", "4739": "tery", "4740": "\u00d0\u00b5", "4741": "ception", "4742": "\u0120Africa", "4743": "\u0120guess", "4744": "ancy", "4745": "\u0120witness", "4746": "itable", "4747": "\u0120holding", "4748": "ey", "4749": "\u0120Gree", "4750": "\u0120establish", "4751": "\u0120length", "4752": "\u0120planning", "4753": "bre", "4754": "ava", "4755": "\u0120African", "4756": "\u0120sequ", "4757": "cknow", "4758": "\u0120refuge", "4759": "\u0120placed", "4760": "\u0120catch", "4761": "\u0120Afghan", "4762": "\u0120san", "4763": "\u0120Association", "4764": "\u0120tells", "4765": "\u00e2\u0122\u013a", "4766": "inter", "4767": "\u0120scale", "4768": "\u0120spokesman", "4769": "\u0120tim", "4770": "nel", "4771": "\u0120rough", "4772": "\u0120attend", "4773": "olly", "4774": "\u0120Ver", "4775": "\u0120cells", "4776": "\u0120joined", "4777": "\u0120Add", "4778": "\u0120mentioned", "4779": "\u0120interests", "4780": "\u0120abuse", "4781": "\u00e2\u0122\u0136\u00e2\u0122", "4782": "pective", "4783": "\u0120Jim", "4784": "\u0120Pre", "4785": "More", "4786": "\u0120hasn", "4787": "\u0120PC", "4788": "Le", "4789": "\u0120initi", "4790": "\u0120kid", "4791": "\u0120enforcement", "4792": "\u0120GOP", "4793": "\u0120introduced", "4794": "\u0120deliver", "4795": "\u0120conflict", "4796": "\u0120Mer", "4797": "\u0120Microsoft", "4798": "\u0136\u00e2\u0122\u0136", "4799": "\u0120phil", "4800": "\u0120update", "4801": "\u0120missing", "4802": "\u0120providing", "4803": "\u0120waiting", "4804": "\u0120cancer", "4805": "la", "4806": "39", "4807": "\u0120recommend", "4808": "ocracy", "4809": "\u0120established", "4810": "bour", "4811": "isation", "4812": "\u0120eat", "4813": "\u0120Yes", "4814": "\u0120occup", "4815": "\u0120Frank", "4816": "\u0120Jeff", "4817": "\u0120Angeles", "4818": "\u0120removed", "4819": "\u01202005", "4820": "ula", "4821": "\u0120offensive", "4822": "\u0120Fore", "4823": "\u0120Instead", "4824": "icon", "4825": "\u0120injury", "4826": "\u0120sports", "4827": "47", "4828": "\u0120fant", "4829": "\u0120discussion", "4830": "vant", "4831": "\u0120operation", "4832": "\u0120download", "4833": "\u0120useful", "4834": "\u0120newsp", "4835": "\u0120conversation", "4836": "\u0120homes", "4837": "ronic", "4838": "\u0120south", "4839": "\u0120cook", "4840": "\u0120CEO", "4841": "\u0120assess", "4842": "itz", "4843": "\u0120Group", "4844": "formation", "4845": "lig", "4846": "\u0120banks", "4847": "onto", "4848": "\u0120stopped", "4849": "\u0120Step", "4850": "\u0120Const", "4851": "\u0120obvious", "4852": "ications", "4853": "\u0120measures", "4854": "\u0120models", "4855": "\u0120Kh", "4856": "\u0120fourth", "4857": "\u0120MP", "4858": "Our", "4859": "season", "4860": "what", "4861": "\u0120bul", "4862": "DA", "4863": "\u01202018", "4864": "anda", "4865": "\u0120files", "4866": "\u0120girls", "4867": "\u0120Louis", "4868": "\u0120stick", "4869": "cks", "4870": "azine", "4871": "mail", "4872": "umn", "4873": "\u0120managed", "4874": "iter", "4875": "apped", "4876": "oted", "4877": "\u0120figures", "4878": "oms", "4879": "\u0120Tim", "4880": "\u0120Leg", "4881": "\u0120identified", "4882": "\u0120graph", "4883": "000", "4884": "\u0120Jud", "4885": "\u0120Sal", "4886": "\u0120finished", "4887": "Pl", "4888": "\u0120funds", "4889": "\u0120Pakistan", "4890": "real", "4891": "\u0120setting", "4892": "\u0120conclud", "4893": "\u0120prefer", "4894": "\u0120hair", "4895": "\u0120committed", "4896": "\u0120Mexico", "4897": "49", "4898": "\u0120skills", "4899": "\u0120appropri", "4900": "\u0120spirit", "4901": "\u0120Rock", "4902": "\u0120veter", "4903": "\u0120focused", "4904": "\u0120arrived", "4905": "\u0120THE", "4906": "\u0120housing", "4907": "\u0120keeping", "4908": "\u0120therefore", "4909": "ros", "4910": "\u0120acknow", "4911": "\u0120detect", "4912": "ulate", "4913": "Des", "4914": "\u0120partner", "4915": "\u0120exclus", "4916": "igan", "4917": "\u0120Android", "4918": "enses", "4919": "rd", "4920": "ups", "4921": "\u0120earth", "4922": "\u0120transl", "4923": "place", "4924": "\u0120tough", "4925": "kin", "4926": "outs", "4927": "\u0120Japanese", "4928": "\u01202000", "4929": "\u0120relatively", "4930": "\u00c3\u00a1", "4931": "\u0120Supreme", "4932": "owl", "4933": "wing", "4934": "\u0120identity", "4935": "\u0120feels", "4936": "gl", "4937": "\u0120Met", "4938": "\u0120otherwise", "4939": "\u0120survey", "4940": "\u0120Ryan", "4941": "ocal", "4942": "RA", "4943": "ication", "4944": "itutional", "4945": "\u0120protection", "4946": "\u0120exchange", "4947": "\u0120owner", "4948": "\u0120Virgin", "4949": "isf", "4950": "Trump", "4951": "\u0120trip", "4952": "\u0120steps", "4953": "\u0120husband", "4954": "\u0120Inter", "4955": "agn", "4956": "\u0120Mont", "4957": "\u0120tweet", "4958": "\u0120connection", "4959": "\u0120Army", "4960": "\u0120slightly", "4961": "\u0120Prof", "4962": "eah", "4963": "\u0120Sur", "4964": "\u0120weak", "4965": "\u0120Government", "4966": "verse", "4967": "\":", "4968": "\u0120circum", "4969": "\u0120elements", "4970": "\u0120click", "4971": "\u0120Richard", "4972": "\u0120strike", "4973": "\u0120photos", "4974": "\u0120mere", "4975": "\u0120defensive", "4976": "dden", "4977": "\u0120gain", "4978": "\u0120fle", "4979": "\u0120depend", "4980": "ucky", "4981": "\u0120collection", "4982": "gar", "4983": "onym", "4984": "\u0120killing", "4985": "\u0120roll", "4986": "ighter", "4987": "hens", "4988": "Go", "4989": "\u0120corner", "4990": "ka", "4991": "ancing", "4992": "odies", "4993": "\u0120suggests", "4994": "uct", "4995": "\u0120aggress", "4996": "with", "4997": "prof", "4998": "\u0120guard", "4999": "Photo", "5000": "\u0120gender", "5001": "makers", "5002": "\u0120College", "5003": "\u0120commission", "5004": "\u0120Although", "5005": "range", "5006": "\u0120dat", "5007": "46", "5008": "\u0120Ir", "5009": "\u0120Dec", "5010": "\u0120mental", "5011": "icide", "5012": "rees", "5013": "\u0120amazing", "5014": "\u0120Sub", "5015": "hi", "5016": "\u0120planet", "5017": "\u0120Team", "5018": "rency", "5019": "\u0120Out", "5020": "\u0120bigger", "5021": "ym", "5022": "\u0120failure", "5023": "\u0120Jose", "5024": "\u0120supply", "5025": "Why", "5026": "ania", "5027": "\u0120Nor", "5028": "\u0120starts", "5029": "\u0120sides", "5030": "hedul", "5031": "iser", "5032": "\u0120familiar", "5033": "\u0120remind", "5034": "\u0120sust", "5035": "\u0120spect", "5036": "ils", "5037": "uate", "5038": "\u0120speaking", "5039": "ano", "5040": "\u0120talks", "5041": "\u0120happening", "5042": "gypt", "5043": "\u0120organizations", "5044": "\u0120hate", "5045": "\u0120window", "5046": "\u0120army", "5047": "\u0120Good", "5048": "\u0120Joe", "5049": "\u0120none", "5050": "uke", "5051": "\u0120taxes", "5052": "\u0120planned", "5053": "\u0120Martin", "5054": "\u0120Pet", "5055": "\u0120thanks", "5056": "\u0120Mary", "5057": "\u0120struct", "5058": "\u0120pit", "5059": "\u0120decide", "5060": "\u0120sudden", "5061": "\u0120wish", "5062": "\u0120crew", "5063": "\u0120carried", "5064": "\u0120appoint", "5065": "oston", "5066": "\u0120pet", "5067": "mas", "5068": "awn", "5069": "eless", "5070": "agues", "5071": "ynam", "5072": "\u0120regist", "5073": "TC", "5074": "\u0120multi", "5075": "idering", "5076": "\u0120helping", "5077": "Last", "5078": "\u0120award", "5079": "\u0120standards", "5080": "\u012032", "5081": "\u0120Fire", "5082": "\u0120revolution", "5083": "\u0120environmental", "5084": "].", "5085": "\u0120Web", "5086": "arsh", "5087": "\u0120Thomas", "5088": "olit", "5089": "\u0120script", "5090": "pm", "5091": "ola", "5092": "\u0120seconds", "5093": "run", "5094": "\u0120Research", "5095": "gn", "5096": "\u0120scientific", "5097": "\u0120immigration", "5098": "\u0120Bern", "5099": "\u0120standing", "5100": "\u0120Their", "5101": "\u012045", "5102": "stream", "5103": "ocol", "5104": "\u0120que", "5105": "\u0120beer", "5106": "\u0120domestic", "5107": "imal", "5108": "adium", "5109": "\u0120pair", "5110": "uters", "5111": "\u0120Also", "5112": "\u0120Secretary", "5113": "\u0120Us", "5114": "\u0120academ", "5115": "\u0120cold", "5116": "\u0120variety", "5117": "\u0120markets", "5118": "aven", "5119": "\u0120sch", "5120": "HL", "5121": "\u0120territ", "5122": "\u0120dropped", "5123": "fe", "5124": "\u0120accounts", "5125": "!\"", "5126": "\u0120Atlant", "5127": "\u0120filed", "5128": "erous", "5129": "acks", "5130": "illa", "5131": "\u0120balance", "5132": "lo", "5133": "\u0120impossible", "5134": "\u0120Ter", "5135": "\u0120interact", "5136": "\u0120neighborhood", "5137": "\u0120degree", "5138": "Read", "5139": "\u0120turns", "5140": "itect", "5141": "\u0120possibly", "5142": "\u0120appre", "5143": "\u0120operating", "5144": "\u0120princ", "5145": "\u0120alternative", "5146": "\u0120union", "5147": "\u0120votes", "5148": "\u0120vul", "5149": "ader", "5150": "\u0120professor", "5151": "\u0120tack", "5152": "\u0120Service", "5153": "\u0120increasingly", "5154": "ayer", "5155": "ruit", "5156": "\u0120apply", "5157": "\u0120fellow", "5158": "\u0120cuts", "5159": "ores", "5160": "\u0120honest", "5161": "\u0120Prime", "5162": "\u0120univers", "5163": "\u0120server", "5164": "\u0120developers", "5165": "arks", "5166": "\u0120Syrian", "5167": "\u0120apparently", "5168": "vis", "5169": "stein", "5170": "\u0120lived", "5171": "\u0120changing", "5172": "\u0120worry", "5173": "rastructure", "5174": "\u0120Carolina", "5175": "\u0120tests", "5176": "\u0120units", "5177": "\u0120rich", "5178": "\u0120Two", "5179": "aren", "5180": "cious", "5181": "icted", "5182": "From", "5183": "aded", "5184": "\u0120humans", "5185": "IM", "5186": "\u0120Foundation", "5187": "\u0120Mos", "5188": "\u0120agencies", "5189": "\u0120sounds", "5190": "ashed", "5191": "\u0120twice", "5192": "\u0120ultimately", "5193": "obby", "5194": "\u0120losing", "5195": "\u0120philos", "5196": "\u0120authority", "5197": "\u0120soldiers", "5198": "\u00e3\u0125", "5199": "\u0120animal", "5200": "\u0120Images", "5201": "\u0120settle", "5202": "\u0120ath", "5203": "\u0120schedul", "5204": "\u0120mut", "5205": "\u0120colle", "5206": "\u0120corporate", "5207": "\u0120absolutely", "5208": "\u0120healthy", "5209": "\u0120paying", "5210": "och", "5211": "\u0120equip", "5212": "iams", "5213": "gu", "5214": "\u0120developing", "5215": "\u0120sea", "5216": "\u0120Time", "5217": "\u0120Den", "5218": "\u0120closer", "5219": "\u0120innov", "5220": "related", "5221": "\u0120seeking", "5222": "\u0120regarding", "5223": "coh", "5224": "\u0120skin", "5225": "\u0120expensive", "5226": "ansion", "5227": "\u0120possibility", "5228": "\u0120beautiful", "5229": "\u0120religion", "5230": "\u0120apart", "5231": "\u0120Central", "5232": "\u0120fundament", "5233": "\u0120experts", "5234": "\u0120solar", "5235": "65", "5236": "\u0120yards", "5237": "\u0120vast", "5238": "\u0120writer", "5239": "\u0120flight", "5240": "\u0120District", "5241": "\u0120Last", "5242": "\u0120deploy", "5243": "\u0120adjust", "5244": "Of", "5245": "\u0120internal", "5246": "\u0120tast", "5247": "\u0120Under", "5248": "\u0120Lat", "5249": "\u0120Peter", "5250": "apers", "5251": "\u0120imagine", "5252": "\u0120Jon", "5253": "IV", "5254": "\u0120applications", "5255": "ologies", "5256": "31", "5257": "\u0120vision", "5258": "look", "5259": "state", "5260": "osen", "5261": "\u0120Francisco", "5262": "iot", "5263": "\u0120Toronto", "5264": "\u0120sitting", "5265": "\u0120Plan", "5266": "\u0120trail", "5267": "\u0120unless", "5268": "\u0120USA", "5269": "\u0120Jes", "5270": "isted", "5271": "\u0120heat", "5272": "\u01202004", "5273": "IP", "5274": "Even", "5275": "\u0120responsibility", "5276": "\u0120capacity", "5277": "atures", "5278": "\u0120Middle", "5279": "\u0120error", "5280": "aine", "5281": "\u0120symb", "5282": "\u0120fol", "5283": "pire", "5284": "\u0120arms", "5285": "\u0120pil", "5286": "\u0120gar", "5287": "\u0120covered", "5288": "idden", "5289": "ias", "5290": "\u0120famous", "5291": "\u0120Camp", "5292": "\u0120forms", "5293": "uzz", "5294": "ND", "5295": "\u0120university", "5296": "\u0120guarant", "5297": "\u0120tight", "5298": "\u0120presented", "5299": "ortion", "5300": "oving", "5301": "enced", "5302": "\u0120ST", "5303": "\u0120clim", "5304": "\u0120Egypt", "5305": "\u0120earn", "5306": "\u0120Put", "5307": "\u0120convention", "5308": "under", "5309": "Just", "5310": "\u0120Public", "5311": "\u0120surprise", "5312": "\u0120attorney", "5313": "\u0120elections", "5314": "\u0120estimated", "5315": "\u0120fif", "5316": "\u0120Mur", "5317": "\u0120Ari", "5318": "\u0120teen", "5319": "\u0120instit", "5320": "\u0120vehicles", "5321": "rible", "5322": "\u0120Amazon", "5323": "road", "5324": "\u0120intended", "5325": "\u0120rid", "5326": "\u0120odd", "5327": "\u0120helps", "5328": "\u0120occurred", "5329": "person", "5330": "ala", "5331": "\u0120streets", "5332": "uster", "5333": "hand", "5334": "\u0120Boston", "5335": "\u0120Sol", "5336": "\u0120=>", "5337": "roud", "5338": "\u0120sport", "5339": "=\"", "5340": "sen", "5341": "\u0120determine", "5342": "ressive", "5343": "\u0120Bitcoin", "5344": "\u0120expert", "5345": "\u0120schem", "5346": "alls", "5347": "\u0120consult", "5348": "uration", "5349": "\u0120broken", "5350": "Let", "5351": "lets", "5352": "\u0120fired", "5353": "\u0120ton", "5354": "\u0120flow", "5355": "\u0120domin", "5356": "porary", "5357": "eder", "5358": "LE", "5359": "\u0120shall", "5360": "\u0120reserv", "5361": "Up", "5362": "\u0120troops", "5363": "ION", "5364": "\u0120Those", "5365": "\u0120hyp", "5366": "\u0120nar", "5367": "terday", "5368": "\u0120pieces", "5369": "\u0120Chief", "5370": "\u0120prepared", "5371": "\u0120Mass", "5372": "\u0120Cath", "5373": "\u0120rapid", "5374": "orage", "5375": "\u0120Jo", "5376": "\u0120located", "5377": "\u0120Social", "5378": "\u0120baby", "5379": "\u0120conclus", "5380": "\u0120bringing", "5381": "anche", "5382": "\u0120Prot", "5383": "\u0120prove", "5384": "\u0120specifically", "5385": "\u0120Any", "5386": "\u0120potentially", "5387": "\u0120sector", "5388": "\u0120random", "5389": "\u0120jail", "5390": "OW", "5391": "\u0120selling", "5392": "\u0120governments", "5393": "\u0120Once", "5394": "\u0120equal", "5395": "Ab", "5396": "class", "5397": "war", "5398": "\u0120faster", "5399": "\u0120heav", "5400": "\u0120Spr", "5401": "\u0120boost", "5402": "useum", "5403": "vey", "5404": "\u0120proposal", "5405": "oty", "5406": "\u0120factors", "5407": "\u0120clin", "5408": "\u0120Gal", "5409": "\u0120plenty", "5410": "TH", "5411": "\u0120equipment", "5412": "\u0120council", "5413": "\u0120era", "5414": "\u0120infrastructure", "5415": "Do", "5416": "\u0120stress", "5417": "phas", "5418": "\u0120stars", "5419": "\u0120Journal", "5420": "\u0120Rub", "5421": "endment", "5422": "\u0120Virginia", "5423": "\u0120breat", "5424": "\u0120prosecut", "5425": "\u0120voted", "5426": "\u0120offering", "5427": "\u0120carbon", "5428": "inent", "5429": "\u0120expressed", "5430": "\u0120vulner", "5431": "\u0120combat", "5432": "\u0120broke", "5433": "()", "5434": "ureau", "5435": "\u0120clot", "5436": "\u0120Cur", "5437": "ours", "5438": "\u0120Federal", "5439": "\u0120ruling", "5440": "\u0120retail", "5441": "\u0120Guard", "5442": "\u0120refused", "5443": "\u0120dram", "5444": "\u0120elected", "5445": "anish", "5446": "\u0120Open", "5447": "\u0120River", "5448": "Every", "5449": "\u0120secure", "5450": "cean", "5451": "\u0120seasons", "5452": "\u0120conducted", "5453": ",'", "5454": "\u0120Paris", "5455": "ht", "5456": "\u0120challenges", "5457": "\u0120remove", "5458": "isher", "5459": "\u0120Sant", "5460": "rog", "5461": "\u0120methods", "5462": "\u0120weapon", "5463": "noon", "5464": "\u0120pointed", "5465": "\u0120Island", "5466": "\u0120master", "5467": "\u0120remained", "5468": "\u0120Australian", "5469": "\u0120prime", "5470": "ENT", "5471": "\u0120trig", "5472": "\u0120positions", "5473": "\u0120Cru", "5474": "\u0120din", "5475": "\u0120Mel", "5476": "\u0120criticism", "5477": "ipping", "5478": "First", "5479": "ocking", "5480": "\u0120Medic", "5481": "\u0120Please", "5482": "onom", "5483": "IG", "5484": "\u0120sale", "5485": "olved", "5486": "\u0120Fe", "5487": "\u0120cultural", "5488": "that", "5489": "\u0120weren", "5490": "\u0120significantly", "5491": "\u0120brow", "5492": "etic", "5493": "\u0120originally", "5494": "rie", "5495": "\u0120During", "5496": "\u0120affected", "5497": "\u0120appearance", "5498": "\u0120cas", "5499": "\u0120tourn", "5500": "\u0120facing", "5501": "\u0120greatest", "5502": "\u0120finish", "5503": "\u0120Lee", "5504": "\u0120stret", "5505": "\u0120youth", "5506": "yr", "5507": "\u0120tele", "5508": "\u0120Who", "5509": "\u0120percentage", "5510": "\u0120Photo", "5511": "col", "5512": "\u0120determined", "5513": "\u0120signs", "5514": "\u0120involve", "5515": "95", "5516": "cel", "5517": "\u00d0\u00b8", "5518": "\u0120thank", "5519": "\u0120bought", "5520": "\u0120500", "5521": "lyn", "5522": "standing", "5523": "\u0120chemical", "5524": "ashion", "5525": "64", "5526": "\u0120shape", "5527": "\u0120Sing", "5528": "\u0120regime", "5529": "\u0120grew", "5530": "pired", "5531": "\u0120remaining", "5532": "\u0120Steve", "5533": "lymp", "5534": "\u0120minimum", "5535": "\u0120Saud", "5536": "reens", "5537": "\u0120indeed", "5538": "\u0120dream", "5539": "rier", "5540": "Since", "5541": "\u0120marg", "5542": "Sp", "5543": "\u0120Both", "5544": ">>", "5545": "\u0120mode", "5546": "\u0120herself", "5547": "\u0120voting", "5548": "\u0120Color", "5549": "\u0120obviously", "5550": "\u0120Force", "5551": "\u0120Ro", "5552": "\u0120reduced", "5553": "\u0120Nov", "5554": "\u0120wood", "5555": "\u0120Rem", "5556": "ordin", "5557": "\u0120recorded", "5558": "\u0120argued", "5559": "\u01201990", "5560": "\u0120revenue", "5561": "\u0120tact", "5562": "\u0120wearing", "5563": "aling", "5564": "ighters", "5565": "\u0120leads", "5566": "edia", "5567": "\u0120hun", "5568": "\u0120politicians", "5569": "\u0120plus", "5570": "\u0120contrast", "5571": "\u0120switch", "5572": "\u0120handle", "5573": "\u0120purchase", "5574": "\u0120thr", "5575": "\u0120subs", "5576": "\u0120concent", "5577": "\u0120proced", "5578": "\u00d1\u0124", "5579": "\u0120agent", "5580": "hab", "5581": "arp", "5582": "mm", "5583": "\u0120Williams", "5584": "\u0120appreci", "5585": "\u0120experienced", "5586": "\u0120hurt", "5587": "top", "5588": "\u0120excited", "5589": "\u0120videos", "5590": "\u0120https", "5591": "cohol", "5592": "\u0120supporting", "5593": "DP", "5594": "\u0120Haw", "5595": "ownt", "5596": "\u0120vir", "5597": "\u0120Free", "5598": "\u0120surprising", "5599": "\u0120minute", "5600": "\u0120explos", "5601": "\u0120belong", "5602": "\u0120consumers", "5603": "\u0120identify", "5604": "\u0120considering", "5605": "\u0120Pac", "5606": "\u0120Conserv", "5607": "ller", "5608": "apter", "5609": "\u0120aircraft", "5610": "\u0120rent", "5611": "\u0120aid", "5612": "CL", "5613": "\u0120pulled", "5614": "gment", "5615": "\u0120basically", "5616": "\u0120differences", "5617": "ogue", "5618": "\u0120Book", "5619": "\u0120glass", "5620": "\u0120Rad", "5621": "\u0120afternoon", "5622": "\u0120shift", "5623": "\u0120diss", "5624": "\u0120depart", "5625": "\u0120ends", "5626": "essions", "5627": "\u0120turning", "5628": "\u0120bound", "5629": "\u0120films", "5630": "\u0120spring", "5631": "\u0120prospect", "5632": "ruption", "5633": "ket", "5634": "\u0120Charl", "5635": "\u0120mort", "5636": "life", "5637": "\u0120treated", "5638": "\u0120accident", "5639": ",[", "5640": "\u0120motiv", "5641": "\u0120listen", "5642": "\u0120seat", "5643": "\u0120Power", "5644": "\u0120combined", "5645": "\u0120construct", "5646": "Ind", "5647": "\u0120seriously", "5648": "\u0120privacy", "5649": "apping", "5650": "\u0120evening", "5651": "hered", "5652": "hy", "5653": "\u0120opportunities", "5654": "asp", "5655": "\u0120struggle", "5656": "\u0120195", "5657": "\u0120panel", "5658": "\u0120enemy", "5659": "\u0120lots", "5660": "\u0120completed", "5661": "\u0120Daily", "5662": "\u0120visual", "5663": "His", "5664": "Phone", "5665": "pet", "5666": "\u0120talked", "5667": "\u0120cart", "5668": "\u0120hopes", "5669": "uts", "5670": "\u0120passing", "5671": "oral", "5672": "\u0120id", "5673": "\u0120apps", "5674": "osite", "5675": "05", "5676": "gent", "5677": "PD", "5678": "\u0120calcul", "5679": "Another", "5680": "\u0120widely", "5681": "ensions", "5682": "\u0120emergency", "5683": "\u0120Hol", "5684": "amm", "5685": "\u0120Show", "5686": "\u0120suit", "5687": "\u0120element", "5688": "\u0120ast", "5689": "anged", "5690": "SS", "5691": "ucks", "5692": "aled", "5693": "\u0120powers", "5694": "ato", "5695": "\u0120Rel", "5696": "\u0120BBC", "5697": "\u0120Olymp", "5698": "\u0120burn", "5699": "TV", "5700": "\u0120discl", "5701": "Pe", "5702": "\u0120plants", "5703": "\u0120flat", "5704": "\u0120Space", "5705": "\u0120liberal", "5706": "raud", "5707": "obe", "5708": "\u0120opposed", "5709": "\u0120sad", "5710": "Well", "5711": "\u0120proceed", "5712": "ompl", "5713": "\u0120copyright", "5714": "\u0120Project", "5715": "oking", "5716": "\u0120advance", "5717": "\u0120factor", "5718": "\u0120distance", "5719": "\u01202003", "5720": "ivered", "5721": "\u0120dismiss", "5722": "plom", "5723": "\u0120attempts", "5724": "\u0120tun", "5725": "\u0120Matt", "5726": "Am", "5727": "\u0120Road", "5728": "abilities", "5729": "sts", "5730": "\u0120IN", "5731": "ributed", "5732": "\u0120trouble", "5733": "unction", "5734": "\u0120hol", "5735": "\u0120collabor", "5736": "\u0120default", "5737": "idel", "5738": "\u0120Bet", "5739": "\u0120zone", "5740": "\u0120Jackson", "5741": "\u0120upgr", "5742": "ita", "5743": "rawn", "5744": "Cont", "5745": "\u0120reaction", "5746": "\u0120storm", "5747": "\u0120reporters", "5748": "\u0120Mem", "5749": "\u0120frust", "5750": "PR", "5751": "nell", "5752": "\u0120writes", "5753": "adow", "5754": "mosp", "5755": "mond", "5756": "aints", "5757": "\u0120typically", "5758": "\u0120Today", "5759": "lines", "5760": "respond", "5761": "UT", "5762": "\u0120pages", "5763": "\u0120instruct", "5764": "inian", "5765": "ternal", "5766": "eds", "5767": "\u0120reference", "5768": "\u0120grab", "5769": "zer", "5770": "\u0120package", "5771": "\u0120bodies", "5772": "\u0120matters", "5773": "free", "5774": "01", "5775": "\u0120denied", "5776": "care", "5777": "App", "5778": "\u0120quant", "5779": "\u0120disappoint", "5780": "\u0120sem", "5781": "\u0120explo", "5782": "\u0120NAS", "5783": "\u0120optim", "5784": "ache", "5785": "\u0120quiet", "5786": "\u0120entertain", "5787": "\u0120responded", "5788": "\u0120approved", "5789": "\u0120Turkey", "5790": "\u0120satisf", "5791": "aped", "5792": "\u0120broadcast", "5793": "esters", "5794": "\u0120institutions", "5795": "\u0120advert", "5796": "42", "5797": "\u0120stands", "5798": "\u0120Director", "5799": "\u0120sets", "5800": "estival", "5801": "\u0120elimin", "5802": "razy", "5803": "ga", "5804": "\u00c3\u00a4", "5805": "Rep", "5806": "host", "5807": "\u0120valid", "5808": "\u0120renew", "5809": "\u0120Ohio", "5810": "elly", "5811": "\u0120split", "5812": "\u0120severe", "5813": "\u0120William", "5814": "\u0120sac", "5815": "\u0120capable", "5816": "\u0120Penn", "5817": "\u01202001", "5818": "\u0120//", "5819": "\u0120pitch", "5820": "aniel", "5821": "\u0120caption", "5822": "\u0120loved", "5823": "\u0120technical", "5824": "\u0120giant", "5825": "pass", "5826": "\u0120tradition", "5827": "isters", "5828": "\u0120cann", "5829": "rant", "5830": "\u0120prompt", "5831": "\u0120bull", "5832": "\u0120confident", "5833": "uous", "5834": "\u0120confidence", "5835": "rum", "5836": "abin", "5837": "\u0120numerous", "5838": "\u0120reportedly", "5839": "\u0120Ma", "5840": "\u0120faces", "5841": "],", "5842": "writ", "5843": "\u0120weather", "5844": "\u0120fly", "5845": "rid", "5846": "\u0120transition", "5847": "\u012036", "5848": "\u0120System", "5849": "\u0120Afghanistan", "5850": "\u0120Squ", "5851": "\u0120creation", "5852": "De", "5853": "\u0120perspective", "5854": "\u0120unable", "5855": "\u0120forget", "5856": "\u0120Labour", "5857": "\u0120Yet", "5858": "astern", "5859": "employ", "5860": "oken", "5861": "\u0120Media", "5862": "angers", "5863": "II", "5864": "unte", "5865": "\u0120craft", "5866": "\u0120substant", "5867": "\u0120cooper", "5868": "\u0120violent", "5869": "\u0120suffered", "5870": "ilit", "5871": "\u0120coast", "5872": "\u0120mand", "5873": "ampion", "5874": "43", "5875": "\u0120pictures", "5876": "\u0120experiences", "5877": "\u0120approx", "5878": "abled", "5879": "\u0120route", "5880": "88", "5881": "sex", "5882": "\u0120flag", "5883": "\u0120advice", "5884": "\u0120Andrew", "5885": "usiness", "5886": "\u0120declared", "5887": "\u0120ordered", "5888": "\u0120Human", "5889": "razil", "5890": "\u0120crimes", "5891": "\u0120coff", "5892": "Se", "5893": "\u0120proud", "5894": "ishes", "5895": "\u0120reporting", "5896": "\u0120messages", "5897": "\u0120circumst", "5898": "\u0120findings", "5899": "Res", "5900": "ulations", "5901": "\u0120eval", "5902": "\u0120excell", "5903": "Over", "5904": "\u0120declined", "5905": "\u0120explains", "5906": "\u0120Lin", "5907": "\u0120Wal", "5908": "\u0120delay", "5909": "\u0120\\", "5910": "\u0120Follow", "5911": "\u0120newspaper", "5912": "ounded", "5913": "\u0120connected", "5914": "ilty", "5915": "\u0120shouldn", "5916": "\u0120mal", "5917": "evin", "5918": "oves", "5919": "\u0120ongoing", "5920": "can", "5921": "\u0120cloud", "5922": "dule", "5923": "\u0120movies", "5924": "\u0120picked", "5925": "ionally", "5926": "resents", "5927": "77", "5928": "\u0120admitted", "5929": "\u0120gra", "5930": "\u0120delivered", "5931": "During", "5932": "\u0120guns", "5933": "\u0120ML", "5934": "\u0120Scot", "5935": "\u0120walking", "5936": "\u0120agents", "5937": "called", "5938": "tion", "5939": "\u0120prin", "5940": "\u0120editor", "5941": "\u0120thoughts", "5942": "\u0120married", "5943": "\u0120Tra", "5944": "\u0120auth", "5945": "\u0120emails", "5946": "\u0120appropriate", "5947": "edd", "5948": "\u0120emphas", "5949": "\u0120Rod", "5950": "uations", "5951": "\u0120edge", "5952": "\u0120architect", "5953": "\u0120Grand", "5954": "\u0120leaves", "5955": "\u0120updates", "5956": "\u0120accompl", "5957": "OD", "5958": "\u0120gather", "5959": "\u0120forg", "5960": "\u0120Muslims", "5961": "ansas", "5962": "\u0120Wood", "5963": "\u0120quarterback", "5964": "\u0120session", "5965": "ooth", "5966": "\u0120pool", "5967": "\u0120Techn", "5968": "\u0120Science", "5969": "cos", "5970": "\u0120injured", "5971": "\u0120publicly", "5972": "ellow", "5973": "\u0120Sov", "5974": "\u0120statements", "5975": "arn", "5976": "\u0120perman", "5977": "arl", "5978": "\u0120legit", "5979": "\u0120confirm", "5980": "nergy", "5981": "\u0120Lake", "5982": "\u0120ourselves", "5983": "Other", "5984": "\u0120realize", "5985": "\u0120rot", "5986": "\u0120drivers", "5987": "MA", "5988": "\u0120Av", "5989": "\u0120Dou", "5990": "mates", "5991": ",\u00e2\u0122\u013b", "5992": "\u0120armed", "5993": "essor", "5994": "\u0120dial", "5995": "cons", "5996": "TA", "5997": "\u0120lawyer", "5998": "ourney", "5999": "\u0120rail", "6000": "\u0120readers", "6001": "reland", "6002": "\u0120contains", "6003": "\u0120argue", "6004": "\u0120Rev", "6005": "\u0120talent", "6006": "\u0120filled", "6007": "\u0120Sum", "6008": "\u0120allegations", "6009": "\u0120activists", "6010": "\u0120Christmas", "6011": "\u0120dynam", "6012": "\u01201980", "6013": "\u0120Michigan", "6014": "date", "6015": "\u0120Back", "6016": "\u0120Ron", "6017": "\u0120crack", "6018": "\u0120transform", "6019": "Tube", "6020": "\u0120Read", "6021": "\u0120Ill", "6022": "\u0120buildings", "6023": "long", "6024": "\u0120wear", "6025": "Many", "6026": "\u0120sam", "6027": "\u0120terrorist", "6028": "\u0120tree", "6029": "\u0120exercise", "6030": "enda", "6031": "\u0120label", "6032": "\u0120effectively", "6033": "Oh", "6034": "\u0120practices", "6035": "\u0120god", "6036": "\u0120subsequ", "6037": "\u0120Jul", "6038": "\u0120Sher", "6039": "\u0120flo", "6040": "uls", "6041": "\u0120fish", "6042": "TS", "6043": "ette", "6044": "enture", "6045": "\u0120shop", "6046": "\u0120examples", "6047": "41", "6048": "\u0120Hy", "6049": "\u0120patient", "6050": "\u0120Gen", "6051": "\u0120Seattle", "6052": "\u0120objects", "6053": "\u0120tech", "6054": "\u0120See", "6055": "\u0120secretary", "6056": "gia", "6057": "asure", "6058": "\u0120rain", "6059": "urning", "6060": "\u0120missed", "6061": "\u0120causes", "6062": "illy", "6063": "\u0120debut", "6064": "\u0120essentially", "6065": "66", "6066": "\u0120moral", "6067": "orders", "6068": "ador", "6069": "word", "6070": "acter", "6071": "\u0120Work", "6072": "def", "6073": "arters", "6074": "\u0120Ukraine", "6075": "\u0120centre", "6076": "amin", "6077": "hedule", "6078": "Follow", "6079": "\u0120Vict", "6080": "\u0120ID", "6081": "\u0120injuries", "6082": "icing", "6083": "\u0120Phot", "6084": "\u0120Stan", "6085": "\u0120motor", "6086": "\u0120iPhone", "6087": "\u0120artist", "6088": "\u0120client", "6089": "\u0120bond", "6090": "\u0120thinks", "6091": "iat", "6092": "aza", "6093": "orse", "6094": "ouston", "6095": "\u0120pure", "6096": "\u0120hell", "6097": "Although", "6098": "\u0120Saudi", "6099": "\u0120facts", "6100": "\u0124\u00ac", "6101": "\u0120desire", "6102": "agers", "6103": "\u0120ske", "6104": "orry", "6105": "\u0120linked", "6106": "\u00c3\u0143", "6107": "\u0120governor", "6108": "\u0120materials", "6109": "\u0120performed", "6110": "Spe", "6111": "\u0120franch", "6112": "esome", "6113": "nan", "6114": "\u0120suc", "6115": "\u0120philosoph", "6116": "\u0120initially", "6117": "\u0120Sign", "6118": "\u0120necessarily", "6119": "\u0120Kim", "6120": "\u0120Bat", "6121": "\u0120Fer", "6122": "\u0120expansion", "6123": "\u0120scheduled", "6124": "water", "6125": "ERS", "6126": "\u0120warned", "6127": "iest", "6128": "\u0120diplom", "6129": "\u0120advanced", "6130": "\u0120explan", "6131": "\u0120ing", "6132": "\u0120vari", "6133": "\u0120everybody", "6134": "\u0120joint", "6135": "\u0120decre", "6136": "\u0120resolution", "6137": "\u0120increases", "6138": "enger", "6139": "Yes", "6140": "\u0120accepted", "6141": "\u0120incor", "6142": "\u0120myster", "6143": "\u0120faced", "6144": "\u0120van", "6145": "\u0120bare", "6146": "illance", "6147": "\u0120Mount", "6148": "\u0120announcement", "6149": "\u0120follows", "6150": "\u0120nations", "6151": "\u0120playoff", "6152": "\u0120Life", "6153": "\u0120abandon", "6154": "\u0120Second", "6155": "\u0120Id", "6156": "\u0120radical", "6157": "\u0120athlet", "6158": "\u0120neither", "6159": "\u0120yesterday", "6160": "\u0120datab", "6161": "\u0120nearby", "6162": "\u0120distribution", "6163": "otic", "6164": "\u0120applied", "6165": "irty", "6166": "\u0120magazine", "6167": "Most", "6168": "athan", "6169": "rich", "6170": "\u0120mir", "6171": "\u0120consequences", "6172": "\u0120doctor", "6173": "uy", "6174": "\u0120listed", "6175": "\u0120fort", "6176": "\u0120Columb", "6177": "\u0120atmosp", "6178": "American", "6179": "\u0120surprised", "6180": "\u0120offense", "6181": "Qu", "6182": "itors", "6183": "\u0120CNN", "6184": "\u0120RE", "6185": "\u0120spons", "6186": "\u0120begins", "6187": "\u0120Week", "6188": "\u0120threats", "6189": "sembly", "6190": "\u0120represents", "6191": "\u0120Jews", "6192": "\u0120GM", "6193": "\u0120Aff", "6194": "\u0120enh", "6195": "\u0120moves", "6196": "\u0120remark", "6197": "\u0120TO", "6198": "\u0120songs", "6199": "\u0120pra", "6200": "kay", "6201": "\u0120chart", "6202": "\u0120behavi", "6203": "\u0120Dan", "6204": "\u0120ride", "6205": "\u0120adds", "6206": "\u0120withd", "6207": "Can", "6208": "\u00c3\u0124", "6209": "\u0120improved", "6210": "\u0120phen", "6211": "\u0120Blue", "6212": "\u0120bot", "6213": "\u0120warm", "6214": "\u0120af", "6215": "\u0120alcohol", "6216": "rip", "6217": "\u0120AT", "6218": "\u0120output", "6219": "law", "6220": "\u0120flood", "6221": "\u0120Develop", "6222": "\u0120Hen", "6223": "whel", "6224": "edy", "6225": "\u0120shots", "6226": "\u0120fill", "6227": "\u0120Vol", "6228": "\u0120alt", "6229": "\u0120stood", "6230": "\u0120brings", "6231": "\u0120pushed", "6232": "\u0120guilty", "6233": "\u0120Romney", "6234": "\u0120subscrib", "6235": "85", "6236": "\u0120entry", "6237": "ocratic", "6238": "\u0120Brazil", "6239": "\u0120democracy", "6240": "\u0120boys", "6241": "burg", "6242": "\u012033", "6243": "\u0120row", "6244": "\u0120config", "6245": "\u0120restaurant", "6246": "\u0120NBA", "6247": "\u0120lawsuit", "6248": "\u0120Dev", "6249": "\u0120Ireland", "6250": "acle", "6251": "\u0120manufacture", "6252": "\u0120receiving", "6253": "\u0120rein", "6254": "\u0120Barack", "6255": "Then", "6256": "\u0120trib", "6257": "\u0120totally", "6258": "\u0120Only", "6259": "\u0120discussed", "6260": "\u0120sought", "6261": "\u0120rising", "6262": "\u0120entered", "6263": "\u0120ISIS", "6264": "\u0120Board", "6265": "\u0120300", "6266": "\u0120consistent", "6267": "\u0120historical", "6268": "twitter", "6269": "ideo", "6270": "\u0120storage", "6271": "\u0120correspond", "6272": "\u0120plane", "6273": "\u0120combination", "6274": "\u0120scored", "6275": "\u0120input", "6276": "\u0120symbol", "6277": "\u0120bright", "6278": "\u0120button", "6279": "irds", "6280": "\u0120succeed", "6281": "stood", "6282": "\u0120creative", "6283": "\u0120investors", "6284": "\u0120square", "6285": "\u0120articles", "6286": "\u01202002", "6287": "\u0120island", "6288": "\u0120deaths", "6289": "\u0120scr", "6290": "\u0120functions", "6291": "\u0120networks", "6292": "\u0120classes", "6293": "\u0120unlikely", "6294": "alty", "6295": "\u0120Prem", "6296": "\u0120heads", "6297": "\u0120boss", "6298": "ician", "6299": "\u0120native", "6300": "icious", "6301": "\u0120lie", "6302": "\u0120sav", "6303": "\u0120Lib", "6304": "\u0120roughly", "6305": "\u0120consumer", "6306": "\u0120Str", "6307": "\u0120Whe", "6308": "\u0120Walk", "6309": "fortunately", "6310": "\u0120Ms", "6311": "\u0120string", "6312": "\u0120Maybe", "6313": "\u0120heavily", "6314": "\u0120Another", "6315": "\u0120fairly", "6316": "\u0120temperature", "6317": "arden", "6318": "\u0120kit", "6319": "\u0120existence", "6320": "\u0120Its", "6321": "\u0120Asia", "6322": "\u0120contest", "6323": "\u0120plot", "6324": "issions", "6325": "\u0120Cub", "6326": "\u0120resident", "6327": "usal", "6328": "\u0120targets", "6329": "\u0120Bob", "6330": "\u0120resc", "6331": "\u0120Korean", "6332": "ican", "6333": "duc", "6334": "\u0120lock", "6335": "\u0120younger", "6336": "\u0120colleagues", "6337": "',", "6338": "\u0120Swed", "6339": "PU", "6340": "abb", "6341": "\u0120library", "6342": "\u00c3\u00b6", "6343": "\u0120rally", "6344": "\u0120parliament", "6345": "\u0120protests", "6346": "\u0120anywhere", "6347": "oked", "6348": "\u0120Sports", "6349": "\u0120Sky", "6350": "\u0120bike", "6351": "zona", "6352": "\u0120breaking", "6353": "\u0120sym", "6354": "\u0120stores", "6355": "\u0120expression", "6356": "\u0120waste", "6357": "\u0120chain", "6358": "\u0120blow", "6359": "\u0120warning", "6360": "\u0120importance", "6361": "\u0120defined", "6362": "\u0120buying", "6363": "\u0120manage", "6364": "\u0120prohib", "6365": "ii", "6366": "\u0120classic", "6367": "\u0120cere", "6368": "\u0120snow", "6369": "\u0120adults", "6370": "\u0120illust", "6371": "\u0120Each", "6372": "See", "6373": "Ob", "6374": "\u0120marketing", "6375": "\u0120links", "6376": "\u00c3\u00b3", "6377": "born", "6378": "\u0120shif", "6379": "iques", "6380": "andal", "6381": "\u0120Club", "6382": "\u0120tow", "6383": "\u0120Hist", "6384": "\u0120fraud", "6385": "OC", "6386": "dis", "6387": "\u0120facility", "6388": "ollywood", "6389": "erences", "6390": "\u0120hardware", "6391": "\u0120schol", "6392": "\u0120allegedly", "6393": "\u012037", "6394": "\u0120regulations", "6395": "pret", "6396": "\u0120doctors", "6397": "\u0120bon", "6398": "\u0120Colorado", "6399": "\u0120currency", "6400": "\u0120household", "6401": "\u0120replaced", "6402": "\u0120essential", "6403": "\u0120Ram", "6404": "agan", "6405": "Man", "6406": "\u0120empt", "6407": "opy", "6408": "onna", "6409": "\u0120somewhat", "6410": "\u0120Div", "6411": "press", "6412": "86", "6413": "\u0120nav", "6414": "power", "6415": "\u0120favour", "6416": "\u0120promise", "6417": "\u0120DC", "6418": "\u0120Boy", "6419": "\u0120laugh", "6420": "Pol", "6421": "\u0120Rights", "6422": "ena", "6423": "\u0120holds", "6424": "\u0120opposite", "6425": "ocket", "6426": "\u0120tom", "6427": "\u00d1\u0123", "6428": "\u0120moments", "6429": "west", "6430": "\u0120hat", "6431": "tering", "6432": "\u0120opponent", "6433": "\u0120bug", "6434": "\u0120Far", "6435": "cho", "6436": "\u0120campus", "6437": "\u0120acts", "6438": "\u0120rum", "6439": "etroit", "6440": "\u0120versions", "6441": "\u0120motion", "6442": "\u0120metal", "6443": "hips", "6444": "\u0120evolution", "6445": "ometimes", "6446": "\u0120vice", "6447": "\u0120relevant", "6448": "\u0120sees", "6449": "\u0120Image", "6450": "\u0120bag", "6451": "\u0120industrial", "6452": "\u0120zero", "6453": "IR", "6454": "\u0120sick", "6455": "\u0120downt", "6456": "oma", "6457": "\u0120closely", "6458": "hetic", "6459": "\u0120emotional", "6460": "chen", "6461": "game", "6462": "IF", "6463": "\u0120YouTube", "6464": "\u0120Year", "6465": "\u0120fewer", "6466": "\u0120division", "6467": "olve", "6468": "\u0120adm", "6469": "va", "6470": "\u0120harder", "6471": "\u0120customer", "6472": "\u0120hoping", "6473": "ologist", "6474": "\u0120Brook", "6475": "Donald", "6476": "\u0120Valley", "6477": "En", "6478": "\u0120hur", "6479": "\u0120mechanism", "6480": "ittle", "6481": "inem", "6482": "\u0120Gra", "6483": "\u0120Houston", "6484": "ml", "6485": "\u0120Elect", "6486": "\u0120returns", "6487": "NC", "6488": "atell", "6489": "\u0120volunte", "6490": "\u0120participants", "6491": "\u0120extent", "6492": "\u0120intention", "6493": "esc", "6494": "alian", "6495": "ellect", "6496": "\u0120excellent", "6497": "\u0120Soviet", "6498": "\u0120acknowled", "6499": "\u0120syn", "6500": "ulous", "6501": "oming", "6502": "\u0120Mot", "6503": "\u0120batt", "6504": "\u0120Games", "6505": "\u0120squad", "6506": "\u0120circumstances", "6507": "pan", "6508": "\u0120fashion", "6509": "\u0120isol", "6510": "\u00c3\u00bc", "6511": "otal", "6512": "greg", "6513": "\u0120immediate", "6514": "\u0120Eric", "6515": "\u0120suffering", "6516": "\u0120Watch", "6517": "str", "6518": "\u0120lies", "6519": "\u0120tiny", "6520": "\u0120authors", "6521": "\u012038", "6522": "\u0120grown", "6523": "iger", "6524": "\u0120Gar", "6525": "ora", "6526": "po", "6527": "efully", "6528": "\u0120immigrants", "6529": "\u00c3\u0125", "6530": "print", "6531": "\u0120kinds", "6532": "utch", "6533": "\u012049", "6534": "\u0120Die", "6535": "\u0120cheap", "6536": "\u0120mine", "6537": "\u0120detailed", "6538": "\u0120Hel", "6539": "ordan", "6540": "name", "6541": "\u0120featured", "6542": "iki", "6543": "ayers", "6544": "\u0120meat", "6545": "\u0120Sar", "6546": "\u0120unus", "6547": "\u0120Aut", "6548": "\u0120IP", "6549": "\u0120competitive", "6550": "\u0120describe", "6551": "\u0120formed", "6552": "\u0120Home", "6553": "nic", "6554": "friend", "6555": "certain", "6556": "\u0120carrying", "6557": "\u0120tournament", "6558": "\u0120trick", "6559": "nam", "6560": "\u0120relationships", "6561": "\u0120fundamental", "6562": "kel", "6563": "\u0120wave", "6564": "\u0120cycle", "6565": "\u0120crazy", "6566": "\u0120Cy", "6567": "\u0120signing", "6568": "\u0120Way", "6569": "\u0120termin", "6570": "\u0120guide", "6571": "\u0120wins", "6572": "\u0120Catholic", "6573": "\u0120earned", "6574": "\u0120decline", "6575": "\u0120regional", "6576": "ensus", "6577": "style", "6578": "\u0120embr", "6579": "\u0120strange", "6580": "\u0120Palestinian", "6581": "\u0120Jesus", "6582": "\u0120Ann", "6583": "bar", "6584": "\u0120Long", "6585": "\u0120ancient", "6586": "\u0120frequently", "6587": "\u0120acting", "6588": "\u0120Putin", "6589": "\u0120manner", "6590": "\u0120efficient", "6591": "rome", "6592": "\u0120pushing", "6593": "\u0120CIA", "6594": "\u0120comfortable", "6595": "\u0120Card", "6596": "\u0120pip", "6597": "\u0120Er", "6598": "ORE", "6599": "Per", "6600": "\u0120sharing", "6601": "\u0120wire", "6602": "\u0120skill", "6603": "\u0120Econom", "6604": "ockey", "6605": "chers", "6606": "\u0120instru", "6607": "\u0120Ell", "6608": "\u0120owned", "6609": "awa", "6610": "\u0120commitment", "6611": "\u0120alongside", "6612": "\u0120OF", "6613": "uated", "6614": "\u0120Lord", "6615": "anes", "6616": "\u0120Davis", "6617": "rison", "6618": "\u0120controversial", "6619": "\u0120artists", "6620": "\u0120referred", "6621": "weight", "6622": "\u0120egg", "6623": "\u0120mouth", "6624": "\u0120repeatedly", "6625": "06", "6626": "\u012048", "6627": "\u0120Top", "6628": "\u00ef\u00bf", "6629": "\u012034", "6630": "FP", "6631": "\u0120attempted", "6632": "\u0120femin", "6633": "\u00d0\u00be\u00d0", "6634": "umber", "6635": "\u0120updated", "6636": "foot", "6637": "\u0120cert", "6638": "ua", "6639": "\u0120pregn", "6640": "\u0120Old", "6641": "\u0120schedule", "6642": "xy", "6643": "\u0120PS", "6644": "amily", "6645": "adel", "6646": "\u0120dedicated", "6647": "\u0120AL", "6648": "\u0120sentence", "6649": "vin", "6650": "\u0120upcoming", "6651": "\u0120Right", "6652": "\u0120NY", "6653": "bel", "6654": "\u0120Down", "6655": "\u0120Di", "6656": "\u0120column", "6657": "hus", "6658": "\u0120depth", "6659": "09", "6660": "\u0120pled", "6661": "\u0120virtual", "6662": "uable", "6663": "\u0120journey", "6664": "\u0120struck", "6665": "\u00d1\u0122", "6666": "\u0120desk", "6667": "\u0120studio", "6668": "\u0120realized", "6669": "\u0120Energy", "6670": "Despite", "6671": "ceived", "6672": "%)", "6673": "ographic", "6674": "ugh", "6675": "\u0120medic", "6676": "DS", "6677": "iami", "6678": "\u0120serving", "6679": "\u0120walked", "6680": "rive", "6681": "iveness", "6682": "\u0120king", "6683": "\u0120ring", "6684": "ko", "6685": "\u0120reput", "6686": "you", "6687": "\u0120urban", "6688": "phy", "6689": "\u0120Cle", "6690": "\u0120Charles", "6691": "\u0120Wild", "6692": "\u0120targeted", "6693": "\u0120channel", "6694": "\u0120assets", "6695": "luding", "6696": "\u0120tort", "6697": "\u0120inspired", "6698": "\u0120hotel", "6699": "\u0120Arizona", "6700": "08", "6701": "\u0120posts", "6702": "\u0120newslet", "6703": "Like", "6704": "Two", "6705": "\u0120Supp", "6706": "\u0120universe", "6707": "07", "6708": "\u0120agenda", "6709": "\u0120causing", "6710": "\u0120watched", "6711": "\u0120suicide", "6712": "\u0120stream", "6713": "\u0120overwhel", "6714": "\u0120Py", "6715": "\u0120Men", "6716": "\u0120usual", "6717": "\u0120surveillance", "6718": "mem", "6719": "\u0120intent", "6720": "sole", "6721": "People", "6722": "\u0120liqu", "6723": "\u0120sister", "6724": "\u0120opponents", "6725": "\u0120chairman", "6726": "\u0120du", "6727": "\u0120Wars", "6728": "\u0120Cruz", "6729": "\u0120mainstream", "6730": "\u0120latter", "6731": "\u0120hall", "6732": "\u0120surrounding", "6733": "\u0120folks", "6734": "\u0120knowing", "6735": "\u0120orders", "6736": "\u0120Inf", "6737": "omin", "6738": "igg", "6739": "\u0120remote", "6740": "\u012075", "6741": "\u0120sand", "6742": "\u0120literally", "6743": "\u0120Java", "6744": "\u0120observed", "6745": "\u0120Again", "6746": "\u0120subsid", "6747": "gor", "6748": "Fr", "6749": "\u0120Defense", "6750": "\u0120infl", "6751": "obb", "6752": "\u0120Van", "6753": "\u0120approval", "6754": "acc", "6755": "iments", "6756": "\u0120basket", "6757": "rence", "6758": "\u0120teachers", "6759": "azi", "6760": "avor", "6761": "izz", "6762": "\u0120winter", "6763": "iciency", "6764": "alle", "6765": "\u0120exciting", "6766": "aze", "6767": "aylor", "6768": "\u0120Tal", "6769": "\u0120format", "6770": "boy", "6771": "\u0120congress", "6772": "\u0120protected", "6773": "iro", "6774": "ati", "6775": "\u0120noticed", "6776": "\u0120simpl", "6777": "\u0120dealing", "6778": "\u0120Young", "6779": "rations", "6780": "\u0120Child", "6781": "\u0120precise", "6782": "67", "6783": "xual", "6784": "\u0120deeply", "6785": "\u0120communication", "6786": "\u0120gang", "6787": "\u0120sending", "6788": "ipl", "6789": "\u0120forth", "6790": "\u0120Jr", "6791": "\u0120fasc", "6792": "\u0120battery", "6793": "\u0120wal", "6794": "mun", "6795": "\u0120sky", "6796": "\u0120narr", "6797": "\u0120fixed", "6798": "post", "6799": "\u0120aside", "6800": "\u0120requirements", "6801": "abis", "6802": "ums", "6803": "Int", "6804": "\u0120properties", "6805": "rors", "6806": "\u0120alive", "6807": "\u0120narrow", "6808": "\u0120wake", "6809": "allas", "6810": "\u0120passion", "6811": "\u0120Arch", "6812": "onymous", "6813": "\u0120eating", "6814": "Or", "6815": "ensity", "6816": "\u0120mistake", "6817": "woman", "6818": "\u0120explore", "6819": "\u0120coffee", "6820": "\u01201970", "6821": "\u0120Pan", "6822": "\u0120rape", "6823": "\u0120volume", "6824": "\u0120promised", "6825": "\u0120diet", "6826": "acking", "6827": "\u0120risks", "6828": "\u0120exhib", "6829": "\u0120Polit", "6830": "\u0120Fort", "6831": "\u0120sweet", "6832": "May", "6833": "\u00e2\u0122\u013b.", "6834": "\u0120Enter", "6835": "\u0120Wat", "6836": "\u0120neut", "6837": "\u0120involving", "6838": "\u0120wage", "6839": "\u0120selection", "6840": "\u0120Max", "6841": "\u0120tested", "6842": "ether", "6843": "\u0120flu", "6844": "ulture", "6845": "\u0120defeat", "6846": "\u0120northern", "6847": "\u0120reward", "6848": "\u0120welcome", "6849": "\u0120Cast", "6850": "\u0120extended", "6851": "\u0120puts", "6852": "\u0120territory", "6853": "\u0120phenomen", "6854": "\u0120unemploy", "6855": "\u0120refugees", "6856": "\u0120sample", "6857": "\u0120height", "6858": "\u0120approximately", "6859": "\u0120Kevin", "6860": "\u0120blame", "6861": "\u0120Brad", "6862": "\u0120anyway", "6863": "59", "6864": "\u0120Detroit", "6865": "\u0120destroyed", "6866": "obile", "6867": "\u0120sho", "6868": "\u0120impressive", "6869": "\u0120Stephen", "6870": "asks", "6871": "\u0120proof", "6872": "\u0120gap", "6873": "\u0120dry", "6874": "\u00ef\u00bf\u00bd", "6875": "\u0120crash", "6876": "\u0120unknown", "6877": "\u0120locations", "6878": "\u0120selected", "6879": "apse", "6880": "\u0120west", "6881": "anges", "6882": "gery", "6883": "stone", "6884": "\u0120Fil", "6885": "\u0120attacked", "6886": "aire", "6887": "\u0120maximum", "6888": "\u0120Miller", "6889": "\u0120Wilson", "6890": "\u0120Tit", "6891": "\u0120promote", "6892": "\u0120shel", "6893": "aser", "6894": "\u0120merely", "6895": "\u0120franchise", "6896": "arry", "6897": "04", "6898": "lv", "6899": "\u0120requests", "6900": "\u0120retire", "6901": "\u0120suddenly", "6902": "\u0120slowly", "6903": "\u0120protesters", "6904": "\u0120disag", "6905": "\u0120teacher", "6906": "ixt", "6907": "\u0120typical", "6908": "ogan", "6909": "dro", "6910": "\u0120Women", "6911": "\u0120Ins", "6912": "ingu", "6913": "\u0120conver", "6914": "list", "6915": "\u0120chose", "6916": "ao", "6917": "\u0120Camer", "6918": "\u0120Class", "6919": "\u0120Lu", "6920": "\u0120matches", "6921": "\u0120prote", "6922": "\u0120license", "6923": "\u0120properly", "6924": "\u0120assume", "6925": "oration", "6926": "\u0120discover", "6927": "\u0120wid", "6928": "\u0120PR", "6929": "Rel", "6930": "\u0120Mic", "6931": "\u0120worried", "6932": "\u0120moder", "6933": "fire", "6934": "\u0120abortion", "6935": "owered", "6936": "\u0120allies", "6937": "\u0120oblig", "6938": "\u0120terrorism", "6939": "\u0120supports", "6940": "\u0120\u00ce", "6941": "uilding", "6942": "\u00c3\u0125\u00c3\u0124", "6943": "inson", "6944": "verty", "6945": "\u0120arguments", "6946": "\u0120adapt", "6947": "\u0120theme", "6948": "\u0120confront", "6949": "\u0120facilities", "6950": "\u0120sustain", "6951": "gender", "6952": "\u0120east", "6953": "\u0120pal", "6954": "\u0120recognize", "6955": "igure", "6956": "\u0120fuck", "6957": "\u00c3\u0124\u00c3\u0125\u00c3\u0124", "6958": "\u00c3\u0125\u00c3\u0124\u00c3\u0125", "6959": "lies", "6960": "\u0120equival", "6961": "\u0120obtained", "6962": "\u0120poverty", "6963": "\u0120rub", "6964": "\u0120Italy", "6965": "\u0120nomine", "6966": "03", "6967": "\u0120deals", "6968": "\u0120fees", "6969": "alo", "6970": "itarian", "6971": "osis", "6972": "\u0120Hollywood", "6973": "\u0120understood", "6974": "\u0120controlled", "6975": "VER", "6976": "\u0120Best", "6977": "\u0120topic", "6978": "\u0120Dam", "6979": "\u0120critics", "6980": "\u0120Society", "6981": "\u0120Agency", "6982": "axy", "6983": "\u0120Ford", "6984": "\u0120sole", "6985": "\u0120Jersey", "6986": "arity", "6987": "\u0120village", "6988": "han", "6989": "\u0120diagn", "6990": "\u0120Administ", "6991": "raid", "6992": "\u0120likes", "6993": "celer", "6994": "\u0120Four", "6995": "sters", "6996": "68", "6997": "\u0120evil", "6998": "Te", "6999": "\u0120punish", "7000": "\u0120dress", "7001": "cript", "7002": "\u0120Georgia", "7003": "\u0120bunch", "7004": "\u0120Company", "7005": "\u0120journalists", "7006": "John", "7007": "\u0120exposed", "7008": "\u0120ped", "7009": "\u0120regions", "7010": "redit", "7011": "ocation", "7012": "\u0120communications", "7013": "\u0120scheme", "7014": "\u0120transp", "7015": "\u0120stim", "7016": "\u0120limits", "7017": "\u0120somehow", "7018": "\u0120strongly", "7019": "\u0120honor", "7020": "\u0120drag", "7021": "aug", "7022": "\u0120resistance", "7023": "lls", "7024": "\u0120champion", "7025": "\u0120Carl", "7026": "\u0120Labor", "7027": "\u0120constant", "7028": "\u0120phase", "7029": "\u0120NASA", "7030": "asts", "7031": "pool", "7032": "\u0120profit", "7033": "\u0120truck", "7034": "\u0120condem", "7035": "\u0120escape", "7036": "\u0120personally", "7037": "\u0120Night", "7038": "\u0120Dun", "7039": "rimination", "7040": "\u0120Land", "7041": "\u0120bid", "7042": "\u0120NHL", "7043": "\u0120Stand", "7044": "\u0120vacc", "7045": "\u0120deck", "7046": "\u00d0\u00bd", "7047": "nesota", "7048": "iform", "7049": "\u0120falling", "7050": "mo", "7051": "GBT", "7052": "\u0120Network", "7053": "\u0120somewhere", "7054": "cers", "7055": "\u0120employee", "7056": "\u0120harass", "7057": "ems", "7058": "ads", "7059": "CA", "7060": "\u0120bear", "7061": "\u0120CD", "7062": "iner", "7063": "\u0120comparison", "7064": "orted", "7065": "ciples", "7066": "\u0120polls", "7067": "owa", "7068": "\u0120inqu", "7069": "\u0120Love", "7070": "pected", "7071": "\u0120southern", "7072": "\u0120decent", "7073": "oric", "7074": "cow", "7075": "\u0120Spanish", "7076": "\u0120encourage", "7077": "\u0120emissions", "7078": "\u012039", "7079": "\u0120View", "7080": "\u0120Cam", "7081": "enders", "7082": "\u0120empty", "7083": "\u0120Miami", "7084": "\u0120hits", "7085": "oster", "7086": "\u0120definition", "7087": "\u0120Kn", "7088": "\u0120pic", "7089": "wan", "7090": "\u0120directed", "7091": "pes", "7092": "\u0120flex", "7093": "zens", "7094": "\u0120Ok", "7095": "57", "7096": "\u0120meetings", "7097": "\u0120End", "7098": "\u0120Bell", "7099": "\u0120comprom", "7100": "\u0120winner", "7101": "intend", "7102": "aun", "7103": "icken", "7104": "\u0120gotten", "7105": "\u0120Daniel", "7106": "\u0120Turk", "7107": "\u0120electricity", "7108": "\u0120chosen", "7109": "\u0120officially", "7110": "\u0120bench", "7111": "\u0120stretch", "7112": "\u0120database", "7113": "\u0120Despite", "7114": "\u0120spin", "7115": "\u0120intellect", "7116": "igation", "7117": "\u0120stronger", "7118": "\u0120deleg", "7119": "\u0120purposes", "7120": "\u0120DNA", "7121": "Com", "7122": "\u0120cutting", "7123": "\u0120Turn", "7124": "\u0120fold", "7125": "rary", "7126": "\u0120extensive", "7127": "\u0120amounts", "7128": "\u0120desper", "7129": "\u0120trees", "7130": "\u0120anx", "7131": "\u0120ideal", "7132": "\u0120Asian", "7133": "\u0120thread", "7134": "\u0120fifth", "7135": "\u012a\u0134", "7136": "UR", "7137": "\u0120goods", "7138": "\u0120colon", "7139": "\u0120developer", "7140": "\u0120claiming", "7141": "unning", "7142": "Any", "7143": "\u0120retain", "7144": "\u0120soul", "7145": "\u0120captured", "7146": "\u0120Though", "7147": "\u0120finds", "7148": "\u0120driven", "7149": "\u0120payments", "7150": "asters", "7151": "ras", "7152": "CS", "7153": "\u0120ties", "7154": "\u0120Jordan", "7155": "\u0120reasonable", "7156": "olt", "7157": "\u0120dogs", "7158": "\u00e2\u0138", "7159": "\u0120somebody", "7160": "\u0120ending", "7161": "02", "7162": "\u0120Nations", "7163": "\u0120choices", "7164": "\u0120ble", "7165": "\u0120pod", "7166": "\u0120seats", "7167": "\u0120Services", "7168": "\u0120Thank", "7169": "\u0120engage", "7170": "\u0120drawn", "7171": "\u0120sight", "7172": "\u0120param", "7173": "\u0120Dar", "7174": "CE", "7175": "\u0120threatened", "7176": "\u0120ruled", "7177": "\u0120Attorney", "7178": "eping", "7179": "\u0120Irish", "7180": "\u0120Sea", "7181": "\u0120trading", "7182": "owed", "7183": "\u0120primarily", "7184": "ura", "7185": "\u0120aspects", "7186": "\u0120fighters", "7187": "ML", "7188": "\u0120answers", "7189": "\u0120perfectly", "7190": "irms", "7191": "\u0120incl", "7192": "\u0120Academ", "7193": "\u0120rival", "7194": "\u0120parking", "7195": "\u0120rejected", "7196": "\u0120Gall", "7197": "\u0120constantly", "7198": "Add", "7199": "fast", "7200": "\u0120Hun", "7201": "\u0120payment", "7202": "\u0120Cat", "7203": "\u0120distinct", "7204": "\u0120flying", "7205": "\u0120Ut", "7206": "\u0120rig", "7207": "\u0120technologies", "7208": "mod", "7209": "\u0120Real", "7210": "</", "7211": "\u0120components", "7212": "Police", "7213": "\u0120admit", "7214": "\u0120Scotland", "7215": "\u0120elsewhere", "7216": "\u0120Dark", "7217": "dit", "7218": "\u0120constit", "7219": "\u0120anymore", "7220": "lder", "7221": "\u0120icon", "7222": "\u0120fields", "7223": "\u0120estimates", "7224": "EW", "7225": "sea", "7226": "\u0120solutions", "7227": "\u0120resulting", "7228": "ez", "7229": "78", "7230": "\u0120Bru", "7231": "urb", "7232": "\u0120awesome", "7233": "\u0120encoun", "7234": "\u0120province", "7235": "sm", "7236": "\u0120worldwide", "7237": "\u0120actor", "7238": "\u0120regularly", "7239": "\u0120Moore", "7240": "\u0120courts", "7241": "\u0120narrative", "7242": "Once", "7243": "\u0120boot", "7244": "\u0120enemies", "7245": "\u0120mixed", "7246": "300", "7247": "regon", "7248": "\u0120OS", "7249": "\u0120Disney", "7250": "icer", "7251": "\u0120houses", "7252": "\u0120nobody", "7253": "\u0120Sk", "7254": "inations", "7255": "\u0120controls", "7256": "\u0120Water", "7257": "\u0120letters", "7258": "apes", "7259": "agram", "7260": "imp", "7261": "iana", "7262": "\u012042", "7263": "\u0120mayor", "7264": "\u0120loan", "7265": "\u0120murd", "7266": "\u0120outcome", "7267": "\u0120MS", "7268": "\u0120contem", "7269": "sell", "7270": "Sec", "7271": "vy", "7272": "odd", "7273": "ship", "7274": "\u0120Light", "7275": "onic", "7276": "isan", "7277": "\u0120apartment", "7278": "\u0120Steven", "7279": "\u0120coalition", "7280": "\u0120contributed", "7281": "\u0120Bas", "7282": "\u0120tank", "7283": "\u0120concluded", "7284": "\u0120Adam", "7285": "\u0120Tw", "7286": "\u0120exists", "7287": "\u0120founder", "7288": "\u0120Brian", "7289": "earing", "7290": "\u0120Lew", "7291": "\u0120atmosphere", "7292": "\u0120profile", "7293": "\u0120brew", "7294": "\u0120situations", "7295": "\u0120Championship", "7296": "\u0120Author", "7297": "rates", "7298": "\u0120incredible", "7299": "\u0120Constitution", "7300": "\u0120signal", "7301": "otes", "7302": "\u0120Rog", "7303": "\u0120accurate", "7304": "ker", "7305": "\u0120Victor", "7306": "otten", "7307": "\u0120unp", "7308": "\u0120Where", "7309": "\u0120Southern", "7310": ".\"[", "7311": "\u0120employment", "7312": "\u0120clients", "7313": "Dr", "7314": "\u0120keeps", "7315": "inity", "7316": "\u0120informed", "7317": "\u0120continuing", "7318": "\u0120baseball", "7319": "\u0120generate", "7320": "\u0120ticket", "7321": "\u0120conven", "7322": "Also", "7323": "\u0120Conf", "7324": "\u0120weird", "7325": "\u0120tied", "7326": "lock", "7327": "adelph", "7328": "\u0120category", "7329": "\u0120infect", "7330": "ilarly", "7331": "acked", "7332": "\u0120angry", "7333": "\u0120Organ", "7334": "\u0120routine", "7335": "aron", "7336": "\u0120kil", "7337": "\u0120raising", "7338": "ifer", "7339": "\u0120machines", "7340": "\u0120registered", "7341": "there", "7342": "\u0120proved", "7343": "\u0120demands", "7344": "\u0120gaming", "7345": "\u0120Italian", "7346": "\u0120incredibly", "7347": "\u0120crucial", "7348": "\u0120stuck", "7349": "\u0120Civil", "7350": "\u0120Dallas", "7351": "\u0120terrible", "7352": "MP", "7353": "cr", "7354": "\u0120feedback", "7355": "\u0120upper", "7356": "\u0120plastic", "7357": "\u0120imper", "7358": "\u0120newly", "7359": "\u0120Joseph", "7360": "\u0120consumption", "7361": "\u0120dozen", "7362": "\u0120enthus", "7363": "\u0120estate", "7364": "ali", "7365": "rage", "7366": "56", "7367": "\u0120innoc", "7368": "\u0120manip", "7369": "\u0120Tem", "7370": "\u0120conscious", "7371": "\u0120bills", "7372": "\u0120Cross", "7373": "\u0120Spain", "7374": "ifications", "7375": "Today", "7376": "\u0120writers", "7377": "\u0120excess", "7378": "inding", "7379": "\u0120aggressive", "7380": "\u0120reporter", "7381": "\u0120compens", "7382": "\u0120returning", "7383": "\u0120stead", "7384": "\u0120programming", "7385": "\u0120Thanks", "7386": "\u0120represented", "7387": "\u0120conclusion", "7388": "98", "7389": "\u0120rus", "7390": "\u0120Bowl", "7391": "MS", "7392": "\u0120AR", "7393": "\u0120origin", "7394": "\u0120assistant", "7395": "adelphia", "7396": "\u0120roster", "7397": "\u0120Minnesota", "7398": "\u0120organized", "7399": "ria", "7400": "\u0120penalty", "7401": "\u0120drinking", "7402": "lers", "7403": "\u0120paint", "7404": "\u0120satell", "7405": "\u0120gro", "7406": "\u0120Program", "7407": "\u0120capture", "7408": "\u0120conspir", "7409": "\u0120interpret", "7410": "\u0120explanation", "7411": "iscal", "7412": "eme", "7413": "\u0120county", "7414": "iscons", "7415": "essed", "7416": "mont", "7417": "\u0120%", "7418": "anny", "7419": "gorith", "7420": "emen", "7421": "isconsin", "7422": "\u0120assistance", "7423": "\u0120Roman", "7424": "58", "7425": "\u0120complaint", "7426": "ima", "7427": "\u0120ru", "7428": "\u0120nut", "7429": "\u0120magic", "7430": "\u0120tall", "7431": "\u0120Oper", "7432": "\u0120granted", "7433": "Because", "7434": "\u0120Contin", "7435": "star", "7436": "LA", "7437": "Off", "7438": "\u0120Parliament", "7439": "\u0120complicated", "7440": "\u0120audio", "7441": "\u0120chances", "7442": "\u0120extract", "7443": "bal", "7444": "rypt", "7445": "era", "7446": "\u0120Gi", "7447": "\u01201999", "7448": "\u0120hel", "7449": "\u0120Educ", "7450": "\u0120shares", "7451": "\u0120successfully", "7452": "esy", "7453": "\u0120IT", "7454": "\u0120pilot", "7455": "zy", "7456": "\u0120Ep", "7457": "\u0120Hot", "7458": "\u0120myth", "7459": "\u012000", "7460": "\u0120recovery", "7461": "\u0120Test", "7462": "\u0120techniques", "7463": "\u0120iron", "7464": "\u0120Care", "7465": "\u0120Zeal", "7466": "\u0120SC", "7467": "\u0120scenes", "7468": "\u0120veteran", "7469": "\u0120Fre", "7470": "\u0120Win", "7471": "\u0120($", "7472": "\u0120degrees", "7473": "actions", "7474": "\u0120sympt", "7475": "thew", "7476": "\u0120lawmakers", "7477": "ked", "7478": "\u0120western", "7479": "\u0120operate", "7480": "\u0120ads", "7481": "rating", "7482": "\u0120habit", "7483": "\u0120aimed", "7484": "Inst", "7485": "anchester", "7486": "\u0120phr", "7487": "rep", "7488": "rete", "7489": "\u0120taste", "7490": "idency", "7491": "\u0120engaged", "7492": "\u0120privile", "7493": "\u012055", "7494": "\u0120rating", "7495": "\u0120teaching", "7496": "\u0120academic", "7497": "\u0120Os", "7498": "\u0120therap", "7499": "\u0120passes", "7500": "\u0120dollar", "7501": "hent", "7502": "\u0120automatically", "7503": "itar", "7504": "\u0120Pacific", "7505": "\u0120monit", "7506": "\u0120blocks", "7507": "abama", "7508": "\u0120attended", "7509": "\u0120permanent", "7510": "\u0120survive", "7511": "\u0120anticip", "7512": "\u0120extrem", "7513": "\u0120enable", "7514": "\u0120Look", "7515": "\u0120Foreign", "7516": "chain", "7517": "%.", "7518": "\u0120marked", "7519": "itals", "7520": "\u0120hidden", "7521": "\u0120accomp", "7522": "\u0120titles", "7523": "\u0120Senator", "7524": "\u0120NBC", "7525": "\u0120taught", "7526": "\u0120Linux", "7527": "\u0120bom", "7528": "uan", "7529": "\u0120index", "7530": "everal", "7531": "\u0120elite", "7532": "ibilities", "7533": "from", "7534": "\u0120lawyers", "7535": "\u0120depending", "7536": "\u0120valuable", "7537": "\u0120installed", "7538": "\u0120championship", "7539": "\u0120root", "7540": "\u0120compre", "7541": "\u0120Bull", "7542": "\u0120downtown", "7543": "aed", "7544": "mal", "7545": "\u0120equivalent", "7546": "\u0120solve", "7547": "rific", "7548": "\u0120duty", "7549": "\u0120Special", "7550": "\u0120Business", "7551": "\u012064", "7552": "\u0120pace", "7553": "HS", "7554": "\u0120reputation", "7555": "\u0120uncertain", "7556": "\u0120phones", "7557": "uine", "7558": "\u0120overse", "7559": "\u0120Taylor", "7560": "\u0120personnel", "7561": "\u0120pin", "7562": "reams", "7563": "aturally", "7564": "\u0120sufficient", "7565": "\u0120visited", "7566": "\u0120warming", "7567": "\u0120Sn", "7568": "\u0120principles", "7569": "\u0120vulnerable", "7570": "\u0120enjoyed", "7571": "\u0120fake", "7572": "\u0120Nick", "7573": "\u0120advis", "7574": "\u0120negotiations", "7575": "inder", "7576": "\u0120generated", "7577": "\u0120exposure", "7578": "\u0120recording", "7579": "bro", "7580": "\u0120collected", "7581": "\u0120regardless", "7582": "\u0120dict", "7583": "EA", "7584": "\u0120elev", "7585": "\u0120bitcoin", "7586": "\u00e3\u0122", "7587": "active", "7588": "\u0120Kelly", "7589": "\u0120Anth", "7590": "\u0120cup", "7591": "\u0120patterns", "7592": "Getty", "7593": "\u0120Take", "7594": "))", "7595": "\u0120Avenue", "7596": "\u0120Josh", "7597": "\u0120disaster", "7598": "\u0120cable", "7599": "\u012065", "7600": "\u0120chat", "7601": "\u0120worker", "7602": "\u0120mainly", "7603": "\u0120racial", "7604": "quarters", "7605": "\u0120Coast", "7606": "\u0120Viet", "7607": "month", "7608": "\u0120pounds", "7609": "\u0120150", "7610": "\u0120Call", "7611": "\u0120portion", "7612": "\u0120afraid", "7613": "\u0120inspir", "7614": "\u0120Ah", "7615": "\u0120bes", "7616": "\u0120defence", "7617": "\u0120Eastern", "7618": "\u0120Tony", "7619": "\u0120tracks", "7620": "\u0120busy", "7621": "\u0120grant", "7622": "\u0120shit", "7623": "\u0120intense", "7624": "\u0120Series", "7625": "\u0120LGBT", "7626": "orne", "7627": "\u0120Still", "7628": "mann", "7629": "athy", "7630": "\u0120funny", "7631": "\u0120apolog", "7632": "\u0120surgery", "7633": "\u0120Moscow", "7634": "\u0120Coll", "7635": "\u0120possession", "7636": "\u0120prominent", "7637": "\u0120Mars", "7638": "\u0120comic", "7639": "\u0120Ger", "7640": "ashes", "7641": "97", "7642": "ules", "7643": "\u0120Ray", "7644": "\u0120thin", "7645": "\u0120engineering", "7646": "\u0120troub", "7647": "\u0120Kurd", "7648": "this", "7649": "\u0120processes", "7650": "\u0120Nation", "7651": "fall", "7652": "\u0120Kent", "7653": "\u0120Come", "7654": "\u0120entit", "7655": "\u0120\u00e2\u0122\u013b", "7656": "\u0120unusual", "7657": "raph", "7658": "etary", "7659": "\u0120describes", "7660": "da", "7661": "world", "7662": "96", "7663": "\u0120resulted", "7664": "\u0120dim", "7665": "\u0120emerged", "7666": "\u0120taxp", "7667": "\u0120gall", "7668": "iler", "7669": "\u0120400", "7670": "\u0120propag", "7671": "\u0120Iowa", "7672": "\u0120Oregon", "7673": "\u0120coordin", "7674": "\u0120corruption", "7675": "\u0120stations", "7676": "\u0120Invest", "7677": "ye", "7678": "\u0120fought", "7679": "\u0120AD", "7680": "\u0120brut", "7681": "\u0120extension", "7682": "ref", "7683": "\u0120blind", "7684": "\u0120adopted", "7685": "prise", "7686": "\u0120compete", "7687": "\u0120recru", "7688": "\u0120Zealand", "7689": "\u0120hadn", "7690": "Pr", "7691": "\u0120mail", "7692": "\u0120everywhere", "7693": "\u0120Balt", "7694": "\u0120crypt", "7695": "Rec", "7696": "Col", "7697": "Mean", "7698": "herent", "7699": "icate", "7700": "\u0120Ali", "7701": "\u0120contracts", "7702": "front", "7703": "\u0120Lo", "7704": "\u0120neuro", "7705": "\u0120Dead", "7706": "\u0120Rick", "7707": "\u0120feelings", "7708": "\u0120firms", "7709": "idelines", "7710": "\u00e2\u0122\u013b,", "7711": "\u0120minority", "7712": "\u0120spr", "7713": "cles", "7714": "HA", "7715": "\u0120advertising", "7716": "\u0120rarely", "7717": "\u0120discipl", "7718": "making", "7719": "\u0120Northern", "7720": "\u0120sanctions", "7721": "\u0120Veg", "7722": "scape", "7723": "\u0120Philadelphia", "7724": "upid", "7725": "\u0120cameras", "7726": "\u0120explicit", "7727": "\u0120strict", "7728": "viously", "7729": "log", "7730": "\u0120enorm", "7731": "\u0120finance", "7732": "gun", "7733": "\u0120cited", "7734": "ifies", "7735": "\u0120Before", "7736": "\u0120shortly", "7737": "tes", "7738": "UL", "7739": "\u0120Policy", "7740": "\u0120expectations", "7741": "\u0120implementation", "7742": "ogen", "7743": "\u0120recip", "7744": "cling", "7745": "\u0120Greek", "7746": "\u0120thick", "7747": "\u0120thousand", "7748": "antic", "7749": "\u0120Mu", "7750": "istent", "7751": "\u0120loud", "7752": "\u0120affili", "7753": "urrent", "7754": "orough", "7755": "\u0120Navy", "7756": "\u0120inev", "7757": "rell", "7758": "cus", "7759": "\u0120photograph", "7760": "\u0120medium", "7761": "azz", "7762": "\u0120Hom", "7763": "\u0120Wisconsin", "7764": "\u0120scenario", "7765": "\u0120Food", "7766": "\u0120Live", "7767": "\u0120sup", "7768": "ilton", "7769": "\u0120plug", "7770": "\u0120veget", "7771": "\u0120ho", "7772": "\u0120visible", "7773": "LC", "7774": "\u0120lights", "7775": "\u0120creates", "7776": "\u0120priority", "7777": "\u0120ven", "7778": "\u0120bridge", "7779": "eland", "7780": "\u0120obst", "7781": "inking", "7782": "ATE", "7783": "\u0120agric", "7784": "\u0120permission", "7785": "\u0120Foot", "7786": "\u0120algorith", "7787": "izon", "7788": "Co", "7789": "elect", "7790": "\u0120participate", "7791": "aska", "7792": "\u0120wing", "7793": "who", "7794": "asion", "7795": "\u0120browser", "7796": "\u0120Global", "7797": "\u0120tag", "7798": "\u0120Ol", "7799": "\u0120Has", "7800": "\u0120mel", "7801": "\u0120acceler", "7802": "###", "7803": "\u0120dozens", "7804": "\u0120Kingdom", "7805": "\u0120historic", "7806": "\u0120computers", "7807": "\u0120laid", "7808": "\u0120basketball", "7809": "een", "7810": "\u0120losses", "7811": "text", "7812": "\u0120Saf", "7813": "\u0120Ash", "7814": "ogether", "7815": "\u0120unw", "7816": "::", "7817": "\u0120tor", "7818": "\u0120Amendment", "7819": "Mar", "7820": "\u0120strikes", "7821": "\u0120principle", "7822": "\u0120Development", "7823": "\u0120formal", "7824": "EP", "7825": "igen", "7826": "\u0120scoring", "7827": "76", "7828": "obs", "7829": "athered", "7830": "\u012044", "7831": "\u0120counsel", "7832": "found", "7833": "++", "7834": "\u0120shock", "7835": "\u0120wonderful", "7836": "\u0120SP", "7837": "\u0120behalf", "7838": "abs", "7839": "\u0120uncom", "7840": "profit", "7841": "enth", "7842": "\u0120interface", "7843": "\u0120establishment", "7844": "\u0120toler", "7845": "\u0120Henry", "7846": "\u0120Greg", "7847": "amber", "7848": "car", "7849": "\u0120Major", "7850": "\u0120Thus", "7851": "jo", "7852": "Us", "7853": "\u0120gained", "7854": "\u0120fee", "7855": "lete", "7856": "\u0120founded", "7857": "etime", "7858": "\u0120foundation", "7859": "she", "7860": "\u0120ESP", "7861": "ilipp", "7862": "\u0120clubs", "7863": "\u0120cannabis", "7864": "\u0120ju", "7865": "54", "7866": "52", "7867": "\u0120airport", "7868": "\u0120Key", "7869": "aus", "7870": "ystem", "7871": "\u0120borrow", "7872": "weet", "7873": "olis", "7874": "BO", "7875": "\u0120manufacturing", "7876": "\u0120rely", "7877": "\u0120Hit", "7878": "\u0120Pay", "7879": "uer", "7880": "\u0120Alabama", "7881": "\u0120genuine", "7882": "\u0120Royal", "7883": "rators", "7884": "Before", "7885": "\u0120component", "7886": "\u0120ridic", "7887": "osexual", "7888": "\u0120wheel", "7889": "rative", "7890": "\u0120Oak", "7891": "\u0120journalist", "7892": "\u0120relief", "7893": "\u0120saved", "7894": "bell", "7895": "51", "7896": "\u0120hole", "7897": "\u0120yield", "7898": "\u0120headed", "7899": "\u0120cyber", "7900": "\u0120Moh", "7901": "ependent", "7902": "\u0120gift", "7903": "\u0120fault", "7904": "\u0120withdraw", "7905": "Ne", "7906": "\u0120indicate", "7907": "\u0120drawing", "7908": "\u0120uniform", "7909": "umer", "7910": "\u0120Rand", "7911": "arlier", "7912": "\u0120stable", "7913": "\u0120ships", "7914": "\u0120->", "7915": "\u0120banned", "7916": "\u0120Mid", "7917": "\u0120footage", "7918": "Meanwhile", "7919": "\u0120doors", "7920": "rous", "7921": "lan", "7922": "\u0120recognized", "7923": "\u01201960", "7924": "\u0120containing", "7925": "pread", "7926": "400", "7927": "\u0120FC", "7928": "\u0120Vis", "7929": "\u0120river", "7930": "mes", "7931": "\u0120struggling", "7932": "ami", "7933": "Sub", "7934": "ba", "7935": "\u0120spark", "7936": "\u0120Academy", "7937": "\u0120walls", "7938": "\u0120achieved", "7939": "opher", "7940": "ounced", "7941": "\u0120neighb", "7942": "\u0120plate", "7943": "\u0120edition", "7944": "\u0120HT", "7945": "portion", "7946": "mate", "7947": "\u0120movements", "7948": "\u0120deliber", "7949": "uce", "7950": "teen", "7951": "Post", "7952": "\u0120sharp", "7953": "\u0120AS", "7954": "\u0120Snow", "7955": "ulating", "7956": "\u0120stab", "7957": "\u0120Three", "7958": "\u0120episodes", "7959": "\u0120neutral", "7960": "\u0120Premier", "7961": "\u0120Ret", "7962": "\u0120Fund", "7963": "\u0120exception", "7964": "etts", "7965": "\u0120producer", "7966": "\u0120Fred", "7967": "\u0120destruction", "7968": "\u01201998", "7969": "oured", "7970": "\u0120beliefs", "7971": "\u012047", "7972": "\u0120Review", "7973": "\u0120legend", "7974": "\u0120pump", "7975": "\u0120McG", "7976": "\u0120backed", "7977": "\u0120liked", "7978": "\u0120hired", "7979": "idespread", "7980": "cription", "7981": "\u0120roles", "7982": "\u0120languages", "7983": "\u0120profession", "7984": "\u0120entering", "7985": "osa", "7986": "\u0120VR", "7987": "\u0120interviews", "7988": "\u0120hang", "7989": "iel", "7990": "isp", "7991": "\u0120tox", "7992": "\u0120philosophy", "7993": "eman", "7994": "\u0120Administration", "7995": "\u0120arrange", "7996": "\u0120Kir", "7997": "oen", "7998": "interest", "7999": "\u0120flaw", "8000": "\u0120Nob", "8001": "Those", "8002": "sylv", "8003": "imore", "8004": "\u0120stadium", "8005": "\u0120Atlanta", "8006": "\u0120Jac", "8007": "\u0120reduction", "8008": "\u0120dinner", "8009": "burgh", "8010": "\u0120bath", "8011": "\u0120Report", "8012": "uper", "8013": "\u0120magn", "8014": "\u0120Turkish", "8015": "iti", "8016": "\u0120aver", "8017": "\u0120finger", "8018": "\u0120Note", "8019": "\u0120Conference", "8020": "\u0120tackle", "8021": "\u0120cha", "8022": "\u0120gonna", "8023": "\u0120Diego", "8024": "\u0120Point", "8025": "\u0120crop", "8026": "\u0120Centre", "8027": "\u0120farmers", "8028": "\u0120Manchester", "8029": "\u0120nominee", "8030": "\u012041", "8031": "\u0120Arm", "8032": "aching", "8033": "\u0120Jason", "8034": "\u0120barely", "8035": "ATO", "8036": "\u0120structures", "8037": "\u0120contained", "8038": "\u0120synt", "8039": "\u0120Ott", "8040": "\u0120delivery", "8041": "ta", "8042": "%,", "8043": "\u0120processing", "8044": "\u0120discrimination", "8045": "\u0120convin", "8046": "\u0120incent", "8047": "riers", "8048": "\u0120Fair", "8049": "erved", "8050": "RS", "8051": "53", "8052": "then", "8053": "\u0120Data", "8054": "ca", "8055": "ja", "8056": "abinet", "8057": "\u0120intellectual", "8058": "Ed", "8059": "\u0120Radio", "8060": "amsung", "8061": "\u012046", "8062": "\u0120Bry", "8063": "\u0120OK", "8064": "\u0120Field", "8065": "\u0120Did", "8066": "\u0120upset", "8067": "\u0120Perhaps", "8068": "Me", "8069": "\u0120Education", "8070": "sylvania", "8071": "away", "8072": "\u0120Mir", "8073": "President", "8074": "\u0120challenging", "8075": "rik", "8076": "\u0120proven", "8077": "\u0120restrictions", "8078": "iy", "8079": "\u0120forever", "8080": "https", "8081": "olen", "8082": "\u0120electronic", "8083": "\u0120hitting", "8084": "\u0120Hay", "8085": "\u0120euro", "8086": "ho", "8087": "\u0120unex", "8088": "\u0120reviews", "8089": "\u0120Christians", "8090": "\u012043", "8091": "\u0120NC", "8092": "\u0120convicted", "8093": "Star", "8094": "\u0120illness", "8095": "\u0120smooth", "8096": "page", "8097": "Dav", "8098": "\u0120Hor", "8099": "\u0120retired", "8100": "\u0120indicated", "8101": "usive", "8102": "\u0120ham", "8103": "\u0120producing", "8104": "\u0120About", "8105": "\u0120Harry", "8106": "\u0120rapidly", "8107": "\u0120rose", "8108": "\u0120hide", "8109": "\u0120corporations", "8110": "fr", "8111": "\u0120ocean", "8112": "\u0120Rus", "8113": "aying", "8114": "owing", "8115": "\u0120listening", "8116": "\u0120Reuters", "8117": "\u0120UFC", "8118": "\u0120Sat", "8119": "\u0120technique", "8120": "\u0120mo", "8121": "yard", "8122": "sels", "8123": "\u0120loyal", "8124": "\u0120Nic", "8125": "\u0120Pen", "8126": "\u0120Mean", "8127": "lessly", "8128": "\u0120robot", "8129": "\u0120notion", "8130": "\u0120begun", "8131": "\u0120util", "8132": "\u0120Fed", "8133": "\u0120recognition", "8134": "ouver", "8135": "engers", "8136": "\u0120perpet", "8137": "\u0120association", "8138": "\u0120milk", "8139": "\u0120asks", "8140": "87", "8141": "\u0120websites", "8142": "\u0120ren", "8143": "\u0120description", "8144": "\u0120Pack", "8145": "inf", "8146": "\u0120tickets", "8147": "achus", "8148": "\u0120flash", "8149": "\u0120suggesting", "8150": "enny", "8151": "\u0120Judge", "8152": "\u0120exclusive", "8153": "\u0120reaching", "8154": "\u0120bra", "8155": "\u0120prepare", "8156": "\u0120Kansas", "8157": "Who", "8158": "ione", "8159": "\u0120bail", "8160": "\u0120frag", "8161": "\u0120progressive", "8162": "imm", "8163": "\u0120exceed", "8164": "\u0120equally", "8165": "\u0120Hard", "8166": "\u0120hardly", "8167": "\u0120widespread", "8168": "\u0120ABC", "8169": "\u0120campaigns", "8170": "\u0120Mayor", "8171": "\u0120contribute", "8172": "udes", "8173": "ologists", "8174": "\u0120branch", "8175": "Look", "8176": "\u0120Rose", "8177": "\u0120grass", "8178": "\u0120initiative", "8179": "\u0120Market", "8180": "\u0120ethnic", "8181": "\u0120external", "8182": "ikes", "8183": "\u0120Circ", "8184": "uma", "8185": "rient", "8186": "\u0120sensitive", "8187": "\u0120practical", "8188": "usted", "8189": "elf", "8190": "\u0120unclear", "8191": "\u0120normally", "8192": "Ref", "8193": "\u0120representative", "8194": "pat", "8195": "bec", "8196": "ls", "8197": "thon", "8198": "\u0120welf", "8199": "\u0120Full", "8200": "\u0120reducing", "8201": "appy", "8202": "lad", "8203": "\u0120friendly", "8204": "\u0120carefully", "8205": "\u0120Arabia", "8206": "\u0120Ref", "8207": "\u0120Ly", "8208": "89", "8209": "PM", "8210": "\u0120Luc", "8211": "\u0120racist", "8212": "\u0120invent", "8213": "rical", "8214": "ouch", "8215": "PG", "8216": "\u0120CO", "8217": "\u0120Next", "8218": "\u0120respectively", "8219": "senal", "8220": "rator", "8221": "\u0120tail", "8222": "\u0120McCain", "8223": "\u0120Bernie", "8224": "ancouver", "8225": "\u0120overwhelming", "8226": "\u0120viewers", "8227": "\u0120Beach", "8228": "stract", "8229": "\u0120welfare", "8230": "arrass", "8231": "\u0120Further", "8232": "\u0120convinced", "8233": "UN", "8234": "\u0120smoke", "8235": "umes", "8236": "\u0120collapse", "8237": "\u0120involvement", "8238": "\u0120Lind", "8239": "\u0120thrown", "8240": "pload", "8241": "\u0120connections", "8242": "heast", "8243": "\u0120terrorists", "8244": "\u0120Battle", "8245": "\u0120strategic", "8246": "\u0120hook", "8247": "\u0120recover", "8248": "\u0120Latin", "8249": "omething", "8250": "igrant", "8251": "\u0120Ont", "8252": "\u0120wine", "8253": "Mc", "8254": "inois", "8255": "\u0120Music", "8256": "rolled", "8257": "\u0120minds", "8258": "\u0120vital", "8259": "\u0120settlement", "8260": "\u0120statistics", "8261": "\u0120lists", "8262": "\u0120vary", "8263": "\u0120featuring", "8264": "\u0120ESPN", "8265": "ecut", "8266": "achusetts", "8267": "\u0120Sir", "8268": "\u0120behaviour", "8269": "\u0120independence", "8270": "\u0120Dig", "8271": "worth", "8272": "\u0120fantasy", "8273": "\u0120devast", "8274": "ester", "8275": "nedy", "8276": "core", "8277": "uties", "8278": "\u0120invited", "8279": "\u0120complaints", "8280": "\u0120joining", "8281": "\u0120scores", "8282": "\u0120fiscal", "8283": "\u0120deeper", "8284": "dem", "8285": "\u0120Pennsylvania", "8286": "ifest", "8287": "\u0120steal", "8288": "\u0120anger", "8289": "\u0120deputy", "8290": "\u0120elig", "8291": "\u0120wars", "8292": "\u0120Square", "8293": "\u0120investigate", "8294": "\u0120Tenn", "8295": "\u0120Town", "8296": "\u0120sugar", "8297": "\u0120constitutional", "8298": "\u0120III", "8299": "\u0120scholars", "8300": "\u0120Pit", "8301": "\u0120iOS", "8302": "\u0120anybody", "8303": "\u0120subjects", "8304": "\u0120AND", "8305": "\u0120array", "8306": "\u0120alien", "8307": "bn", "8308": "FA", "8309": "\u0120Ult", "8310": "\u0120Gov", "8311": "\u0120lobby", "8312": "\u0120ownership", "8313": "\u0120framework", "8314": "\u0120unemployment", "8315": "\u0120Division", "8316": "\u0120transgender", "8317": "\u0120SS", "8318": "\u0120improvements", "8319": "\u0120menu", "8320": "\u0120peak", "8321": "Back", "8322": "\u0120screens", "8323": "ihad", "8324": "\u0120inject", "8325": "\u0120luck", "8326": "iversary", "8327": "\u0120define", "8328": "\u0120tasks", "8329": "\u0120Xbox", "8330": "\u0120democratic", "8331": "\u0120scandal", "8332": "icking", "8333": "\u0120jury", "8334": "acon", "8335": "\u0120Anton", "8336": "\u0120Ministry", "8337": "Che", "8338": "\u0120cos", "8339": "\u0120comprehens", "8340": "osit", "8341": "\u0120Kat", "8342": "\u0120Es", "8343": "\u0120discovery", "8344": "unior", "8345": "\u0120register", "8346": "agg", "8347": "\u0120casual", "8348": "\u0120remem", "8349": "\u0120citizen", "8350": "\u0120fab", "8351": "RI", "8352": "Sm", "8353": "Under", "8354": "\u0120roads", "8355": "\u0120disagree", "8356": "\u0120failing", "8357": "\u0120Never", "8358": "\u0120Little", "8359": "\u0120Jay", "8360": "\u0120dynamic", "8361": "\u0120serves", "8362": "\u0120Cameron", "8363": "\u0120Brother", "8364": "\u0120Mah", "8365": "\u0120testim", "8366": "\u0120gathered", "8367": "\u0120Stone", "8368": "\u0120Information", "8369": "\u0120soph", "8370": "oding", "8371": "\u0120implemented", "8372": "\u0120controversy", "8373": "\u0120collective", "8374": "\u0120trained", "8375": "anna", "8376": "\u0120NSA", "8377": "\u0120neighbour", "8378": "\u0120fears", "8379": "leveland", "8380": "\u0120samples", "8381": "\u0120fiction", "8382": "\u0120prosec", "8383": "\u0120estimate", "8384": "\u0120Community", "8385": "\u0120Ice", "8386": "\u0120Medical", "8387": "\u01201997", "8388": "\u0120Philipp", "8389": "\u0120referring", "8390": "\u0120tip", "8391": "\u0120captain", "8392": "Will", "8393": "\u01201996", "8394": "\u0120spaces", "8395": "69", "8396": "cific", "8397": "\u0120trem", "8398": "\u0120Walker", "8399": "\u0120versus", "8400": "\u0120legs", "8401": "\u0120Santa", "8402": "\u0120temporary", "8403": "PC", "8404": "\u0120noise", "8405": "'.", "8406": "\u0120HD", "8407": "\u0120overt", "8408": "\u0120incorpor", "8409": "\u0120tone", "8410": "\u0120visitors", "8411": "\u0120reven", "8412": "\u0120civilians", "8413": "\u0120wages", "8414": "\u0120hypot", "8415": "aka", "8416": "\u0120sin", "8417": "\u0120remarks", "8418": "\u0120awareness", "8419": "\u0120ON", "8420": "\u0120Spring", "8421": "\u0120recommended", "8422": "\u0120stupid", "8423": "\u0120Allen", "8424": "\u0120heading", "8425": "\u0120handful", "8426": "umin", "8427": "\u0120regulation", "8428": "icket", "8429": "\u0120Action", "8430": "\u0120Core", "8431": "\u0120platforms", "8432": "\u0120accus", "8433": "\u0120Anthony", "8434": "mad", "8435": "\u0120affairs", "8436": "gener", "8437": "\u0120touchdown", "8438": "\u0120rural", "8439": "\u0120attacking", "8440": "\u0120extend", "8441": "\u0120ultimate", "8442": "\u0120attached", "8443": "\u0120Vegas", "8444": "\u0120discussions", "8445": "\u0120Ren", "8446": "\u0120horse", "8447": "\u0120Brew", "8448": "\u0120reprodu", "8449": "\u0120genetic", "8450": "\u0120expanded", "8451": "\u0120attempting", "8452": "phones", "8453": "\u0120Matthew", "8454": "\u0120races", "8455": "including", "8456": "iry", "8457": "\u0120Queen", "8458": "\u0120raw", "8459": "\u0120ignore", "8460": "\u0120Columbia", "8461": "serv", "8462": "\u0120Pent", "8463": "\u0120Guardian", "8464": "hour", "8465": "\u0120Cook", "8466": "\u0120iP", "8467": "itionally", "8468": "\u0120gear", "8469": "\u0120symptoms", "8470": "\u0120Patrick", "8471": "\u0120suffer", "8472": "\u0120settings", "8473": "\u0120Make", "8474": "alling", "8475": "\u0120salary", "8476": "case", "8477": "\u0120licens", "8478": "mary", "8479": "GO", "8480": "\u0120tweeted", "8481": "angel", "8482": "\u0120publication", "8483": "\u0120brill", "8484": "\u0120factory", "8485": "\u0120suspected", "8486": "\u0120purchased", "8487": "aret", "8488": "\u0120intervention", "8489": "\u0120eastern", "8490": "\u0120holiday", "8491": "type", "8492": "2014", "8493": "\u0120theat", "8494": "About", "8495": "\u0120displ", "8496": "esh", "8497": "\u0120ranked", "8498": "\u0120neck", "8499": "\u0120Conservative", "8500": "\u0120Austin", "8501": "\u0120Museum", "8502": "ective", "8503": "\u0120Roy", "8504": "\")", "8505": "\u0120cro", "8506": "\u0120Budd", "8507": "Sen", "8508": "\u0120enormous", "8509": "###", "8510": "intendo", "8511": "\u0120cogn", "8512": "\u0120logic", "8513": "ultural", "8514": "ictions", "8515": "\u0120improvement", "8516": "\u0120API", "8517": "\u0120viewed", "8518": "\u0120ingred", "8519": "\u0120entertainment", "8520": "Ass", "8521": "\u0120legitimate", "8522": "\u0120Professor", "8523": "ommod", "8524": "\u0120presum", "8525": "\u0120Albert", "8526": "\u0120Massachusetts", "8527": "\u0120Ball", "8528": "\u01202019", "8529": "\u0120www", "8530": "News", "8531": "\u0120actors", "8532": "\u0120substantial", "8533": "\u0120humanity", "8534": "\u0120involves", "8535": "\u0120resource", "8536": "arms", "8537": "\u0120brothers", "8538": "\u0120liquid", "8539": "\u0120rational", "8540": "\u0120seemingly", "8541": "\u0120sorry", "8542": "\u0120layer", "8543": "\u0120loans", "8544": "\u0120rook", "8545": "\u0120investigating", "8546": "\u0120absence", "8547": "\u0120providers", "8548": "\u0120tomorrow", "8549": "\u0120fallen", "8550": "\u0120bureau", "8551": "\u0120grounds", "8552": "\u0120coaches", "8553": "\u0120stake", "8554": "\u0120resign", "8555": "\u0120outs", "8556": "rec", "8557": "\u0120advocates", "8558": "\u0120Ho", "8559": "\u0120\u00e2\u0124\u00ac", "8560": "RC", "8561": "\u0120investigators", "8562": "\u0120conspiracy", "8563": "Where", "8564": "\u0120medicine", "8565": "\u0120dramatic", "8566": "\u0120fulf", "8567": "\u0120monitor", "8568": "\u0120Chair", "8569": "EST", "8570": "repre", "8571": "\u0120overs", "8572": "\u0120chapter", "8573": "\u0120Season", "8574": "\u0120coc", "8575": "oval", "8576": "GE", "8577": "lah", "8578": ".-", "8579": "\u0120activist", "8580": "plete", "8581": "\u0120boat", "8582": "\u0120Check", "8583": "\u0120Control", "8584": "\u0120gam", "8585": "\u0120jur", "8586": "\u0120suspended", "8587": "\u0120papers", "8588": "Script", "8589": "\u0120Greece", "8590": "\u0120opinions", "8591": "\u0120Such", "8592": "\u0120Ross", "8593": "\u0120missile", "8594": "\u0120Golden", "8595": "\u0120celeb", "8596": "\u0120Revolution", "8597": "ped", "8598": "2016", "8599": "\u0120Ra", "8600": "\u0120Head", "8601": "\u0120stayed", "8602": "\u0120covers", "8603": "iverpool", "8604": "\u0120diversity", "8605": "otype", "8606": "\u0120bars", "8607": "Part", "8608": "Russ", "8609": "\u0120embarrass", "8610": "xit", "8611": "\u0120offices", "8612": "\u0120Acc", "8613": "rets", "8614": "ourse", "8615": "claim", "8616": "\u0120Pot", "8617": "\u0120Iranian", "8618": "\u0120disrupt", "8619": "cover", "8620": "\u0120WW", "8621": "\u0120preced", "8622": "\u0120poly", "8623": "\u0120forest", "8624": "wered", "8625": "\u0120careful", "8626": "reprene", "8627": "vard", "8628": "ila", "8629": "\u0120amid", "8630": "\u0120History", "8631": "\u0120mad", "8632": "hot", "8633": "quest", "8634": "\u0120Hospital", "8635": "isting", "8636": "ammed", "8637": "\u0120Ale", "8638": "\u0120authent", "8639": "\u0120Illinois", "8640": "\u0120CBS", "8641": "\u0120Sony", "8642": "uction", "8643": "79", "8644": "geon", "8645": "Related", "8646": "rine", "8647": "\u0120transportation", "8648": "\u0120Vancouver", "8649": "bi", "8650": "\u0120Gaza", "8651": "\u0120handed", "8652": "\u0120protocol", "8653": "\u0120consistently", "8654": "\u0120mountain", "8655": "\u012052", "8656": "\u0120Ap", "8657": "\u0120reads", "8658": "\u0120Stat", "8659": "\u0120pref", "8660": "\u0120clothes", "8661": "\u0120attitude", "8662": "iability", "8663": "\u0120Share", "8664": "\u0120Kennedy", "8665": "\u0120porn", "8666": "\u0120princip", "8667": "\u0120Freedom", "8668": "ses", "8669": "\u0120depends", "8670": "\u0120mining", "8671": "des", "8672": "\u0120petition", "8673": "\u0120noting", "8674": "\u0120warrant", "8675": "\u0120conce", "8676": "\u0120colors", "8677": "\u0120lowest", "8678": "\u0120Anderson", "8679": "\u0120Tri", "8680": "\u0120addressed", "8681": "\u0120Family", "8682": "72", "8683": "unes", "8684": "Ste", "8685": "\u0120entr", "8686": "\u0120Stadium", "8687": "xx", "8688": "\u0120throwing", "8689": "\u0120je", "8690": "74", "8691": "\u0120fruit", "8692": "\u0120virtually", "8693": "!)", "8694": "\u0120stone", "8695": "\u0120foss", "8696": "\u0120guarantee", "8697": "\u0120referend", "8698": "inch", "8699": "Both", "8700": "??", "8701": "\u0120speaks", "8702": "\u0120Baltimore", "8703": "\u0120steel", "8704": "\u0120closing", "8705": "itting", "8706": "\u0120reader", "8707": "dri", "8708": "FF", "8709": "\u0120buff", "8710": "\u0120personality", "8711": "\u0120Cre", "8712": "\u0120appreciate", "8713": "\u0120Iraqi", "8714": "\u0120surf", "8715": "\u0120Environment", "8716": "\u0120nerv", "8717": "iences", "8718": "maker", "8719": "keep", "8720": "\u0120handling", "8721": "\u0120profits", "8722": "ordon", "8723": "\u0120grav", "8724": "\u0120km", "8725": "\u0120marks", "8726": "low", "8727": "\u0120tries", "8728": "\u0120Broad", "8729": "\u0120contributions", "8730": "\u0120Engine", "8731": "ropri", "8732": "\u0120spiritual", "8733": "\u0120conversations", "8734": "\u0120fantastic", "8735": "\u0120Tro", "8736": "zed", "8737": "\u0120lands", "8738": "\u0120console", "8739": "\u0120horror", "8740": "ppers", "8741": "\".[", "8742": "icity", "8743": "\u0120gains", "8744": "\u0120covering", "8745": "\u0120tea", "8746": "ivals", "8747": "\u0120Harris", "8748": "Her", "8749": "\u0120hint", "8750": "\u0120astron", "8751": "aval", "8752": "\u0120shoulder", "8753": "scale", "8754": "\u0120wrest", "8755": "\u0120guest", "8756": "\u0120Ext", "8757": "\u0120accommod", "8758": "uted", "8759": "uits", "8760": "\u0120depression", "8761": "\u0120CA", "8762": "\u0120_", "8763": "\u0120Lewis", "8764": "\u0120lucky", "8765": "\u0120Bang", "8766": "\u0120encouraged", "8767": "flix", "8768": "amac", "8769": "\u0120judges", "8770": "\u0120incidents", "8771": "\u0120Cleveland", "8772": "\u0120drew", "8773": "\u0120subsequent", "8774": "\u0120spoken", "8775": "ira", "8776": "\u0120Howard", "8777": "annels", "8778": "\u0120Bad", "8779": "\u0120brown", "8780": "\u0120bacter", "8781": "Please", "8782": "ixed", "8783": "\u0120rhet", "8784": "\u0120ranks", "8785": "\u0120Getty", "8786": "\u0120photograp", "8787": "\u0120inflation", "8788": "\u0120inner", "8789": "\u0120Intelligence", "8790": "\u0120Po", "8791": "mat", "8792": "\u0120Ba", "8793": "\u0120maps", "8794": "abeth", "8795": "\u0120Patri", "8796": "ported", "8797": "ijing", "8798": "plate", "8799": "\u0120divided", "8800": "\u01201995", "8801": "\u0120NATO", "8802": "\u0120paralle", "8803": "\u0120drama", "8804": "\u0120Mexican", "8805": "\u0120distributed", "8806": "\u0120gal", "8807": "\u0120innovation", "8808": "unicip", "8809": "\u0120cust", "8810": "\u0120Unfortunately", "8811": "\u0120premium", "8812": "\u0120voter", "8813": "\u0120permit", "8814": "\u0120revel", "8815": "\u0120Kong", "8816": "\u0120dance", "8817": "pled", "8818": "\u0120Las", "8819": "\u0120swing", "8820": "\u0120efficiency", "8821": "\u0120promises", "8822": "\u0120Indeed", "8823": "Note", "8824": "\u0120CH", "8825": "\u0120Which", "8826": "\u0120ballot", "8827": "\u012051", "8828": "eding", "8829": "pie", "8830": "\u0120Adv", "8831": "\u0120temperatures", "8832": "\u0120Samsung", "8833": "\u0120portray", "8834": "\u0120spokesperson", "8835": "\u0120locked", "8836": "\u0120lying", "8837": "\u0120improving", "8838": "800", "8839": "\u0120threw", "8840": "\u0120joy", "8841": "\u0120dump", "8842": "Art", "8843": "\u0120musical", "8844": "PP", "8845": "\u0120mistakes", "8846": "dated", "8847": "\u0120shout", "8848": "\u0120Start", "8849": "\u0120homeless", "8850": "conf", "8851": "\u0120replacement", "8852": "eries", "8853": "\u0120comedy", "8854": "\u0120checks", "8855": "\u0120Without", "8856": "\u0120Moon", "8857": "\u0120instrument", "8858": "ounce", "8859": "\u0120Connect", "8860": "\u0120acknowledged", "8861": "\u0120barrel", "8862": "\u0120responses", "8863": "\u0120protecting", "8864": "backs", "8865": "\u0120Det", "8866": "\u00c2\u0134", "8867": "heim", "8868": "\u0120silver", "8869": "\u0120copies", "8870": "\u0120les", "8871": "\u0120AC", "8872": "\u0120dad", "8873": "\u0120breaks", "8874": "\u0120Plus", "8875": "\u0120Buff", "8876": "\u0120commonly", "8877": "\u0120lets", "8878": "\u0120legacy", "8879": "itage", "8880": "\u0120mathem", "8881": "\u0120protein", "8882": "\u0120joke", "8883": "amacare", "8884": "erted", "8885": "arre", "8886": "\u0120passengers", "8887": "2015", "8888": "\u0120yellow", "8889": "\u0120Marvel", "8890": "hop", "8891": "\u0120naturally", "8892": "Your", "8893": "\u0120Scient", "8894": "\u0120nomination", "8895": "Source", "8896": "\u0120measured", "8897": "aping", "8898": "alia", "8899": "\u0120Use", "8900": "\u0120abandoned", "8901": "oded", "8902": "\u0120Prince", "8903": "\u0120studied", "8904": "\u0120Football", "8905": "helsea", "8906": "\u0120diverse", "8907": "argo", "8908": "\u0120acquired", "8909": "ieties", "8910": "\u0120Lyn", "8911": "Cons", "8912": "esty", "8913": "\u0120soil", "8914": "\u0120Marsh", "8915": "\u0120demonstrated", "8916": "\u0120blast", "8917": "\u0120rear", "8918": "\u0120funded", "8919": "\u0120headquarters", "8920": "hesis", "8921": "\u0120stolen", "8922": "inians", "8923": "\u0120scan", "8924": "\u0120counts", "8925": "\u0120tape", "8926": "\u0120partnership", "8927": "\u0120midfield", "8928": "\u0120NOT", "8929": "yo", "8930": "\u0120(\u00e2\u0122\u013e", "8931": "\u0120upgrade", "8932": "\u0120Cost", "8933": "\u0120Atlantic", "8934": "\u0120march", "8935": "\u0120grid", "8936": "\u0120ordinary", "8937": "\u0120Aud", "8938": "\u0120Nev", "8939": "\u0120rom", "8940": "aware", "8941": "\u0120literature", "8942": "\u0120plain", "8943": "\u0120stages", "8944": "\u0120\u00e2\u0122\u00a2", "8945": "high", "8946": "\u0120assert", "8947": "\u01201994", "8948": "\u0120AI", "8949": "\u0120helpful", "8950": "\u0120arrive", "8951": "\u0120exit", "8952": "\u0120scope", "8953": "\u0120falls", "8954": "dog", "8955": "yer", "8956": "\u0120ignored", "8957": "BM", "8958": "\u0120twenty", "8959": "eters", "8960": "\u0120Master", "8961": "\u0120clock", "8962": "\u0120compe", "8963": "inction", "8964": "\u0120virus", "8965": "\u0120Trib", "8966": "\u0120referendum", "8967": "\u0120inequ", "8968": "\u0120unions", "8969": "\u0120Does", "8970": "erg", "8971": "assador", "8972": "\u0120Gun", "8973": "\u0120conservatives", "8974": "\u0120rif", "8975": "\u0120symp", "8976": "\u0120festival", "8977": "\u0120shopping", "8978": "\u0120fro", "8979": "\u0120waters", "8980": "\u0120Pop", "8981": "\u0120capabilities", "8982": "\u0120Bron", "8983": "\u0120ax", "8984": "zing", "8985": "lahoma", "8986": "\u0120usage", "8987": "\u0120Hind", "8988": "iate", "8989": "\u0120Empire", "8990": "aeda", "8991": "\u0120Indiana", "8992": "iley", "8993": "\u0120transactions", "8994": "\u0120hoped", "8995": "VE", "8996": "\u0120distract", "8997": "\u0120Ast", "8998": "\u0120guitar", "8999": "\u0120Eag", "9000": "\u0120Abb", "9001": "\u0120sty", "9002": "\u0120ramp", "9003": "\u0120assessment", "9004": "ctic", "9005": "\u0120universities", "9006": "\u0120Dave", "9007": "\u0120moon", "9008": "\u0120monitoring", "9009": "ormal", "9010": "acket", "9011": "bridge", "9012": "Facebook", "9013": "\u0120representing", "9014": "\u0120ratio", "9015": "\u0120Death", "9016": "encing", "9017": "ught", "9018": "\u0120Prov", "9019": "\u0120conventional", "9020": "comes", "9021": "UST", "9022": "orge", "9023": "\u0120trave", "9024": "ington", "9025": "\u0120Set", "9026": "\u0120tracking", "9027": "door", "9028": "ntil", "9029": "\u0120Sometimes", "9030": "only", "9031": "shire", "9032": "\u0120Sus", "9033": "\u0120hung", "9034": "\u0120reliable", "9035": "\u0120tie", "9036": "\u0120proposals", "9037": "\u0120skept", "9038": "\u0120Hell", "9039": "\u0120replied", "9040": "\u0120Ros", "9041": "fund", "9042": "\u0120criticized", "9043": "uh", "9044": "\u0120appearances", "9045": "62", "9046": "ecutive", "9047": "\u0120Ha", "9048": "\u0120racism", "9049": "ela", "9050": "\u0120Lim", "9051": "\u0120insisted", "9052": "organ", "9053": "rimin", "9054": "\u0120introduction", "9055": "\u01202020", "9056": "\u0120appointed", "9057": "dney", "9058": "\u0120Bureau", "9059": "olph", "9060": "agic", "9061": "\u0120Pass", "9062": "cut", "9063": "Ke", "9064": "\u0120Line", "9065": "\u0120beauty", "9066": "\u0120concrete", "9067": "\u0120receiver", "9068": "\u0120supplies", "9069": "\u0120performing", "9070": "made", "9071": "\u0120bub", "9072": "\u0120exch", "9073": "rite", "9074": "\u0120visiting", "9075": "\u0120Technology", "9076": "63", "9077": "\u0120Denver", "9078": "ocument", "9079": "EE", "9080": "\u0120Jam", "9081": "omes", "9082": "\u0120Capt", "9083": "theless", "9084": "RL", "9085": "\u0120letting", "9086": "\u0120swim", "9087": "AND", "9088": "\u0120deficit", "9089": "\u0120classified", "9090": "\u0120Galaxy", "9091": "aga", "9092": "\u0120auto", "9093": "\u0120render", "9094": "\u0120absor", "9095": "\u0120Orig", "9096": "\u0120accomplish", "9097": "\u0120programme", "9098": "\u0120presidency", "9099": "HT", "9100": "crib", "9101": "61", "9102": "\u0120blocked", "9103": "\u0120Sweden", "9104": "archy", "9105": "\u0120dust", "9106": "\u0120Utah", "9107": "\u0120drove", "9108": "\u0120landscape", "9109": "\u0120cance", "9110": "\u0120Portland", "9111": "plus", "9112": "\u0120dismissed", "9113": "\u0120LA", "9114": "\u0120hyper", "9115": "\u0120abroad", "9116": "\u0120bonus", "9117": "\u0120Tour", "9118": "har", "9119": "\u0120sequence", "9120": "\u0120predicted", "9121": "\u0120senator", "9122": "\u00c2\u00b0", "9123": "\u0120Age", "9124": "\u0120domain", "9125": "\u0120Code", "9126": "\u0120ec", "9127": "\u0120museum", "9128": "\u0120Associated", "9129": "acco", "9130": "\u0120warn", "9131": "\u0120persons", "9132": "NS", "9133": "ji", "9134": "\u0120dub", "9135": "\u0120requested", "9136": "\u0120trigger", "9137": "\u0120Ontario", "9138": "\u0120hockey", "9139": "\u0120Corpor", "9140": "iano", "9141": "\u0120artific", "9142": "\u0120dates", "9143": "\u0120testimony", "9144": "\u0120centers", "9145": "\u00d0\u00bb", "9146": "\u0120rocket", "9147": "irts", "9148": "\u0120ves", "9149": "\u0120transit", "9150": "\u0120congressional", "9151": "\u0120entitled", "9152": "ultane", "9153": "\u0120spokeswoman", "9154": "\u0120Front", "9155": "\u0120Nintendo", "9156": "\u0120Alexander", "9157": "\u0120rescue", "9158": "\u0120Cooper", "9159": "mony", "9160": "\u0120assign", "9161": "\u0120Bon", "9162": "\u0120equality", "9163": "\u0120patch", "9164": "\u0120urged", "9165": "\u0120bread", "9166": "\u0120Olympic", "9167": "\u0120documentary", "9168": "\u0120veterans", "9169": "\u0120clar", "9170": "fol", "9171": "\u0120Wik", "9172": "\u0120\u00e2\u0122\u013f", "9173": "king", "9174": "pton", "9175": "\u0120recall", "9176": "\u0120populations", "9177": "\u0120Low", "9178": "\u0120breath", "9179": "Still", "9180": "600", "9181": "rooms", "9182": "\u0120whenever", "9183": "\u0120violation", "9184": "\u0120tactics", "9185": "\u0120wider", "9186": "ounding", "9187": "93", "9188": "\u0120targeting", "9189": "Yet", "9190": "through", "9191": "\u0120pursue", "9192": "92", "9193": "\u0120salt", "9194": "\">", "9195": "\u0120lean", "9196": "Are", "9197": "izabeth", "9198": "\u0120firing", "9199": "94", "9200": "\u0120Kar", "9201": "\u0120Mill", "9202": "\u0120acid", "9203": "inating", "9204": "\u0120mole", "9205": "isons", "9206": "\u0120restaurants", "9207": "\u0120compare", "9208": "fare", "9209": "Comp", "9210": "dy", "9211": "orous", "9212": "ennis", "9213": "\u0120employed", "9214": "\u0120Roberts", "9215": "\u0120contrad", "9216": "\u0120Bible", "9217": "\u0120politically", "9218": "aver", "9219": "\u0120phrase", "9220": "\u0120satellite", "9221": "\u0120Cro", "9222": "\u0120survival", "9223": "\u0120retirement", "9224": "\u0120banking", "9225": "\u0120Form", "9226": "\u0120brilliant", "9227": "\u0120Girl", "9228": "atar", "9229": "\u0120channels", "9230": "71", "9231": "\u0120servers", "9232": "73", "9233": "\u0120Beijing", "9234": "\u0120soccer", "9235": "trans", "9236": "\u0120Mach", "9237": "they", "9238": "\u0120burden", "9239": "\u0120introduce", "9240": "\u0120experiments", "9241": "enez", "9242": "\u0120prisoners", "9243": "rapped", "9244": "\u0120cig", "9245": "\u0120WH", "9246": "afe", "9247": "jud", "9248": "\u0120fighter", "9249": "\u0120scientist", "9250": "OK", "9251": "\u0120YOU", "9252": "usalem", "9253": "\u0120List", "9254": "\u0120submit", "9255": "\u0120approached", "9256": "\u0120Award", "9257": "\u0120monthly", "9258": "\u0120Liverpool", "9259": "\u0120designs", "9260": "\u0120representatives", "9261": "\u0120titled", "9262": "ordinary", "9263": "\u0120quote", "9264": "\u0120popularity", "9265": "olves", "9266": "\u0120abilities", "9267": "oenix", "9268": "\u0120cul", "9269": "\u0120PD", "9270": "\u0120membership", "9271": "\u0120investigations", "9272": "\u0120focusing", "9273": "\u0120bab", "9274": "mans", "9275": "\u0120hosp", "9276": "\u0120Bridge", "9277": "Though", "9278": "\u0120Maryland", "9279": "\u0120saving", "9280": "bow", "9281": "\u0120rush", "9282": "\u0120Governor", "9283": "\u0120shadow", "9284": "ouri", "9285": "\u0120Hur", "9286": "\u0120Base", "9287": "\u0120objective", "9288": "berry", "9289": "\u0120Ted", "9290": "erts", "9291": "ederation", "9292": "\u0120mit", "9293": "\u0120prepar", "9294": "\u0120tips", "9295": "\u0120Was", "9296": "ele", "9297": "emed", "9298": "\u0120pipeline", "9299": "David", "9300": "\u0120childhood", "9301": "\u0120ratings", "9302": "\u0120thorough", "9303": "\u0120entreprene", "9304": "enter", "9305": "ais", "9306": "\u0120Vill", "9307": "\u0120Dutch", "9308": "was", "9309": "break", "9310": "\u0120actively", "9311": "\u0120Harvard", "9312": "\u0120pig", "9313": "\u0120demanding", "9314": "\u0120loose", "9315": "asty", "9316": "\u0120unexpected", "9317": "\u0120smoking", "9318": "\u0120smell", "9319": "\u0120deny", "9320": "CO", "9321": "don", "9322": "\u0120universal", "9323": "ika", "9324": "\u0120forecast", "9325": "\u0120argues", "9326": "\u0120phenomenon", "9327": "\u0120overseas", "9328": "\u0120settled", "9329": "olds", "9330": "walk", "9331": "\u0120Beck", "9332": "\u0120generations", "9333": "\u0120weekly", "9334": "\u0120chicken", "9335": "\u0120preparing", "9336": "\u012095", "9337": "\u0120smartphone", "9338": "\u0120producers", "9339": "\u0120butt", "9340": "\u0120PA", "9341": "\u0120legislative", "9342": "\u0120anxiety", "9343": "\u0120Have", "9344": "\u0120innocent", "9345": "minute", "9346": "\u0120Click", "9347": "\u0120mortg", "9348": "\u0120celebrate", "9349": "\u0120Ur", "9350": "\u0120provision", "9351": "Dem", "9352": "\u0120DO", "9353": "\u0120keys", "9354": "\u0120mini", "9355": "\u0120shame", "9356": "\u0120arguing", "9357": "\u0120Justin", "9358": "\u0120Design", "9359": "held", "9360": "\u0120questioned", "9361": "\u0120forcing", "9362": "\u0120Cow", "9363": "\u0120Hop", "9364": "ompson", "9365": "agh", "9366": "\u00e2\u0136", "9367": "\u0120broader", "9368": "\u0120encounter", "9369": "mers", "9370": "SL", "9371": "\u0120flags", "9372": "\u0120fool", "9373": "Sim", "9374": "\u0120fur", "9375": "\u0120mac", "9376": "\u012053", "9377": "\u0120deadly", "9378": "\u0120reverse", "9379": "oz", "9380": "\u0120weigh", "9381": "\u0120Edward", "9382": "\u0120Among", "9383": "\u0120tens", "9384": "\u0120~", "9385": "\u0120mos", "9386": "\u0120wealthy", "9387": "\u0120Obamacare", "9388": "\u0120unpre", "9389": "\u0120tab", "9390": "\u0120maintained", "9391": "eals", "9392": "\u0120surely", "9393": "\u0120shield", "9394": "\u0120Prop", "9395": "ocolate", "9396": "oret", "9397": "\u0120secondary", "9398": "\u0120savings", "9399": "isa", "9400": "irlf", "9401": "aved", "9402": "\u0120roof", "9403": "\u0120stability", "9404": "\u0120civilian", "9405": "\u00c4\u0125", "9406": "elson", "9407": "\u0120Carter", "9408": "\u0120reveals", "9409": "mind", "9410": "\u0120alarm", "9411": "\u0120anniversary", "9412": "\u0120sorts", "9413": "\u0120Bra", "9414": "\u0120Ak", "9415": "vernment", "9416": "El", "9417": "\u0120tonight", "9418": "\u0120releases", "9419": "\u0120Hon", "9420": "\u0120rooms", "9421": "irlfriend", "9422": "\u0120Gulf", "9423": "\u0120outrage", "9424": "\u0120prosecutors", "9425": "\u0120Left", "9426": "inals", "9427": "\u0120disorder", "9428": "84", "9429": "\u0120wedd", "9430": "\u0120exha", "9431": "orious", "9432": "isk", "9433": "\u0120shr", "9434": "\u0120relax", "9435": "\u0120windows", "9436": "\u0120threatening", "9437": "\u0120differently", "9438": "\u0120harassment", "9439": "\u0120quoted", "9440": "\u0120healthcare", "9441": "\u0120submitted", "9442": "\u0120arbit", "9443": "\u0120lunch", "9444": "step", "9445": "pa", "9446": "\u0120Run", "9447": "\u0120reforms", "9448": "\u0120torture", "9449": "rection", "9450": "\u0120fate", "9451": "\u0120stored", "9452": "\u0120Belg", "9453": "\u0120okay", "9454": "\u0120propaganda", "9455": "\u0120spots", "9456": "\u0120instructions", "9457": "\u0120Vietnam", "9458": "\u0120sevent", "9459": "\u0120rounds", "9460": "\u0120odds", "9461": "itter", "9462": "\u01201992", "9463": "\u0120aer", "9464": "html", "9465": "tenance", "9466": "\u0120errors", "9467": "\u0120Oklahoma", "9468": "\u0120hydro", "9469": "icism", "9470": "GA", "9471": "\u0120delic", "9472": "ailed", "9473": "\u0120Liberal", "9474": "\u0120silence", "9475": "\u0120Graham", "9476": "\u0120Sab", "9477": "ois", "9478": "acts", "9479": "\u0120Warren", "9480": "\u0120graduate", "9481": "\u0120affordable", "9482": "\u0120circle", "9483": "sect", "9484": "\u0120Bloom", "9485": "\u0120cooperation", "9486": "\u0120picks", "9487": "\u0120sear", "9488": "itary", "9489": "\u0120Sarah", "9490": "aa", "9491": "\u0120Fall", "9492": "ested", "9493": "orship", "9494": "\u0120Expl", "9495": "\u0120striking", "9496": "\u0120puzz", "9497": "\u0120persu", "9498": "\u0120streaming", "9499": "\u0120comprehensive", "9500": "race", "9501": "\u0120importantly", "9502": "\u0120cow", "9503": "\u0120possess", "9504": "Watch", "9505": "\u0120fing", "9506": "\u0120execution", "9507": "\u0120Ruby", "9508": "lined", "9509": "\u0120intim", "9510": "\u0120struggled", "9511": "\u0120Som", "9512": "\u0120Person", "9513": "\u0120assass", "9514": "\u0120Silver", "9515": "\u0120Leader", "9516": "uten", "9517": "ahu", "9518": "\u0120gent", "9519": "\u0120Price", "9520": "Reuters", "9521": "Ty", "9522": "ishop", "9523": "\u0120deserve", "9524": "\u0120Jerusalem", "9525": "\u0120landing", "9526": "\u0120calm", "9527": "\u0120alter", "9528": "\u0120ceremony", "9529": "\u0120assumed", "9530": "\u0120demonstrate", "9531": "\u0120difficulty", "9532": "\u0120ages", "9533": "\u0120pron", "9534": "\u0120dying", "9535": "\u0120hal", "9536": "\u0120distingu", "9537": "asury", "9538": "\u0120stepped", "9539": "\u0120borders", "9540": "\u0120chest", "9541": "ethe", "9542": "\u0120Wolf", "9543": "\u0120Lt", "9544": "\u0120Bud", "9545": "\u0120adventure", "9546": "\u0120pointing", "9547": "bury", "9548": "ova", "9549": "\u0120waves", "9550": "\u0120kilomet", "9551": "essee", "9552": "atern", "9553": "ierce", "9554": "\u0120Netflix", "9555": "\u0120autonom", "9556": "\u0120Ten", "9557": "\u0120precisely", "9558": "\u0120architecture", "9559": "\u0120greatly", "9560": "\u0120promising", "9561": "\u0120consent", "9562": "\u0120consideration", "9563": "\u0120Deb", "9564": "\u0120drives", "9565": "\u0120dialogue", "9566": "\u0120Main", "9567": "\u0120tremend", "9568": "asant", "9569": "\u0120newsletter", "9570": "\u0120rookie", "9571": "\u0120awarded", "9572": "\u0120Meanwhile", "9573": "after", "9574": "\u0120repeat", "9575": "\u0120Story", "9576": "\u0120contribution", "9577": "\u0120Tele", "9578": "\u0120burning", "9579": "83", "9580": "iev", "9581": "party", "9582": "\u0120simultane", "9583": "\u0120Scottish", "9584": "\u0120Vice", "9585": "\u0120donations", "9586": "\u0120Indust", "9587": "akh", "9588": "\u0120interf", "9589": "itol", "9590": "\u0120Magic", "9591": "\u0120voices", "9592": "\u0120analyst", "9593": "\u0120Bruce", "9594": "\u0120Tech", "9595": "ceptions", "9596": "\u0120gif", "9597": "\u0120frequency", "9598": "\u0120Common",
[...]
