{"0": "<|endoftext|>", "1": "\u0100", "2": "\u0101", "3": "\u0102", "4": "\u0103", "5": "\u0104", "6": "\u0105", "7": "\u0106", "8": "\u0107", "9": "\u0108", "10": "\u0109", "11": "\u010a", "12": "\u010b", "13": "\u010c", "14": "\u010d", "15": "\u010e", "16": "\u010f", "17": "\u0110", "18": "\u0111", "19": "\u0112", "20": "\u0113", "21": "\u0114", "22": "\u0115", "23": "\u0116", "24": "\u0117", "25": "\u0118", "26": "\u0119", "27": "\u011a", "28": "\u011b", "29": "\u011c", "30": "\u011d", "31": "\u011e", "32": "\u011f", "33": "\u0120", "34": "!", "35": "\"", "36": "#", "37": "$", "38": "%", "39": "&", "40": "'", "41": "(", "42": ")", "43": "*", "44": "+", "45": ",", "46": "-", "47": ".", "48": "/", "49": "0", "50": "1", "51": "2", "52": "3", "53": "4", "54": "5", "55": "6", "56": "7", "57": "8", "58": "9", "59": ":", "60": ";", "61": "<", "62": "=", "63": ">", "64": "?", "65": "@", "66": "A", "67": "B", "68": "C", "69": "D", "70": "E", "71": "F", "72": "G", "73": "H", "74": "I", "75": "J", "76": "K", "77": "L", "78": "M", "79": "N", "80": "O", "81": "P", "82": "Q", "83": "R", "84": "S", "85": "T", "86": "U", "87": "V", "88": "W", "89": "X", "90": "Y", "91": "Z", "92": "[", "93": "\\", "94": "]", "95": "^", "96": "_", "97": "`", "98": "a", "99": "b", "100": "c", "101": "d", "102": "e", "103": "f", "104": "g", "105": "h", "106": "i", "107": "j", "108": "k", "109": "l", "110": "m", "111": "n", "112": "o", "113": "p", "114": "q", "115": "r", "116": "s", "117": "t", "118": "u", "119": "v", "120": "w", "121": "x", "122": "y", "123": "z", "124": "{", "125": "|", "126": "}", "127": "~", "128": "\u0121", "129": "\u0122", "130": "\u0123", "131": "\u0124", "132": "\u0125", "133": "\u0126", "134": "\u0127", "135": "\u0128", "136": "\u0129", "137": "\u012a", "138": "\u012b", "139": "\u012c", "140": "\u012d", "141": "\u012e", "142": "\u012f", "143": "\u0130", "144": "\u0131", "145": "\u0132", "146": "\u0133", "147": "\u0134", "148": "\u0135", "149": "\u0136", "150": "\u0137", "151": "\u0138", "152": "\u0139", "153": "\u013a", "154": "\u013b", "155": "\u013c", "156": "\u013d", "157": "\u013e", "158": "\u013f", "159": "\u0140", "160": "\u0141", "161": "\u0142", "162": "\u00a1", "163": "\u00a2", "164": "\u00a3", "165": "\u00a4", "166": "\u00a5", "167": "\u00a6", "168": "\u00a7", "169": "\u00a8", "170": "\u00a9", "171": "\u00aa", "172": "\u00ab", "173": "\u00ac", "174": "\u0143", "175": "\u00ae", "176": "\u00af", "177": "\u00b0", "178": "\u00b1", "179": "\u00b2", "180": "\u00b3", "181": "\u00b4", "182": "\u00b5", "183": "\u00b6", "184": "\u00b7", "185": "\u00b8", "186": "\u00b9", "187": "\u00ba", "188": "\u00bb", "189": "\u00bc", "190": "\u00bd", "191": "\u00be", "192": "\u00bf", "193": "\u00c0", "194": "\u00c1", "195": "\u00c2", "196": "\u00c3", "197": "\u00c4", "198": "\u00c5", "199": "\u00c6", "200": "\u00c7", "201": "\u00c8", "202": "\u00c9", "203": "\u00ca", "204": "\u00cb", "205": "\u00cc", "206": "\u00cd", "207": "\u00ce", "208": "\u00cf", "209": "\u00d0", "210": "\u00d1", "211": "\u00d2", "212": "\u00d3", "213": "\u00d4", "214": "\u00d5", "215": "\u00d6", "216": "\u00d7", "217": "\u00d8", "218": "\u00d9", "219": "\u00da", "220": "\u00db", "221": "\u00dc", "222": "\u00dd", "223": "\u00de", "224": "\u00df", "225": "\u00e0", "226": "\u00e1", "227": "\u00e2", "228": "\u00e3", "229": "\u00e4", "230": "\u00e5", "231": "\u00e6", "232": "\u00e7", "233": "\u00e8", "234": "\u00e9", "235": "\u00ea", "236": "\u00eb", "237": "\u00ec", "238": "\u00ed", "239": "\u00ee", "240": "\u00ef", "241": "\u00f0", "242": "\u00f1", "243": "\u00f2", "244": "\u00f3", "245": "\u00f4", "246": "\u00f5", "247": "\u00f6", "248": "\u00f7", "249": "\u00f8", "250": "\u00f9", "251": "\u00fa", "252": "\u00fb", "253": "\u00fc", "254": "\u00fd", "255": "\u00fe", "256": "\u00ff", "257": "\u0120t", "258": "he", "259": "\u0120a", "260": "\u0120s", "261": "\u0120w", "262": "nd", "263": "\u0120the", "264": "ed", "265": "\u0120b", "266": "\u0120to", "267": "\u0120and", "268": "\u0120h", "269": "\u0120f", "270": "in", "271": "\u0120T", "272": "\u0120wa", "273": "re", "274": "it", "275": "ou", "276": "\u0120l", "277": "\u0120d", "278": "\u0120c", "279": "\u0120p", "280": "ay", "281": "\u0120m", "282": "er", "283": "\u0120was", "284": "om", "285": "\u0120The", "286": "\u0120he", "287": "is", "288": "ar", "289": "\u0120n", "290": "im", "291": "on", "292": "\u0120sa", "293": "id", "294": "ll", "295": "\u0120ha", "296": "\u0120g", "297": "at", "298": "\u0120S", "299": "ing", "300": "ot", "301": "en", "302": "an", "303": "le", "304": "or", "305": "ir", "306": "am", "307": "et", "308": "\u0120H", "309": "\u0120it", "310": "\u0120th", "311": "ig", "312": "\u0120They", "313": "\u0120in", "314": "il", "315": "\u0120pl", "316": "\u0120He", "317": "\u0120\"", "318": "ow", "319": "ver", "320": "ri", "321": "ut", "322": "\u0120be", "323": "\u0120u", "324": "\u0120said", "325": "\u0120play", "326": "ith", "327": "\u0120day", "328": "\u0120with", "329": "pp", "330": "On", "331": "\u0120o", "332": "\u0120y", "333": "oo", "334": "ked", "335": "\u0120r", "336": "\u0120her", "337": "ce", "338": "\u0120I", "339": "\u0120She", "340": "ld", "341": "\u0120Tim", "342": "\u0120his", "343": "\u0120st", "344": "ke", "345": "\u0120e", "346": "\u0120big", "347": "nt", "348": "ck", "349": "\u0120you", "350": "very", "351": "st", "352": "ve", "353": "end", "354": "\u0120on", "355": "un", "356": "\u0120happ", "357": "riend", "358": "\u0120friend", "359": "all", "360": "ily", "361": "\u0120L", "362": "\u0120they", "363": "\u0120we", "364": "\u0120had", "365": "\u0120not", "366": "\u0120li", "367": "\u0120up", "368": "her", "369": "\u0120want", "370": "\u0120of", "371": "ad", "372": "itt", "373": "se", "374": "\u0120B", "375": "\u0120do", "376": "\u0120happy", "377": "ent", "378": "\u0120very", "379": "\u0120M", "380": "es", "381": "\u0120that", "382": "\u0120saw", "383": "One", "384": "'s", "385": "ould", "386": "\u0120mom", "387": "\u0120for", "388": "\u0120sh", "389": "ittle", "390": "\u0120little", "391": "\u0120so", "392": "\u0120she", "393": "ch", "394": "ime", "395": "\u0120ne", "396": "\u0120nam", "397": ".\"", "398": "\u0120time", "399": "\u0120k", "400": "ound", "401": "\u0120there", "402": "\u0120named", "403": "\u0120sm", "404": "\u0120bo", "405": "\u0120were", "406": "\u0120Lily", "407": "\u0120wanted", "408": "\u0120but", "409": "out", "410": "The", "411": "\u0120friends", "412": "ved", "413": "!\"", "414": "ht", "415": "\u0120Tom", "416": "ird", "417": "el", "418": "\u0120bird", "419": "al", "420": "\u0120an", "421": "ake", "422": "\u0120too", "423": "ome", "424": "\u0120It", "425": "ug", "426": "ide", "427": "\u0120went", "428": "\u0120wh", "429": "\u0120hel", "430": "Once", "431": "\u0120is", "432": "\u0120all", "433": "\u0120help", "434": "ue", "435": "\u0120loo", "436": "\u0120lo", "437": "ter", "438": "\u0120A", "439": "\u0120upon", "440": "ry", "441": "ore", "442": "ind", "443": "\u0120fun", "444": "get", "445": "\u0120toy", "446": "ill", "447": "ame", "448": "\u0120as", "449": "\u0120at", "450": "ra", "451": "\u0120j", "452": "\u0120did", "453": "gether", "454": "\u0120re", "455": "ur", "456": "\u0120se", "457": "\u0120together", "458": "ack", "459": "\u0120cat", "460": "ly", "461": "\u0120tre", "462": "ood", "463": "ic", "464": "ted", "465": "\u0120dog", "466": "\u0120could", "467": "\u0120can", "468": "\u0120their", "469": "ard", "470": "ec", "471": "ark", "472": "\u0120gir", "473": "\u0120played", "474": "\u0120him", "475": "\u0120ball", "476": "?\"", "477": "\u0120girl", "478": "way", "479": "\u0120ro", "480": "\u0120go", "481": "hed", "482": "my", "483": "\u0120are", "484": "\u0120out", "485": "\u0120le", "486": "\u0120fr", "487": "ain", "488": "\u0120kn", "489": "hen", "490": "\u0120them", "491": "um", "492": "'t", "493": "ax", "494": "\u0120sad", "495": "ul", "496": "\u0120boy", "497": "\u0120tree", "498": "other", "499": "\u0120have", "500": "\u0120man", "501": "\u0120cl", "502": "\u0120loved", "503": "\u0120looked", "504": "oug", "505": "\u0120found", "506": "\u0120sp", "507": "\u0120star", "508": "\u0120Sue", "509": "one", "510": "hing", "511": "\u0120sc", "512": "\u0120back", "513": "own", "514": "\u0120Max", "515": "are", "516": "\u0120like", "517": "ful", "518": "side", "519": "\u0120me", "520": "\u0120bec", "521": "\u0120park", "522": "ight", "523": "ong", "524": "\u0120car", "525": "op", "526": "elt", "527": "\u0120One", "528": "\u0120liked", "529": "\u0120would", "530": "\u0120make", "531": "round", "532": "\u0120la", "533": "\u0120fa", "534": "\u0120felt", "535": "You", "536": "\u0120W", "537": "ell", "538": "\u0120see", "539": "\u0120But", "540": "omet", "541": "\u0120asked", "542": "ag", "543": "\u0120new", "544": "\u0120no", "545": "ice", "546": "\u0120Sam", "547": "ouse", "548": "\u0120started", "549": "ared", "550": "\u0120came", "551": "\u0120Ben", "552": "\u0120al", "553": "\u0120other", "554": "ought", "555": "iled", "556": "\u0120somet", "557": "\u0120ag", "558": "\u0120good", "559": "\u0120small", "560": "ss", "561": "\u0120br", "562": "\u0120smiled", "563": "\u0120say", "564": "ried", "565": "ade", "566": "ings", "567": "ob", "568": "pot", "569": "\u0120wor", "570": "\u0120find", "571": "\u0120ex", "572": "ia", "573": "\u0120away", "574": "ty", "575": "\u0120put", "576": "\u0120what", "577": "\u0120something", "578": "\u0120co", "579": "\u0120from", "580": "\u0120made", "581": "\u0120thought", "582": "ened", "583": "\u0120home", "584": "\u0120playing", "585": "ook", "586": "\u0120every", "587": "\u0120wal", "588": "\u0120mu", "589": "uc", "590": "ach", "591": "arn", "592": "\u0120Spot", "593": "\u0120ran", "594": "ile", "595": "\u0120F", "596": "ie", "597": "\u0120J", "598": "ave", "599": "\u0120again", "600": "\u0120some", "601": "\u0120laug", "602": "dd", "603": "\u0120house", "604": "\u0120down", "605": "\u0120fl", "606": "king", "607": "\u0120took", "608": "\u0120scared", "609": "\u0120pr", "610": "ny", "611": "ure", "612": "\u0120toys", "613": "\u0120learn", "614": "\u0120You", "615": "if", "616": "\u0120will", "617": "\u0120box", "618": "ick", "619": "ret", "620": "ab", "621": "ep", "622": "\u0120my", "623": "\u0120around", "624": "\u0120things", "625": "\u0120your", "626": "oud", "627": "\u0120bl", "628": "uck", "629": "\u0120when", "630": "ish", "631": "\u0120lived", "632": "\u0120fe", "633": "\u0120then", "634": "\u0120sun", "635": "as", "636": "\u0120sw", "637": ",\"", "638": "\u0120ch", "639": "us", "640": "pped", "641": "\u0120ab", "642": "\u0120Mia", "643": "ank", "644": "\u0120get", "645": "ucy", "646": "Tim", "647": "ump", "648": "Th", "649": "\u0120lot", "650": "ist", "651": "oth", "652": "\u0120tried", "653": "ap", "654": "\u0120know", "655": "\u0120says", "656": "\u0120got", "657": "ited", "658": "\u0120who", "659": "\u0120kne", "660": "ust", "661": "\u0120many", "662": "nder", "663": "\u0120int", "664": "\u0120about", "665": "Lily", "666": "\u0120pret", "667": "\u0120dec", "668": "\u0120any", "669": "\u0120red", "670": "\u0120D", "671": "ive", "672": "\u0120knew", "673": "ace", "674": "ous", "675": "\u0120more", "676": "ise", "677": "\u0120care", "678": "ally", "679": "\u0120pic", "680": "au", "681": "qu", "682": "\u0120hug", "683": "\u0120Lucy", "684": "\u0120learned", "685": "\u0120po", "686": "\u0120water", "687": "fter", "688": "\u0120v", "689": "\u0120became", "690": "\u0120best", "691": "ause", "692": "\u0120op", "693": "\u0120gre", "694": "\u0120exc", "695": "urp", "696": "ways", "697": "\u00e2\u0122", "698": "\u0120outside", "699": "\u0120laughed", "700": "\u0120look", "701": "\u0120always", "702": "\u0120decid", "703": "\u0120show", "704": "\u0120un", "705": "ant", "706": "\u0120Bob", "707": "\u0120room", "708": "fe", "709": "\u0120decided", "710": "\u0120ho", "711": "\u0120because", "712": "\u0120So", "713": "\u0120into", "714": "\u0120eat", "715": "ite", "716": "\u0120jump", "717": "\u0120And", "718": "\u0120pe", "719": "\u0120both", "720": "ers", "721": "\u0120Mom", "722": "\u0120dad", "723": "They", "724": "udd", "725": "\u0120ke", "726": "\u0120one", "727": "nn", "728": "\u0120this", "729": "\u0120excited", "730": "\u0120fast", "731": "\u0120nice", "732": "\u0120E", "733": "\u0120feel", "734": "Tom", "735": "Yes", "736": "\u0120run", "737": "\u0120long", "738": "\u0120told", "739": "\u0120sk", "740": "\u0120am", "741": "urpr", "742": "our", "743": "\u0120inside", "744": "ull", "745": "\u0120tr", "746": "\u0120surpr", "747": "\u0120mo", "748": "ink", "749": "\u0120pretty", "750": "iny", "751": "\u0120sor", "752": "Wh", "753": "\u0120take", "754": "og", "755": "\u0120sl", "756": "\u0120each", "757": "\u0120gave", "758": "\u0120much", "759": "\u0120gra", "760": "lew", "761": "nna", "762": "\u0120rock", "763": "\u0120how", "764": "\u0120str", "765": "ara", "766": "imal", "767": "\u0120animal", "768": "ged", "769": "\u0120need", "770": "\u0120than", "771": "But", "772": "ven", "773": "etter", "774": "\u0120tow", "775": "\u0120or", "776": "\u0120C", "777": "\u0120under", "778": "ess", "779": "\u0120old", "780": "\u0120sorry", "781": "ge", "782": "ised", "783": "ro", "784": "urt", "785": "\u0120cle", "786": "\u0120fish", "787": "\u0120walked", "788": "\u0120clo", "789": "and", "790": "\u0120bear", "791": "ft", "792": "ase", "793": "ast", "794": "\u0120hand", "795": "urn", "796": "\u0120We", "797": "\u0120kind", "798": "\u0120His", "799": "\u0120te", "800": "here", "801": "\u0120happened", "802": "\u0120just", "803": "\u0120flow", "804": "\u0120food", "805": "\u0120list", "806": "\u0120didn", "807": "\u0120animals", "808": "\u0120hig", "809": "pl", "810": "\u0120near", "811": "\u0120wat", "812": "\u0120ide", "813": "\u0120try", "814": "ched", "815": "\u0120sky", "816": "ine", "817": "\u0120sn", "818": "ving", "819": "\u0120fi", "820": "rom", "821": "\u0120us", "822": "\u0120idea", "823": "\u0120better", "824": "\u0120Amy", "825": "\u0120bug", "826": "\u0120heard", "827": "gry", "828": "\u0120its", "829": "\u0120tw", "830": "\u0120let", "831": "pec", "832": "ate", "833": "able", "834": "ff", "835": "\u0120en", "836": "\u0120careful", "837": "\u0120share", "838": "ex", "839": "\u0120if", "840": "Thank", "841": "Mom", "842": "\u0120fly", "843": "\u0120stor", "844": "ial", "845": "\u0120flew", "846": "more", "847": "\u0120anymore", "848": "\u0120Th", "849": "\u0120spec", "850": "\u0120special", "851": "ion", "852": "\u0120com", "853": "\u0120lots", "854": "\u0120never", "855": "\u0120by", "856": "lf", "857": "ream", "858": "\u0120dan", "859": "\u0120bu", "860": "\u0120fo", "861": "\u0120wind", "862": "\u0120don", "863": "\u0120tal", "864": "\u0120clean", "865": "ort", "866": "\u0120gr", "867": "\u0120love", "868": "rm", "869": "ber", "870": "\u0120end", "871": "\u010a\u010a", "872": "\u0120Then", "873": "ople", "874": "\u0120even", "875": "\u0120mag", "876": "\u0120hard", "877": "\u0120shiny", "878": "udden", "879": "\u0120fore", "880": "\u0120over", "881": "\u0120cake", "882": "ak", "883": "\u0120book", "884": "\u0120col", "885": "\u0120turn", "886": "\u0120fam", "887": "\u0120bad", "888": "\u0120safe", "889": "\u0120after", "890": "ady", "891": "\u0120Anna", "892": "uddenly", "893": "\u0120people", "894": "\u0120proud", "895": "\u0120Every", "896": "\u0120surprised", "897": "pected", "898": "Let", "899": "\u0120high", "900": "\u0120cu", "901": "\u0120hurt", "902": "\u0120come", "903": "imb", "904": "arden", "905": "\u0120door", "906": "\u0120garden", "907": "bb", "908": "\u0120ground", "909": "\u0120opened", "910": "\u0120picked", "911": "\u0120loud", "912": "\u0120climb", "913": "expected", "914": "\u0120unexpected", "915": "\u0120gl", "916": "\u0120che", "917": "ild", "918": "\u0120im", "919": "As", "920": "\u0120give", "921": "\u0120way", "922": "ail", "923": "'m", "924": "\u0120thanked", "925": "\u0120color", "926": "\u0120blue", "927": "\u0120still", "928": "\u0120ever", "929": "\u0120hugged", "930": "\u0120From", "931": "\u0120call", "932": "\u0120far", "933": "ip", "934": "\u0120Her", "935": "\u0120Sara", "936": "\u0120When", "937": "No", "938": "\u0120off", "939": "\u0120magic", "940": "iz", "941": "ough", "942": "age", "943": "ummy", "944": "\u0120K", "945": "\u0120jumped", "946": "\u0120should", "947": "\u0120family", "948": "\u0120par", "949": "ool", "950": "\u0120kid", "951": "\u0120smile", "952": "hes", "953": "uff", "954": "\u0120place", "955": "kay", "956": "\u0120walk", "957": "\u0120now", "958": "ct", "959": "\u0120In", "960": "\u0120great", "961": "em", "962": "ture", "963": "\u0120qu", "964": "les", "965": "\u0120strong", "966": "\u0120stay", "967": "\u0120unt", "968": "\u0120sto", "969": "aut", "970": "\u0120forest", "971": "ane", "972": "\u0120bra", "973": "itty", "974": "\u0120P", "975": "\u0120frog", "976": "\u0120bro", "977": "\u0120until", "978": "oon", "979": "\u0120beaut", "980": "dy", "981": "\u0120squ", "982": "\u0120stick", "983": "xt", "984": "\u0120next", "985": "\u0120boat", "986": "lease", "987": "ning", "988": "\u0120happily", "989": "\u0120listen", "990": "aking", "991": "\u0120kids", "992": "\u0120tra", "993": "ies", "994": "iful", "995": "\u0120beautiful", "996": "\u0120app", "997": "th", "998": "\u0120helped", "999": "\u0120dra", "1000": "\u0120showed", "1001": "\u0120clos", "1002": "be", "1003": "\u0120imp", "1004": "\u0120story", "1005": "unny", "1006": "oy", "1007": "\u0120while", "1008": "\u0120town", "1009": "rel", "1010": "pt", "1011": "\u0120rain", "1012": "ress", "1013": "\u0120picture", "1014": "\u0120being", "1015": "\u0120rem", "1016": "\u0120everyone", "1017": "It", "1018": "ary", "1019": "ree", "1020": "\u0120mor", "1021": "\u0120hat", "1022": "\u0120called", "1023": "\u0120met", "1024": "\u0120stopped", "1025": "\u0120ad", "1026": "\u0120game", "1027": "Now", "1028": "He", "1029": "Can", "1030": "\u0120angry", "1031": "ger", "1032": "uffy", "1033": "\u0120open", "1034": "\u0120wo", "1035": "\u0120truck", "1036": "\u0120keep", "1037": "\u0120soft", "1038": "When", "1039": "\u0120cry", "1040": "\u0120yummy", "1041": "\u0120lost", "1042": "\u0120bed", "1043": "\u0120Let", "1044": "\u0120Sally", "1045": "\u0120warm", "1046": "by", "1047": "vent", "1048": "\u0120brave", "1049": "\u0120mouse", "1050": "\u0120Wh", "1051": "\u0120ate", "1052": "\u0120Kitty", "1053": "ished", "1054": "\u0120de", "1055": "fore", "1056": "\u0120doll", "1057": "so", "1058": "\u0120couldn", "1059": "\u0120watch", "1060": "\u0120leave", "1061": "\u0120also", "1062": "dded", "1063": "\u0120fell", "1064": "\u0120green", "1065": "\u0120face", "1066": "\u0120two", "1067": "gan", "1068": "iss", "1069": "\u0120flowers", "1070": "bit", "1071": "What", "1072": "\u0120R", "1073": "ble", "1074": "\u0120noise", "1075": "abbit", "1076": "irst", "1077": "owl", "1078": "\u0120where", "1079": "az", "1080": "ock", "1081": "\u0120soon", "1082": "self", "1083": "\u0120slide", "1084": "\u0120rabbit", "1085": "\u0120hole", "1086": "luffy", "1087": "\u0120before", "1088": "irrel", "1089": "\u0120pus", "1090": "ired", "1091": "\u0120sat", "1092": "illy", "1093": "\u0120hear", "1094": "\u0120use", "1095": "\u00e2\u0122\u013f", "1096": "Hi", "1097": "\u0120pa", "1098": "\u0120kept", "1099": "\u00e2\u0122\u013e", "1100": "That", "1101": "\u0120squirrel", "1102": "ear", "1103": "Then", "1104": "ma", "1105": "\u0120nodded", "1106": "\u0120expl", "1107": "\u0120store", "1108": "\u0120cook", "1109": "\u0120hands", "1110": "Look", "1111": "\u0120birds", "1112": "\u0120pain", "1113": "\u0120going", "1114": "\u0120funny", "1115": "\u0120having", "1116": "day", "1117": "\u0120sing", "1118": "aybe", "1119": "uch", "1120": "\u0120ey", "1121": "aug", "1122": "\u0120catch", "1123": "aught", "1124": "\u0120Can", "1125": "\u0120Fluffy", "1126": "uit", "1127": "\u0120yell", "1128": "\u0120think", "1129": "leep", "1130": "\u0120cra", "1131": "\u0120fin", "1132": "Ben", "1133": "\u0120bre", "1134": "\u0120fix", "1135": "\u0120tired", "1136": "\u0120bunny", "1137": "\u0120used", "1138": "\u0120looking", "1139": "\u0120bus", "1140": "ange", "1141": "air", "1142": "\u0120work", "1143": "\u0120wr", "1144": "\u0120our", "1145": "\u0120pull", "1146": "We", "1147": "\u0120thr", "1148": "thing", "1149": "\u0120Now", "1150": "\u0120wait", "1151": "\u0120kit", "1152": "\u0120sound", "1153": "ting", "1154": "\u0120jo", "1155": "\u0120has", "1156": "\u0120G", "1157": "\u0120mean", "1158": "\u0120pond", "1159": "ember", "1160": "\u0120beh", "1161": "\u0120dr", "1162": "\u0120sunny", "1163": "led", "1164": "\u0120others", "1165": "\u0120ask", "1166": "ng", "1167": "chen", "1168": "\u0120kitchen", "1169": "\u0120talk", "1170": "\u0120flo", "1171": "\u0120dif", "1172": "rew", "1173": "\u0120pie", "1174": "\u0120Jo", "1175": "\u0120head", "1176": "\u0120real", "1177": "\u0120first", "1178": "\u0120tri", "1179": "\u0120mommy", "1180": "\u0120eyes", "1181": "ello", "1182": "\u0120import", "1183": "Hello", "1184": "\u0120fav", "1185": "ath", "1186": "joy", "1187": "\u0120z", "1188": "\u0120remember", "1189": "\u0120right", "1190": "\u0120flower", "1191": "\u0120con", "1192": "\u0120mess", "1193": "\u0120party", "1194": "\u0120cold", "1195": "\u0120Do", "1196": "\u0120vo", "1197": "\u0120swe", "1198": "ious", "1199": "\u0120sand", "1200": "\u0120\u00e2\u0122\u013e", "1201": "ac", "1202": "orn", "1203": "\u0120race", "1204": "\u0120curi", "1205": "imes", "1206": "\u0120important", "1207": "\u0120duck", "1208": "\u0120moral", "1209": "\u0120shared", "1210": "zy", "1211": "ount", "1212": "\u0120Jack", "1213": "\u0120ice", "1214": "\u0120okay", "1215": "\u0120advent", "1216": "\u0120worked", "1217": "llow", "1218": "At", "1219": "\u0120enjoy", "1220": "\u0120dress", "1221": "\u0120bright", "1222": "\u0120making", "1223": "\u0120curious", "1224": "\u0120own", "1225": "ded", "1226": "\u0120tall", "1227": "\u0120dir", "1228": "\u0120hop", "1229": "reed", "1230": "\u0120hid", "1231": "\u0120favor", "1232": "\u0120ri", "1233": "hn", "1234": "\u0120sleep", "1235": "\u0120dis", "1236": "Wow", "1237": "\u0120favorite", "1238": "\u0120thing", "1239": "\u0120began", "1240": "\u0120mon", "1241": "\u0120bag", "1242": "\u0120hill", "1243": "Don", "1244": "\u0120cla", "1245": "\u0120draw", "1246": "\u0120rest", "1247": "\u0120here", "1248": "\u0120yard", "1249": "\u0120tell", "1250": "\u0120Fin", "1251": "ster", "1252": "\u0120watched", "1253": "que", "1254": "\u0120follow", "1255": "\u0120move", "1256": "\u0120bel", "1257": "ect", "1258": "\u0120cut", "1259": "\u0120night", "1260": "\u0120agreed", "1261": "\u0120pick", "1262": "co", "1263": "\u0120block", "1264": "\u0120hun", "1265": "aper", "1266": "lly", "1267": "\u0120stop", "1268": "\u0120behind", "1269": "\u0120This", "1270": "\u0120surprise", "1271": "ied", "1272": "\u0120sho", "1273": "\u0120hot", "1274": "After", "1275": "\u0120table", "1276": "\u0120grass", "1277": "\u0120worry", "1278": "\u0120dark", "1279": "\u0120trees", "1280": "\u0120voice", "1281": "\u0120walking", "1282": "ede", "1283": "fere", "1284": "\u0120floor", "1285": "\u0120farm", "1286": "\u0120lion", "1287": "\u0120top", "1288": "\u0120differe", "1289": "\u0120please", "1290": "\u0120ru", "1291": "\u0120song", "1292": "\u0120butter", "1293": "\u0120tail", "1294": "\u0120sweet", "1295": "Max", "1296": "\u0120shout", "1297": "\u0120colors", "1298": "\u0120read", "1299": "\u0120Dad", "1300": "\u0120lady", "1301": "\u0120forg", "1302": "isy", "1303": "\u0120leaves", "1304": "\u0120closer", "1305": "ign", "1306": "\u0120cars", "1307": "\u0120turned", "1308": "\u0120needed", "1309": "\u0120tast", "1310": "Why", "1311": "aring", "1312": "\u0120wood", "1313": "\u0120cried", "1314": "\u0120different", "1315": "\u0120laugh", "1316": "\u0120del", "1317": "\u0120piece", "1318": "\u00e2\u0122\u013b", "1319": "ered", "1320": "\u0120Mr", "1321": "\u0120roll", "1322": "\u0120adventure", "1323": "\u0120fire", "1324": "\u0120does", "1325": "ike", "1326": "\u0120cr", "1327": "\u0120hungry", "1328": "\u0120hair", "1329": "\u0120Suddenly", "1330": "\u0120paper", "1331": "\u0120feeling", "1332": "\u0120yellow", "1333": "\u0120full", "1334": "\u0120prin", "1335": "bo", "1336": "Sue", "1337": "\u0120touch", "1338": "\u0120As", "1339": "Anna", "1340": "Sam", "1341": "\u0120wet", "1342": "\u0120friendly", "1343": "\u0120per", "1344": "oom", "1345": "ken", "1346": "cked", "1347": "ached", "1348": "\u0120swing", "1349": "\u0120fruit", "1350": "ient", "1351": "\u0120broken", "1352": "\u0120ready", "1353": "bye", "1354": "ppy", "1355": "\u0120prom", "1356": "\u0120That", "1357": "\u0120another", "1358": "\u0120light", "1359": "\u0120pretend", "1360": "\u0120dance", "1361": "ater", "1362": "\u0120climbed", "1363": "where", "1364": "\u0120listened", "1365": "\u0120Bobo", "1366": "\u0120danc", "1367": "\u0120running", "1368": "\u0120only", "1369": "\u0120plan", "1370": "\u0120gone", "1371": "\u0120swim", "1372": "bbed", "1373": "Suddenly", "1374": "sh", "1375": "\u0120train", "1376": "ila", "1377": "ndma", "1378": "Sara", "1379": "\u0120Jane", "1380": "\u0120close", "1381": "av", "1382": "She", "1383": "\u0120smell", "1384": "So", "1385": "aby", "1386": "\u0120amaz", "1387": "\u0120hold", "1388": "\u0120blocks", "1389": "\u0120wonder", "1390": "\u0120Timmy", "1391": "\u0120repl", "1392": "\u0120All", "1393": "\u0120butterf", "1394": "\u0120sees", "1395": "\u0120reached", "1396": "\u0120wall", "1397": "\u0120pu", "1398": "oney", "1399": "red", "1400": "\u0120slow", "1401": "\u0120helping", "1402": "\u0120dri", "1403": "\u0120cream", "1404": "\u0120cool", "1405": "\u0120glad", "1406": "af", "1407": "\u0120ant", "1408": "\u0120less", "1409": "ging", "1410": "\u0120been", "1411": "\u0120goodbye", "1412": "\u0120ac", "1413": "\u0120fight", "1414": "ather", "1415": "Mia", "1416": "\u0120pushed", "1417": "iced", "1418": "\u0120fair", "1419": "\u0120must", "1420": "\u0120hide", "1421": "\u0120moment", "1422": "\u0120window", "1423": "\u0120O", "1424": "\u0120sit", "1425": "\u0120balloon", "1426": "\u0120snow", "1427": "\u0120child", "1428": "\u0120explore", "1429": "\u0120Everyone", "1430": "\u0120ar", "1431": "\u0120wished", "1432": "\u0120baby", "1433": "\u0120done", "1434": "\u0120wag", "1435": "\u0120ste", "1436": "\u0120buy", "1437": "\u0120stuck", "1438": "\u0120perf", "1439": "\u0120thank", "1440": "\u0120might", "1441": "icy", "1442": "\u0120name", "1443": "ized", "1444": "\u0120trying", "1445": "\u0120bit", "1446": "\u0120coming", "1447": "\u0120bar", "1448": "\u0120quick", "1449": "\u0120fall", "1450": "\u0120apple", "1451": "ash", "1452": "\u0120scary", "1453": "\u0120looks", "1454": "\u0120build", "1455": "\u0120doing", "1456": "\u0120win", "1457": "\u0120underst", "1458": "aisy", "1459": "\u0120din", "1460": "\u0120dream", "1461": "\u0120dirty", "1462": "\u0120held", "1463": "ames", "1464": "\u0120books", "1465": "\u0120mar", "1466": "In", "1467": "\u0120butterfly", "1468": "\u0120left", "1469": "\u0120shouted", "1470": "\u0120count", "1471": "\u0120replied", "1472": "avy", "1473": "\u0120reach", "1474": "\u0120tiny", "1475": "\u0120through", "1476": "ott", "1477": "\u0120dro", "1478": "\u0120why", "1479": "\u0120air", "1480": "\u0120bran", "1481": "\u0120land", "1482": "key", "1483": "\u0120three", "1484": "\u0120pulled", "1485": "\u0120spl", "1486": "\u0120grow", "1487": "\u0120treat", "1488": "\u0120brother", "1489": "\u0120wise", "1490": "\u0120woods", "1491": "\u0120sure", "1492": "'re", "1493": "\u0120chair", "1494": "ix", "1495": "\u0120mat", "1496": "ins", "1497": "\u0120seen", "1498": "\u0120pink", "1499": "\u0120clapped", "1500": "\u0120plant", "1501": "ely", "1502": "\u0120owl", "1503": "\u0120cup", "1504": "ield", "1505": "\u0120sometimes", "1506": "andy", "1507": "\u0120fill", "1508": "\u0120cloud", "1509": "ask", "1510": "\u0120swam", "1511": "outh", "1512": "\u0120job", "1513": "\u0120colorful", "1514": "\u0120remembered", "1515": "\u0120bigger", "1516": "\u0120nest", "1517": "\u0120mouth", "1518": "pe", "1519": "Okay", "1520": "\u0120lesson", "1521": "\u0120join", "1522": "\u0120cre", "1523": "ph", "1524": "\u0120There", "1525": "oup", "1526": "room", "1527": "art", "1528": "\u0120waved", "1529": "uddy", "1530": "\u0120grabbed", "1531": "\u0120stayed", "1532": "Oh", "1533": "\u0120paint", "1534": "This", "1535": "\u0120clot", "1536": "\u0120cont", "1537": "\u0120clothes", "1538": "\u0120ve", "1539": "ower", "1540": "\u0120After", "1541": "\u0120waited", "1542": "\u0120quickly", "1543": "cle", "1544": "\u0120word", "1545": "\u0120broke", "1546": "ucky", "1547": "\u0120games", "1548": "\u0120cast", "1549": "\u0120blew", "1550": "\u0120gent", "1551": "\u0120Mommy", "1552": "\u0120enjoyed", "1553": "\u0120noticed", "1554": "Jo", "1555": "ries", "1556": "ation", "1557": "\u0120set", "1558": "\u0120likes", "1559": "\u0120pictures", "1560": "ton", "1561": "\u0120sea", "1562": "\u0120heavy", "1563": "\u0120mus", "1564": "\u0120alone", "1565": "\u0120gif", "1566": "asure", "1567": "\u0120anything", "1568": "\u0120spot", "1569": "\u0120miss", "1570": "\u0120hopped", "1571": "\u0120world", "1572": "\u0120turns", "1573": "orm", "1574": "\u0120year", "1575": "der", "1576": "\u0120bott", "1577": "\u0120pat", "1578": "\u0120pot", "1579": "\u0120pen", "1580": "lc", "1581": "Her", "1582": "\u0120mix", "1583": "\u0120arm", "1584": "\u0120bike", "1585": "\u0120tight", "1586": "\u0120everywhere", "1587": "\u0120won", "1588": "Lucy", "1589": "\u0120tower", "1590": "\u0120threw", "1591": "\u0120himself", "1592": "\u0120followed", "1593": "\u0120Buddy", "1594": "\u0120ride", "1595": "man", "1596": "less", "1597": "\u0120ju", "1598": "\u0120je", "1599": "amp", "1600": "Bob", "1601": "ape", "1602": "\u0120comp", "1603": "\u0120key", "1604": "row", "1605": "\".", "1606": "\u0120white", "1607": "ctor", "1608": "\u0120wrong", "1609": "ini", "1610": "\u0120Daisy", "1611": "\u0120makes", "1612": "\u0120What", "1613": "\u0120break", "1614": "\u0120black", "1615": "arent", "1616": "ee", "1617": "ner", "1618": "Spot", "1619": "Do", "1620": "\u0120deep", "1621": "thy", "1622": "\u0120music", "1623": "\u0120pol", "1624": "\u0120delic", "1625": "nin", "1626": "cess", "1627": "ued", "1628": "\u0120forgot", "1629": "\u0120bee", "1630": "\u0120parent", "1631": "\u0120castle", "1632": "ves", "1633": "olly", "1634": "\u0120em", "1635": "ingin", "1636": "iet", "1637": "\u0120wear", "1638": "\u0120hit", "1639": "ister", "1640": "oun", "1641": "\u0120quiet", "1642": "\u0120round", "1643": "ance", "1644": "\u0120stu", "1645": "\u0120danced", "1646": "\u0120vis", "1647": "ully", "1648": "\u0120wants", "1649": "\u0120leaf", "1650": "\u0120monster", "1651": "\u0120nap", "1652": "\u0120John", "1653": "\u0120understand", "1654": "\u0120bowl", "1655": "os", "1656": "rot", "1657": "ren", "1658": "\u0120bor", "1659": "\u0120talked", "1660": "itten", "1661": "\u0120dry", "1662": "\u0120faster", "1663": "\u0120cookies", "1664": "\u0120brought", "1665": "fully", "1666": "\u0120leg", "1667": "ross", "1668": "\u0120mum", "1669": "zz", "1670": "\u0120side", "1671": "ts", "1672": "From", "1673": "\u0120sign", "1674": "\u0120Inside", "1675": "\u0120smart", "1676": "ang", "1677": "cy", "1678": "\u0120rocks", "1679": "\u0120someone", "1680": "His", "1681": "\u0120poin", "1682": "\u0120sec", "1683": "\u0120sharing", "1684": "\u0120fox", "1685": "\u0120well", "1686": "\u0120res", "1687": "\u0120rel", "1688": "\u0120happen", "1689": "\u0120button", "1690": "\u0120branch", "1691": "\u0120Lila", "1692": "\u0120really", "1693": "\u0120finished", "1694": "ence", "1695": "ards", "1696": "\u0120dinner", "1697": "\u0120sister", "1698": "\u0120flying", "1699": "eddy", "1700": "\u0120contin", "1701": "\u0120worried", "1702": "\u0120ele", "1703": "\u0120To", "1704": "\u0120visit", "1705": "\u0120Maybe", "1706": "\u0120beach", "1707": "\u0120que", "1708": "\u0120secret", "1709": "\u0120el", "1710": "\u0120Sarah", "1711": "\u0120king", "1712": "John", "1713": "gy", "1714": "\u0120today", "1715": "\u0120perfect", "1716": "\u0120river", "1717": "\u0120everything", "1718": "\u0120silly", "1719": "\u0120Joe", "1720": "\u0120danger", "1721": "ipp", "1722": "\u0120children", "1723": "\u0120gu", "1724": "\u0120Soon", "1725": "\u0120field", "1726": "\u0120filled", "1727": "\u0120fur", "1728": "\u0120else", "1729": "\u0120smiles", "1730": "\u0120welc", "1731": "\u0120At", "1732": "\u0120shin", "1733": "\u0120wish", "1734": "\u0120Em", "1735": "While", "1736": "\u0120sang", "1737": "\u0120gi", "1738": "ze", "1739": "\u0120pudd", "1740": "\u0120snack", "1741": "\u0120eating", "1742": "\u0120realized", "1743": "\u0120pieces", "1744": "\u0120promised", "1745": "\u0120spr", "1746": "\u0120pig", "1747": "\u0120free", "1748": "\u0120continued", "1749": "\u0120bite", "1750": "ead", "1751": "\u0120parents", "1752": "\u0120carefully", "1753": "ated", "1754": "itting", "1755": "\u0120ear", "1756": "Just", "1757": "\u0120jar", "1758": "Maybe", "1759": "\u0120cow", "1760": "Amy", "1761": "\u0120blank", "1762": "\u0120drag", "1763": "stead", "1764": "\u0120orange", "1765": "\u0120mud", "1766": "\u0120crying", "1767": "\u0120blanket", "1768": "\u0120enough", "1769": "\u0120rolled", "1770": "cket", "1771": "\u0120soup", "1772": "\u0120sail", "1773": "\u0120purp", "1774": "imi", "1775": "\u0120yes", "1776": "ale", "1777": "\u0120drink", "1778": "\u0120snake", "1779": "ses", "1780": "\u0120boun", "1781": "\u0120pet", "1782": "\u0120crab", "1783": "\u0120throw", "1784": "\u0120laughing", "1785": "\u0120fairy", "1786": "\u0120words", "1787": "\u0120amazing", "1788": "\u0120bath", "1789": "ich", "1790": "\u0120purple", "1791": "\u0120Z", "1792": "\u0120without", "1793": "ire", "1794": "ana", "1795": "\u0120bottle", "1796": "ord", "1797": "\u0120Billy", "1798": "\u0120gift", "1799": "\u0120grandma", "1800": "Fin", "1801": "used", "1802": "ons", "1803": "\u0120past", "1804": "\u0120money", "1805": "iver", "1806": "fort", "1807": "\u0120mail", "1808": "\u0120Gra", "1809": "\u0120barked", "1810": "\u0120wagged", "1811": "\u0120att", "1812": "chool", "1813": "\u0120monkey", "1814": "\u0120doctor", "1815": "unch", "1816": "\u0120brown", "1817": "\u0120moved", "1818": "ises", "1819": "\u0120asks", "1820": "\u0120getting", "1821": "\u0120closed", "1822": "\u0120whe", "1823": "\u0120welcome", "1824": "\u0120su", "1825": "\u0120candy", "1826": "\u0120school", "1827": "\u0120morning", "1828": "\u0120owner", "1829": "\u0120lon", "1830": "\u0120mother", "1831": "\u0120higher", "1832": "\u0120sitting", "1833": "\u0120treasure", "1834": ".\u00e2\u0122\u013f", "1835": "\u0120smo", "1836": "!\u00e2\u0122\u013f", "1837": "gg", "1838": "\u0120dangerous", "1839": "\u0120lonely", "1840": "\u0120Ch", "1841": "\u0120living", "1842": "\u0120apples", "1843": "ush", "1844": "\u0120shop", "1845": "ased", "1846": "\u0120strange", "1847": "vel", "1848": "\u0120shining", "1849": "\u0120road", "1850": "ere", "1851": "\u0120Tommy", "1852": "\u0120creat", "1853": "una", "1854": "\u0120paw", "1855": "ey", "1856": "\u0120ra", "1857": "\u0120shoes", "1858": "\u0120pre", "1859": "ible", "1860": "\u0120-", "1861": "\u0120stre", "1862": "\u0120talking", "1863": "althy", "1864": "\u0120caught", "1865": "\u0120egg", "1866": "ol", "1867": "\u0120pass", "1868": "\u0120lake", "1869": "\u0120runs", "1870": "\u0120buck", "1871": "\u0120letter", "1872": "\u0120wings", "1873": "\u0120chee", "1874": "fish", "1875": "\u0120mad", "1876": "\u0120fan", "1877": "asket", "1878": "\u0120basket", "1879": "ass", "1880": "\u0120dragon", "1881": "app", "1882": "est", "1883": "Mommy", "1884": "set", "1885": "cks", "1886": "\u0120stone", "1887": "\u0120thinks", "1888": "\u0120stand", "1889": "\u0120delicious", "1890": "\u0120nose", "1891": "\u0120puddle", "1892": "\u0120tom", "1893": "\u0120Bl", "1894": "\u0120Mimi", "1895": "\u0120belie", "1896": "\u0120sam", "1897": "\u0120farmer", "1898": "\u0120same", "1899": "\u0120years", "1900": "board", "1901": "\u0120teddy", "1902": "\u0120bat", "1903": "isk", "1904": "itch", "1905": "\u0120mine", "1906": "\u0120sear", "1907": "\u0120coat", "1908": "ches", "1909": "igh", "1910": "\u0120days", "1911": "\u0120bring", "1912": "\u0120gentle", "1913": "\u0120fit", "1914": "\u0120start", "1915": "\u0120finally", "1916": "\u0120whist", "1917": "\u0120cray", "1918": "\u0120scream", "1919": "\u0120kite", "1920": "\u0120pill", "1921": "phant", "1922": "arm", "1923": "\u0120vill", "1924": "gly", "1925": "\u0120cho", "1926": "\u0120singing", "1927": "ella", "1928": "sw", "1929": "ined", "1930": "\u0120tasty", "1931": "\u0120ph", "1932": "\u0120ben", "1933": "\u0120trou", "1934": "\u0120shell", "1935": "\u0120herself", "1936": "\u0120hoped", "1937": "\u0120answ", "1938": "\u0120wore", "1939": "\u0120swings", "1940": "sy", "1941": "\u0120hor", "1942": "\u0120belong", "1943": "Please", "1944": "\u0120push", "1945": "\u0120bush", "1946": "iskers", "1947": "\u0120carrot", "1948": "\u0120arri", "1949": "aughty", "1950": "\u0120teach", "1951": "bow", "1952": "ract", "1953": "\u0120naughty", "1954": "\u0120elephant", "1955": "\u0120dropped", "1956": "\u0120shap", "1957": "\u0120coll", "1958": "sc", "1959": "\u0120teac", "1960": "emy", "1961": "\u0120woke", "1962": "ball", "1963": "\u0120pile", "1964": "\u0120hiding", "1965": "\u0120cour", "1966": "isa", "1967": "erry", "1968": "\u0120touc", "1969": "\u0120puppy", "1970": "'ll", "1971": "\u0120seem", "1972": "ier", "1973": "llie", "1974": "\u0120min", "1975": "\u0120twins", "1976": "ama", "1977": "\u0120lunch", "1978": "\u0120bow", "1979": "\u0120sack", "1980": "\u0120pers", "1981": "\u0120course", "1982": "\u0120cheered", "1983": "\u0120shapes", "1984": "\u0120Jen", "1985": "\u0120grew", "1986": "fused", "1987": "\u0120rope", "1988": "\u0120village", "1989": "irth", "1990": "irthday", "1991": "\u0120juice", "1992": "ipped", "1993": "\u0120rainbow", "1994": "\u0120spin", "1995": "OK", "1996": "\u0120shook", "1997": "Jack", "1998": "\u0120spoon", "1999": "\u0120bench", "2000": "\u0120street", "2001": "\u0120fence", "2002": "\u0120Fred", "2003": "\u0120rob", "2004": "\u0120nut", "2005": "\u0120cheese", "2006": "\u0120prob", "2007": "\u0120cute", "2008": "\u0120touched", "2009": "idge", "2010": "col", "2011": "\u0120joy", "2012": "\u0120Whiskers", "2013": "\u0120arrived", "2014": "\u0120seed", "2015": "\u0120war", "2016": "\u0120teacher", "2017": "\u0120corn", "2018": "Good", "2019": "\u0120forever", "2020": "\u0120able", "2021": "\u0120bell", "2022": "\u0120few", "2023": "\u0120carry", "2024": "\u0120most", "2025": "\u0120plane", "2026": "\u0120Blue", "2027": "lem", "2028": "\u0120eas", "2029": "\u0120sounds", "2030": "lla", "2031": "\u0120des", "2032": "\u0120spo", "2033": "\u0120problem", "2034": "\u0120birthday", "2035": "\u0120power", "2036": "\u0120inc", "2037": "umb", "2038": "br", "2039": "\u010a\u0120", "2040": "\u0120bugs", "2041": "ilk", "2042": "\u0120wonderful", "2043": "\u0120dolls", "2044": "\u0120busy", "2045": "ato", "2046": "irp", "2047": "eb", "2048": "\u0120wra", "2049": "\u0120promise", "2050": "\u0120Thank", "2051": "\u0120feels", "2052": "\u0120Emma", "2053": "eter", "2054": "\u0120bread", "2055": "\u0120neck", "2056": "Finally", "2057": "\u0120milk", "2058": "\u0120robot", "2059": "\u0120rec", "2060": "ian", "2061": "\u0120shy", "2062": "ountain", "2063": "\u0120kiss", "2064": "irt", "2065": "\u0120heart", "2066": "\u0120band", "2067": "\u0120cave", "2068": "\u0120pocket", "2069": "ub", "2070": "\u0120helpful", "2071": "\u0120slowly", "2072": "\u0120believe", "2073": "\u0120shake", "2074": "umpy", "2075": "eared", "2076": "\u0120patient", "2077": "\u0120pop", "2078": "\u0120ob", "2079": "arp", "2080": "\u0120live", "2081": "\u0120storm", "2082": "\u0120holding", "2083": "\u0120ugly", "2084": "\u0120towards", "2085": "\u0120upset", "2086": "\u0120turt", "2087": "\u0120shr", "2088": "adow", "2089": "\u0120cover", "2090": "\u0120kitten", "2091": "ost", "2092": "\u0120Remy", "2093": "\u0120sharp", "2094": "\u0120disapp", "2095": "\u0120stories", "2096": "\u0120suc", "2097": "\u0120honey", "2098": "ove", "2099": "\u0120Bella", "2100": "read", "2101": "\u0120noises", "2102": "\u0120Le", "2103": "\u0120cir", "2104": "\u0120balls", "2105": "\u0120spark", "2106": "\u0120gray", "2107": "\u0120dist", "2108": "\u0120dirt", "2109": "oggy", "2110": "\u0120late", "2111": "\u0120driver", "2112": "gle", "2113": "\u0120seat", "2114": "\u0120bucket", "2115": "\u0120meet", "2116": "\u0120young", "2117": "\u0120amazed", "2118": "alm", "2119": "\u0120turtle", "2120": "\u0120spid", "2121": "\u0120treats", "2122": "\u0120magical", "2123": "unt", "2124": "ator", "2125": "\u0120glow", "2126": "\u0120seek", "2127": "\u0120zoom", "2128": "\u0120lem", "2129": "\u0120sandw", "2130": "fortable", "2131": "umber", "2132": "\u0120trip", "2133": "\u0120mist", "2134": "ourn", "2135": "\u0120splas", "2136": "\u0120mark", "2137": "\u0120journ", "2138": "\u0120fold", "2139": "\u0120mach", "2140": "\u0120puzz", "2141": "\u0120part", "2142": "ling", "2143": "\u0120horse", "2144": "\u0120organ", "2145": "\u0120wild", "2146": "\u0120princess", "2147": "pping", "2148": "oose", "2149": "\u0120cookie", "2150": "Sure", "2151": "ens", "2152": "\u0120hugs", "2153": "\u0120Mark", "2154": "\u0120taking", "2155": "\u0120wheel", "2156": "epend", "2157": "\u0120cloth", "2158": "\u0120Lisa", "2159": "\u0120sug", "2160": "\u0120instead", "2161": "\u0120bubb", "2162": "\u0120string", "2163": "\u0120rud", "2164": "\u0120net", "2165": "\u0120drove", "2166": "iling", "2167": "\u0120rude", "2168": "\u0120huge", "2169": "\u0120Jim", "2170": "\u0120coin", "2171": "\u0120stars", "2172": "\u0120fighting", "2173": "\u0120spicy", "2174": "\u0120lucky", "2175": "Be", "2176": "Of", "2177": "\u0120craw", "2178": "Hey", "2179": "\u0120bone", "2180": "\u0120inv", "2181": "\u0120Grandma", "2182": "ors", "2183": "not", "2184": "\u0120ca", "2185": "pper", "2186": "\u0120forget", "2187": "up", "2188": "\u0120di", "2189": "aur", "2190": "\u0120sal", "2191": "\u0120Finally", "2192": "\u0120cannot", "2193": "\u0120whistle", "2194": "\u0120card", "2195": "\u0120sick", "2196": "\u0120path", "2197": "\u0120cou", "2198": "\u0120spider", "2199": "\u0120wide", "2200": "Lila", "2201": "\u0120foot", "2202": "\u0120snowman", "2203": "\u0120songs", "2204": "\u0120life", "2205": "\u0120pillow", "2206": "ize", "2207": "ular", "2208": "\u0120Just", "2209": "Later", "2210": "\u0120Ann", "2211": "ert", "2212": "\u0120fixed", "2213": "\u0120giant", "2214": "oph", "2215": "rill", "2216": "\u0120nod", "2217": "\u0120boss", "2218": "\u0120last", "2219": "\u0120comes", "2220": "\u0120joke", "2221": "\u0120moon", "2222": "\u0120taste", "2223": "\u0120machine", "2224": "\u0120grumpy", "2225": "den", "2226": "\u0120wave", "2227": "\u0120thin", "2228": "\u0120drive", "2229": "\u0120cart", "2230": "\u0120ash", "2231": "\u0120ser", "2232": "\u0120grab", "2233": "\u0120peace", "2234": "lower", "2235": "\u0120daddy", "2236": "\u0120On", "2237": "\u0120Leo", "2238": "ery", "2239": "\u0120sel", "2240": "\u0120shelf", "2241": "\u0120hidden", "2242": "erest", "2243": "\u0120suddenly", "2244": "\u0120wasn", "2245": "\u0120write", "2246": "\u0120landed", "2247": "\u0120confused", "2248": "\u0120ring", "2249": "\u0120change", "2250": "\u0120worm", "2251": "\u0120interest", "2252": "\u0120chased", "2253": "oop", "2254": "\u0120fruits", "2255": "\u0120sour", "2256": "ity", "2257": "\u0120myster", "2258": "\u0120bark", "2259": "\u0120rad", "2260": "\u0120smooth", "2261": "\u0120Come", "2262": "\u0120adventures", "2263": "\u0120val", "2264": "\u0120stepped", "2265": "\u0120fle", "2266": "ope", "2267": "\u0120oven", "2268": "\u0120takes", "2269": "\u0120missed", "2270": "\u0120selfish", "2271": "kin", "2272": "\u0120sheep", "2273": "\u0120messy", "2274": "To", "2275": "\u0120across", "2276": "\u0120ban", "2277": "\u0120ent", "2278": "\u0120exp", "2279": "to", "2280": "\u0120ce", "2281": "\u0120later", "2282": "elly", "2283": "\u0120N", "2284": "ife", "2285": "\u0120sticks", "2286": "\u0120tie", "2287": "St", "2288": "ever", "2289": "\u0120Luna", "2290": "\u0120step", "2291": "\u0120bought", "2292": "\u0120drew", "2293": "\u0120tea", "2294": "pect", "2295": "irpy", "2296": "box", "2297": "?\u00e2\u0122\u013f", "2298": "\u0120wash", "2299": "\u0120lay", "2300": "\u0120pour", "2301": "\u0120beak", "2302": "ose", "2303": "\u0120jog", "2304": "\u0120grate", "2305": "\u0120ducks", "2306": "\u0120spe", "2307": "\u0120legs", "2308": "\u0120dig", "2309": "\u0120fil", "2310": "\u0120Bu", "2311": "\u0120emp", "2312": "mer", "2313": "\u0120hope", "2314": "\u0120empty", "2315": "\u0120slid", "2316": "\u0120feather", "2317": "\u0120sleepy", "2318": "\u0120drum", "2319": "amed", "2320": "ars", "2321": "eth", "2322": "\u0120zoo", "2323": "\u0120pan", "2324": "\u0120phone", "2325": "\u0120grateful", "2326": "\u0120fing", "2327": "ions", "2328": "\u0120lemon", "2329": "let", "2330": "\u0120Cat", "2331": "\u0120clever", "2332": "\u0120Molly", "2333": "\u0120smelly", "2334": "nan", "2335": "\u0120imag", "2336": "\u0120splash", "2337": "\u0120interesting", "2338": "\u0120Jill", "2339": "\u0120save", "2340": "\u0120chick", "2341": "\u0120calm", "2342": "\u0120med", "2343": "\u0120watching", "2344": "Soon", "2345": "izzy", "2346": "izz", "2347": "\u0120plate", "2348": "\u0120ign", "2349": "yard", "2350": "\u0120clouds", "2351": "\u0120line", "2352": "\u0120faces", "2353": "\u0120ba", "2354": "\u0120act", "2355": "\u0120lift", "2356": "\u0120though", "2357": "\u0120wolf", "2358": "\u0120backyard", "2359": "wel", "2360": "\u0120seemed", "2361": "\u0120dogs", "2362": "\u0120spray", "2363": "Come", "2364": "\u0120prot", "2365": "\u0120whole", "2366": "\u0120mot", "2367": "\u0120fancy", "2368": "\u0120Daddy", "2369": "\u0120quest", "2370": "\u0120arms", "2371": "\u0120puzzle", "2372": "\u0120healthy", "2373": "\u0120supp", "2374": "ward", "2375": "\u0120finish", "2376": "erly", "2377": "\u0120along", "2378": "llo", "2379": "\u0120rocket", "2380": "\u0120explain", "2381": "\u0120rod", "2382": "dge", "2383": "\u0120easy", "2384": "\u0120jewel", "2385": "ont", "2386": "\u0120pract", "2387": "\u0120jelly", "2388": "\u0120Chirpy", "2389": "\u0120tid", "2390": "\u0120fake", "2391": "\u0120crayons", "2392": "\u0120wondered", "2393": "\u0120maybe", "2394": "\u0120scar", "2395": "\u0120ship", "2396": "\u0120nothing", "2397": "onest", "2398": "\u0120emb", "2399": "iger", "2400": "\u0120pool", "2401": "\u0120longer", "2402": "\u0120anyone", "2403": "\u0120Be", "2404": "\u0120Jerry", "2405": "ually", "2406": "\u0120front", "2407": "\u0120working", "2408": "\u0120gives", "2409": "irr", "2410": "\u0120pack", "2411": "\u0120such", "2412": "\u0120Bunny", "2413": "ocked", "2414": "ment", "2415": "\u0120bossy", "2416": "\u0120Doggy", "2417": "\u0120trouble", "2418": "\u0120smelled", "2419": "\u0120saved", "2420": "\u0120pin", "2421": "rass", "2422": "\u0120neigh", "2423": "arrass", "2424": "iting", "2425": "\u0120honest", "2426": "\u0120av", "2427": "arge", "2428": "\u0120embarrass", "2429": "\u0120van", "2430": "\u0120forgive", "2431": "\u0120tidy", "2432": "\u0120weak", "2433": "urse", "2434": "\u0120puts", "2435": "unk", "2436": "\u0120kick", "2437": "\u0120shirt", "2438": "\u0120With", "2439": "\u0120mind", "2440": "\u0120Ollie", "2441": "\u0120neighb", "2442": "\u0120plants", "2443": "\u0120sol", "2444": "\u0120Momo", "2445": "\u0120gently", "2446": "\u0120cozy", "2447": "orrow", "2448": "ming", "2449": "\u0120explor", "2450": "sp", "2451": "\u0120mistake", "2452": "\u0120yog", "2453": "oc", "2454": "oomy", "2455": "\u0120pointed", "2456": "\u0120lad", "2457": "\u0120af", "2458": "\u0120stood", "2459": "ork", "2460": "\u0120onto", "2461": "\u0120waiting", "2462": "\u0120jumping", "2463": "\u0120prince", "2464": "\u0120cross", "2465": "\u0120lock", "2466": "\u0120cheer", "2467": "\u0120queen", "2468": "\u0120Why", "2469": "\u0120Mary", "2470": "\u0120wing", "2471": "ones", "2472": "we", "2473": "\u0120large", "2474": "\u0120lovely", "2475": "ult", "2476": "\u0120sur", "2477": "\u0120ret", "2478": "And", "2479": "\u0120deer", "2480": "\u0120chew", "2481": "\u0120couch", "2482": "\u0120bal", "2483": "aughter", "2484": "\u0120stret", "2485": "era", "2486": "\u0120Their", "2487": "\u0120places", "2488": "\u0120My", "2489": "\u0120ladder", "2490": "oof", "2491": "\u0120return", "2492": "raid", "2493": "\u0120ants", "2494": "\u0120dish", "2495": "\u0120afraid", "2496": "\u0120cleaned", "2497": "\u0120tomorrow", "2498": "\u0120building", "2499": "\u0120sandwich", "2500": "\u0120person", "2501": "Sally", "2502": "ned", "2503": "\u0120pretended", "2504": "\u0120bounce", "2505": "\u0120wip", "2506": "gest", "2507": "\u0120match", "2508": "\u0120rich", "2509": "uce", "2510": "\u0120pizz", "2511": "\u0120gather", "2512": "\u0120search", "2513": "\u0120boring", "2514": "oman", "2515": "\u0120Somet", "2516": "\u0120teeth", "2517": "\u0120hum", "2518": "Kitty", "2519": "My", "2520": "aced", "2521": "\u0120daughter", "2522": "\u0120woman", "2523": "\u0120scarf", "2524": "\u0120goes", "2525": "\u0120Together", "2526": "\u0120law", "2527": "\u0120stra", "2528": "\u0120swimming", "2529": "\u0120furry", "2530": "\u0120splashed", "2531": "\u0120pri", "2532": "\u0120loves", "2533": "\u0120true", "2534": "\u0120screamed", "2535": "\u0120lazy", "2536": "\u0120gen", "2537": "\u0120answer", "2538": "\u0120number", "2539": "\u0120eag", "2540": "\u0120ashamed", "2541": "\u0120pizza", "2542": "aw", "2543": "\u0120appeared", "2544": "\u0120fear", "2545": "\u0120nearby", "2546": "\u0120powerful", "2547": "\u0120flag", "2548": "\u0120St", "2549": "\u0120hang", "2550": "vous", "2551": "\u0120clown", "2552": "ek", "2553": "\u0120chase", "2554": "\u0120motor", "2555": "\u0120wand", "2556": "\u0120TV", "2557": "\u0120rub", "2558": "\u0120success", "2559": "\u0120chocol", "2560": "\u0120If", "2561": "\u0120creative", "2562": "\u0120trust", "2563": "\u0120wearing", "2564": "\u0120noisy", "2565": "\u0120matter", "2566": "pa", "2567": "\u0120hello", "2568": "\u0120ner", "2569": "\u0120tool", "2570": "\u0120saf", "2571": "\u0120Bird", "2572": "ado", "2573": "\u0120nervous", "2574": "elp", "2575": "\u0120test", "2576": "\u0120smiling", "2577": "\u0120sold", "2578": "icked", "2579": "oppy", "2580": "osaur", "2581": "\u0120circle", "2582": "mb", "2583": "\u0120map", "2584": "\u0120drank", "2585": "\u0120class", "2586": "\u0120tries", "2587": "\u0120chocolate", "2588": "\u0120Please", "2589": "\u0120impress", "2590": "\u0120knee", "2591": "\u0120gener", "2592": "\u0120dinosaur", "2593": "\u0120polite", "2594": "\u0120mirr", "2595": "\u0120Bobby", "2596": "\u0120Tiny", "2597": "\u0120balloons", "2598": "\u0120gold", "2599": "\u0120rare", "2600": "\u0120protect", "2601": "\u0120cand", "2602": "Stop", "2603": "\u0120carried", "2604": "\u0120Go", "2605": "ensive", "2606": "\u0120ap", "2607": "\u0120shadow", "2608": "\u0120mirror", "2609": "gled", "2610": "\u0120Don", "2611": "\u0120bald", "2612": "\u0120gun", "2613": "ina", "2614": "\u0120expensive", "2615": "\u0120reg", "2616": "iff", "2617": "\u0120mysterious", "2618": "\u0120Sp", "2619": "\u0120pump", "2620": "\u0120note", "2621": "\u0120hero", "2622": "\u0120march", "2623": "\u0120har", "2624": "arl", "2625": "\u0120icy", "2626": "\u0120respect", "2627": "\u0120weird", "2628": "\u0120snee", "2629": "\u0120cri", "2630": "\u0120gate", "2631": "\u0120soap", "2632": "ute", "2633": "issors", "2634": "\u0120these", "2635": "\u0120poor", "2636": "\u0120towel", "2637": "\u0120whale", "2638": "\u0120feet", "2639": "\u0120tape", "2640": "\u0120dizzy", "2641": "itter", "2642": "\u0120generous", "2643": "ndpa", "2644": "\u0120pres", "2645": "\u0120Benny", "2646": "nic", "2647": "\u0120disco", "2648": "Help", "2649": "ventually", "2650": "\u0120picnic", "2651": "\u0120mic", "2652": "\u0120lead", "2653": "\u0120sque", "2654": "\u0120embarrassed", "2655": "\u0120journey", "2656": "\u0120sugar", "2657": "isp", "2658": "scape", "2659": "\u0120boot", "2660": "\u0120tent", "2661": "\u0120peaceful", "2662": "\u0120fat", "2663": "\u0120Bear", "2664": "\u0120scissors", "2665": "\u0120tasted", "2666": "\u0120yelled", "2667": "Tommy", "2668": "\u0120tick", "2669": "\u0120mel", "2670": "\u0120brush", "2671": "\u0120dancing", "2672": "ness", "2673": "\u0120glue", "2674": "\u0120hur", "2675": "\u0120rough", "2676": "\u0120clap", "2677": "\u0120bridge", "2678": "ote", "2679": "\u0120decor", "2680": "\u0120closet", "2681": "\u0120crown", "2682": "\u0120stir", "2683": "ual", "2684": "imp", "2685": "\u0120print", "2686": "\u0120Sometimes", "2687": "owed", "2688": "airs", "2689": "\u0120How", "2690": "ume", "2691": "\u0120cap", "2692": "\u0120mod", "2693": "\u0120lamp", "2694": "\u0120vase", "2695": "\u0120scare", "2696": "\u0120gig", "2697": "lebr", "2698": "\u0120relie", "2699": "lves", "2700": "any", "2701": "\u0120eld", "2702": "\u0120tele", "2703": "\u0120celebr", "2704": "\u0120whisp", "2705": "\u0120log", "2706": "\u0120sco", "2707": "\u0120blow", "2708": "rag", "2709": "\u0120painted", "2710": "\u0120Ducky", "2711": "\u0120pay", "2712": "erries", "2713": "\u0120wis", "2714": "\u0120berries", "2715": "\u0120mixed", "2716": "\u0120spread", "2717": "\u0120wouldn", "2718": "\u0120cage", "2719": "\u0120bake", "2720": "rob", "2721": "getable", "2722": "\u0120mountain", "2723": "\u0120adm", "2724": "\u0120drawing", "2725": "\u0120become", "2726": "\u0120famous", "2727": "\u0120knocked", "2728": "\u0120bean", "2729": "\u0120norm", "2730": "\u0120vegetable", "2731": "asp", "2732": "\u0120kicked", "2733": "ustr", "2734": "\u0120shark", "2735": "ser", "2736": "\u0120incred", "2737": "\u0120lose", "2738": "\u0120normal", "2739": "\u0120wrap", "2740": "ced", "2741": "\u0120group", "2742": "\u0120thick", "2743": "\u01203", "2744": "\u0120fine", "2745": "\u0120glass", "2746": "\u0120ignor", "2747": "\u0120clock", "2748": "\u0120team", "2749": "\u0120elderly", "2750": "\u0120clear", "2751": "\u0120corner", "2752": "\u0120frustr", "2753": "\u0120mighty", "2754": "robe", "2755": "\u0120cone", "2756": "\u0120incredible", "2757": "\u0120Br", "2758": "ighed", "2759": "Dad", "2760": "\u0120moms", "2761": "\u0120balance", "2762": "\u0120sock", "2763": "\u0120space", "2764": "\u0120jam", "2765": "ragile", "2766": "\u0120fright", "2767": "\u0120organized", "2768": "\u0120branches", "2769": "\u0120roar", "2770": "port", "2771": "\u0120sword", "2772": "alous", "2773": "\u0120Mama", "2774": "\u0120guess", "2775": "\u0120fool", "2776": "\u0120sell", "2777": "\u0120feed", "2778": "\u0120Some", "2779": "\u0120which", "2780": "\u0120horn", "2781": "\u0120present", "2782": "\u0120jealous", "2783": "\u0120yarn", "2784": "ony", "2785": "\u0120fragile", "2786": "\u0120burn", "2787": "\u0120understood", "2788": "\u0120mis", "2789": "\u0120stubb", "2790": "\u0120ter", "2791": "\u0120frustrated", "2792": "Where", "2793": "ray", "2794": "\u0120hose", "2795": "cient", "2796": "\u0120spent", "2797": "\u0120shoe", "2798": "\u0120taught", "2799": "\u0120stubborn", "2800": "\u0120twist", "2801": "\u0120chan", "2802": "\u0120creature", "2803": "\u0120chest", "2804": "\u0120spoiled", "2805": "\u0120relieved", "2806": "ym", "2807": "\u0120ancient", "2808": "ique", "2809": "\u0120wake", "2810": "\u0120fier", "2811": "\u0120pray", "2812": "\u0120fierce", "2813": "\u0120eggs", "2814": "\u0120cab", "2815": "\u0120terri", "2816": "\u0120barn", "2817": "\u0120ord", "2818": "\u0120pumpkin", "2819": "\u0120comfortable", "2820": "\u0120frightened", "2821": "orry", "2822": "\u0120toug", "2823": "\u0120unique", "2824": "\u0120measure", "2825": "\u0120goat", "2826": "\u0120wagon", "2827": "\u0120unus", "2828": "\u0120breath", "2829": "\u0120foolish", "2830": "\u0120useful", "2831": "\u0120exploring", "2832": "dle", "2833": "\u0120straw", "2834": "\u0120unusual", "2835": "\u0120dug", "2836": "\u0120clay", "2837": "\u0120discover", "2838": "\u0120tomato", "2839": "\u0120Pe", "2840": "\u0120dead", "2841": "\u0120finding", "2842": "\u0120police", "2843": "\u0120wrote", "2844": "\u0120clum", "2845": "\u0120exam", "2846": "lace", "2847": "\u0120waves", "2848": "\u0120square", "2849": "\u0120hears", "2850": "\u0120cabin", "2851": "\u0120tells", "2852": "\u0120necklace", "2853": "\u0120dull", "2854": "\u0120clumsy", "2855": "\u0120tough", "2856": "\u0120bubbles", "2857": "\u0120nosy", "2858": "kn", "2859": "\u0120searched", "2860": "Together", "2861": "\u0120washed", "2862": "\u0120bathroom", "2863": "\u0120paws", "2864": "bby", "2865": "ond", "2866": "unn", "2867": "\u0120board", "2868": "fic", "2869": "known", "2870": "\u0120asking", "2871": "\u0120crazy", "2872": "\u0120thankful", "2873": "\u0120sunf", "2874": "\u0120bitter", "2875": "yal", "2876": "\u0120pir", "2877": "berry", "2878": "alk", "2879": "\u0120ind", "2880": "\u0120diffic", "2881": "\u0120rose", "2882": "cil", "2883": "\u0120swan", "2884": "\u0120bloom", "2885": "\u0120unknown", "2886": "\u0120Ella", "2887": "\u0120covered", "2888": "\u0120difficult", "2889": "\u0120add", "2890": "\u0120pencil", "2891": "\u0120finger", "2892": "\u0120ham", "2893": "\u0120hoop", "2894": "\u0120jet", "2895": "\u0120witch", "2896": "\u0120drop", "2897": "Me", "2898": "\u0120'", "2899": "\u0120chicken", "2900": "\u0120gloomy", "2901": "apped", "2902": "\u0120loyal", "2903": "als", "2904": "Here", "2905": "\u0120wealthy", "2906": "com", "2907": "light", "2908": "\u0120unl", "2909": "\u0120cats", "2910": "\u0120ending", "2911": "\u0120guit", "2912": "bled", "2913": "shine", "2914": "\u0120dove", "2915": "\u0120joined", "2916": "\u0120cher", "2917": "anut", "2918": "\u0120mov", "2919": "\u0120terrible", "2920": "\u0120yours", "2921": "iant", "2922": "\u0120U", "2923": "\u0120Rex", "2924": "\u0120salad", "2925": "\u0120Andy", "2926": "\u0120nuts", "2927": "\u0120rat", "2928": "ground", "2929": "\u0120tiger", "2930": "\u0120potato", "2931": "\u0120mask", "2932": "xible", "2933": "selves", "2934": "\u0120value", "2935": "\u0120changed", "2936": "\u0120moving", "2937": "\u0120exciting", "2938": "ormous", "2939": "\u0120Many", "2940": "\u0120body", "2941": "\u0120Tr", "2942": "\u0120toast", "2943": "erp", "2944": "\u0120zip", "2945": "\u0120disg", "2946": "\u0120cheap", "2947": "\u0120guitar", "2948": "irsty", "2949": "\u0120knowing", "2950": "\u0120adventur", "2951": "\u0120yourself", "2952": "\u0120enormous", "2953": "\u0120hairy", "2954": "Every", "2955": "\u0120shoot", "2956": "\u0120Brown", "2957": "\u0120bored", "2958": "\u0120pepper", "2959": "\u0120remind", "2960": "ory", "2961": "land", "2962": "\u0120acorn", "2963": "\u0120adventurous", "2964": "\u0120sunshine", "2965": "\u0120smaller", "2966": "\u0120stuff", "2967": "\u0120hats", "2968": "\u0120solve", "2969": "\u0120Jimmy", "2970": "\u0120flexible", "2971": "\u0120cost", "2972": "rilliant", "2973": "\u0120knife", "2974": "\u0120perform", "2975": "\u0120snacks", "2976": "\u0120nods", "2977": "\u0120shore", "2978": "\u0120brilliant", "2979": "\u0120thirsty", "2980": "\u0120delicate", "2981": "\u0120frown", "2982": "\u0120disgust", "2983": "\u0120collect", "2984": "\u0120stri", "2985": "\u0120seeds", "2986": "\u0120counted", "2987": "\u0120asleep", "2988": "\u0120banana", "2989": "reen", "2990": "\u0120mailbox", "2991": "iness", "2992": "\u0120dough", "2993": "\u0120trick", "2994": "\u0120neighbor", "2995": "ungle", "2996": "\u0120heal", "2997": "live", "2998": "Who", "2999": "\u0120stage", "3000": "ident", "3001": "\u0120market", "3002": "\u0120cube", "3003": "\u0120stat", "3004": "\u0120jungle", "3005": "\u0120squee", "3006": "mbre", "3007": "\u0120explained", "3008": "ates", "3009": "\u0120umbre", "3010": "\u0120disgusting", "3011": "Jim", "3012": "fted", "3013": "\u0120lab", "3014": "\u0120jolly", "3015": "\u0120flash", "3016": "und", "3017": "\u0120fridge", "3018": "inal", "3019": "pid", "3020": "ilt", "3021": "\u0120crane", "3022": "corn", "3023": "\u0120suit", "3024": "\u0120rh", "3025": "iddle", "3026": "\u0120sunflower", "3027": "\u0120times", "3028": "\u0120Al", "3029": "erpill", "3030": "\u0120caterpill", "3031": "\u0120relax", "3032": "\u0120shiver", "3033": "\u0120four", "3034": "\u0120island", "3035": "iginal", "3036": "\u0120harm", "3037": "ict", "3038": "\u0120While", "3039": "ying", "3040": "\u0120stupid", "3041": "\u0120medic", "3042": "\u0120Instead", "3043": "\u0120comb", "3044": "\u0120goose", "3045": "\u0120cro", "3046": "edient", "3047": "\u0120Will", "3048": "\u0120stove", "3049": "If", "3050": "Are", "3051": "\u0120independ", "3052": "Mum", "3053": "most", "3054": "\u0120spring", "3055": "\u0120gem", "3056": "\u0120batter", "3057": "\u0120sighed", "3058": "\u0120vegetables", "3059": "\u0120stones", "3060": "pes", "3061": "\u0120shine", "3062": "How", "3063": "\u0120medicine", "3064": "\u0120depend", "3065": "\u0120rug", "3066": "\u0120Your", "3067": "\u0120careless", "3068": "\u0120original", "3069": "\u0120stamp", "3070": "\u0120gar", "3071": "\u0120cries", "3072": "Inside", "3073": "gu", "3074": "\u0120carrots", "3075": "\u0120scr", "3076": "\u0120successful", "3077": "\u0120sauce", "3078": "\u0120jeep", "3079": "\u0120popcorn", "3080": "\u0120meal", "3081": "\u0120obedient", "3082": "\u0120almost", "3083": "\u0120middle", "3084": "\u0120magn", "3085": "\u0120study", "3086": "\u0120independent", "3087": "\u0120fearful", "3088": "\u0120jack", "3089": "met", "3090": "inky", "3091": "Sorry", "3092": "\u0120Sammy", "3093": "\u0120escape", "3094": "\u0120caterpillar", "3095": "\u0120serious", "3096": "\u0120peanut", "3097": "\u0120bedroom", "3098": "\u0120eager", "3099": "aken", "3100": "\u0120gets", "3101": "ung", "3102": "\u0120parrot", "3103": "\u0120statue", "3104": "\u0120helmet", "3105": "\u0120pebb", "3106": "\u0120No", "3107": "\u0120fountain", "3108": "\u0120raven", "3109": "\u0120pasta", "3110": "\u0120umbrella", "3111": "\u0120compet", "3112": "There", "3113": "\u0120jacket", "3114": "\u0120belonged", "3115": "\u0120dest", "3116": "\u0120filthy", "3117": "\u0120ang", "3118": "\u0120design", "3119": "\u0120borrow", "3120": "\u0120cam", "3121": "erable", "3122": "\u0120houses", "3123": "\u0120prize", "3124": "\u0120hay", "3125": "\u0120brace", "3126": "\u0120standing", "3127": "\u0120miserable", "3128": "\u0120raced", "3129": "\u0120taken", "3130": "ages", "3131": "\u0120fork", "3132": "\u0120crayon", "3133": "\u0120painting", "3134": "io", "3135": "\u0120triang", "3136": "\u0120jug", "3137": "\u0120impressive", "3138": "\u0120choose", "3139": "\u0120fig", "3140": "\u0120tied", "3141": "iable", "3142": "\u0120spotted", "3143": "\u0120lifted", "3144": "\u0120slipped", "3145": "ours", "3146": "\u0120tank", "3147": "\u0120thoughtful", "3148": "\u0120dependable", "3149": "\u0120steal", "3150": "\u0120garage", "3151": "enny", "3152": "\u0120built", "3153": "\u0120mush", "3154": "\u0120er", "3155": "ipe", "3156": "\u0120mole", "3157": "\u0120crawled", "3158": "\u0120scale", "3159": "\u0120boats", "3160": "\u0120pian", "3161": "\u0120pant", "3162": "\u0120hammer", "3163": "\u0120bottom", "3164": "lph", "3165": "\u0120cheerful", "3166": "\u0120using", "3167": "\u0120smoke", "3168": "\u0120picks", "3169": "\u0120moder", "3170": "berries", "3171": "\u0120shows", "3172": "rn", "3173": "\u0120piano", "3174": "\u0120magnet", "3175": "dile", "3176": "codile", "3177": "\u0120hurts", "3178": "inary", "3179": "\u0120ref", "3180": "\u0120crack", "3181": "\u0120eng", "3182": "\u0120aunt", "3183": "\u0120melon", "3184": "\u0120waff", "3185": "\u0120modern", "3186": "\u0120dolph", "3187": "unnel", "3188": "cream", "3189": "pack", "3190": "\u0120tunnel", "3191": "oin", "3192": "\u0120arrow", "3193": "\u0120reliable", "3194": "\u0120hopping", "3195": "\u0120mushroom", "3196": "Timmy", "3197": "\u0120squash", "3198": "\u0120gum", "3199": "\u0120sink", "3200": "\u0120movie", "3201": "\u0120tax", "3202": "\u0120flute", "3203": "\u0120beet", "3204": "\u0120lean", "3205": "Their", "3206": "iv", "3207": "\u0120popular", "3208": "opter", "3209": "icopter", "3210": "\u0120cryst", "3211": "\u0120ones", "3212": "\u0120sil", "3213": "\u0120competit", "3214": "\u0120helicopter", "3215": "aser", "3216": "\u0120needs", "3217": "ipop", "3218": "llipop", "3219": "\u0120crocodile", "3220": "\u0120liz", "3221": "Molly", "3222": "\u0120press", "3223": "\u0120troubled", "3224": "\u0120pige", "3225": "\u0120locked", "3226": "\u0120tricks", "3227": "\u0120lollipop", "3228": "\u0120playful", "3229": "\u0120humble", "3230": "\u0120taxi", "3231": "\u0120kissed", "3232": "\u0120low", "3233": "appy", "3234": "comfortable", "3235": "amond", "3236": "\u0120uncomfortable", "3237": "\u0120rid", "3238": "host", "3239": "\u0120wander", "3240": "atch", "3241": "\u0120angel", "3242": "edy", "3243": "cles", "3244": "\u0120torn", "3245": "\u0120grace", "3246": "\u0120anx", "3247": "\u0120wrapped", "3248": "\u0120muff", "3249": "\u0120twig", "3250": "\u0120pants", "3251": "\u0120disappoin", "3252": "\u0120Sn", "3253": "\u0120helps", "3254": "\u0120diamond", "3255": "\u0120camera", "3256": "atter", "3257": "oto", "3258": "\u0120anxious", "3259": "\u0120ghost", "3260": "\u0120tears", "3261": "\u0120ruined", "3262": "cident", "3263": "\u0120Jenny", "3264": "ilty", "3265": "\u0120quar", "3266": "aff", "3267": "\u0120Even", "3268": "\u0120fis", "3269": "opl", "3270": "\u0120belt", "3271": "eropl", "3272": "\u0120env", "3273": "\u0120guilty", "3274": "\u0120bull", "3275": "\u0120aeropl", "3276": "\u0120helpless", "3277": "\u0120happiness", "3278": "\u0120lizard", "3279": "\u0120boys", "3280": "cut", "3281": "ext", "3282": "\u0120cere", "3283": "\u0120walks", "3284": "cean", "3285": "\u0120passed", "3286": "\u0120meant", "3287": "\u0120ocean", "3288": "\u0120fluffy", "3289": "\u0120wire", "3290": "\u0120nail", "3291": "\u0120bracelet", "3292": "\u0120deaf", "3293": "zed", "3294": "\u0120stretch", "3295": "\u0120candle", "3296": "\u0120cact", "3297": "tt", "3298": "\u0120beetle", "3299": "\u0120mop", "3300": "\u0120harmless", "3301": "umpet", "3302": "\u0120ordinary", "3303": "\u0120answered", "3304": "\u0120collar", "3305": "\u0120cop", "3306": "\u0120bees", "3307": "\u0120tire", "3308": "\u0120shape", "3309": "\u0120quarrel", "3310": "\u0120radio", "3311": "\u0120flashlight", "3312": "\u0120crystal", "3313": "\u0120harder", "3314": "\u0120poured", "3315": "\u0120trumpet", "3316": "\u0120engine", "3317": "Mama", "3318": "\u0120persist", "3319": "\u0120hunt", "3320": "\u0120tooth", "3321": "\u0120cereal", "3322": "\u0120invited", "3323": "\u0120comput", "3324": "\u0120tag", "3325": "\u0120office", "3326": "\u0120melt", "3327": "\u0120spill", "3328": "\u0120charm", "3329": "coa", "3330": "\u0120lit", "3331": "\u0120scoot", "3332": "\u0120comet", "3333": "\u0120triangle", "3334": "ief", "3335": "\u0120mug", "3336": "\u0120rep", "3337": "ube", "3338": "\u0120yogurt", "3339": "\u0120spend", "3340": "\u0120compass", "3341": "\u0120accident", "3342": "\u0120shade", "3343": "hett", "3344": "aghett", "3345": "aghetti", "3346": "\u0120disappointed", "3347": "\u0120licked", "3348": "\u0120cactus", "3349": "\u0120pale", "3350": "\u0120cush", "3351": "\u0120figure", "3352": "\u0120regular", "3353": "\u0120giving", "3354": "\u0120avoc", "3355": "\u0120pro", "3356": "\u0120sheet", "3357": "\u0120whispered", "3358": "aze", "3359": "uth", "3360": "ellig", "3361": "\u0120create", "3362": "\u0120record", "3363": "\u0120barber", "3364": "\u0120intellig", "3365": "\u0120pipe", "3366": "\u0120rode", "3367": "\u0120roof", "3368": "Jane", "3369": "\u0120thread", "3370": "ither", "3371": "\u0120vi", "3372": "\u0120load", "3373": "\u0120libr", "3374": "\u0120gifted", "3375": "ccol", "3376": "\u0120practiced", "3377": "\u0120delight", "3378": "ccoli", "3379": "\u0120harsh", "3380": "asses", "3381": "\u0120pow", "3382": "\u0120dust", "3383": "\u0120True", "3384": "\u0120bicy", "3385": "azz", "3386": "\u0120spaghetti", "3387": "\u0120compassion", "3388": "\u0120sailed", "3389": "urkey", "3390": "ubby", "3391": "\u0120forward", "3392": "\u0120persistent", "3393": "\u0120speed", "3394": "\u0120mitten", "3395": "\u0120cocoa", "3396": "\u0120envel", "3397": "\u0120questions", "3398": "\u0120computer", "3399": "\u0120coo", "3400": "\u0120feathers", "3401": "hip", "3402": "\u0120glove", "3403": "Bobo", "3404": "\u0120rice", "3405": "\u0120shrimp", "3406": "\u0120desk", "3407": "\u0120stream", "3408": "\u0120inse", "3409": "\u0120pigeon", "3410": "\u0120charming", "3411": "\u0120ears", "3412": "\u0120carp", "3413": "lcan", "3414": "\u0120raft", "3415": "\u0120envious", "3416": "\u0120knot", "3417": "\u0120turkey", "3418": "ud", "3419": "\u0120stronger", "3420": "omes", "3421": "\u0120coins", "3422": "\u0120tap", "3423": "lcano", "3424": "weet", "3425": "\u0120trap", "3426": "umbers", "3427": "\u0120aeroplane", "3428": "\u0120trunk", "3429": "\u0120wheat", "3430": "\u0120boxes", "3431": "\u0120chubby", "3432": "\u0120carpet", "3433": "\u0120restless", "3434": "\u0120intelligent", "3435": "\u0120tube", "3436": "\u0120spun", "3437": "\u0120dreams", "3438": "\u0120friendship", "3439": "ulif", "3440": "olin", "3441": "\u0120half", "3442": "\u0120loop", "3443": "\u0120crawl", "3444": "\u0120broccoli", "3445": "\u0120onion", "3446": "\u0120deliver", "3447": "\u0120acce", "3448": "anger", "3449": "\u0120vide", "3450": "\u0120volcano", "3451": "\u0120Jake", "3452": "\u0120sle", "3453": "\u0120track", "3454": "\u0120bri", "3455": "\u0120caulif", "3456": "\u0120vine", "3457": "ye", "3458": "\u0120ticket", "3459": "\u0120thief", "3460": "essie", "3461": "cycle", "3462": "\u0120louder", "3463": "\u0120insect", "3464": "\u0120numbers", "3465": "asing", "3466": "\u0120yaw", "3467": "\u0120haircut", "3468": "ital", "3469": "\u0120sleeping", "3470": "ugg", "3471": "\u0120mill", "3472": "\u0120eventually", "3473": "\u0120alert", "3474": "\u0120excite", "3475": "\u0120pebble", "3476": "\u0120hosp", "3477": "\u0120attract", "3478": "\u0120planet", "3479": "\u0120Today", "3480": "\u0120univer", "3481": "isted", "3482": "ulu", "3483": "\u0120hospital", "3484": "\u0120eraser", "3485": "\u0120returned", "3486": "\u0120destro", "3487": "\u0120graceful", "3488": "\u0120happening", "3489": "ache", "3490": "\u0120OK", "3491": "\u0120Emily", "3492": "\u0120decide", "3493": "\u0120learning", "3494": "\u0120screen", "3495": "rework", "3496": "\u0120nicely", "3497": "\u0120leop", "3498": "\u0120cauliflower", "3499": "\u0120competitive", "3500": "\u0120poem", "3501": "\u0120celebrate", "3502": "\u0120curt", "3503": "\u0120peach", "3504": "\u0120soldier", "3505": "\u0120saus", "3506": "\u0120parade", "3507": "atient", "3508": "\u0120attractive", "3509": "\u0120curtain", "3510": "\u0120dolphin", "3511": "\u0120base", "3512": "\u0120violin", "3513": "\u0120ways", "3514": "Go", "3515": "ats", "3516": "\u0120travel", "3517": "ten", "3518": "\u0120ignorant", "3519": "ulb", "3520": "\u0120wheels", "3521": "\u0120yach", "3522": "\u0120scatter", "3523": "\u0120deter", "3524": "\u0120compassionate", "3525": "\u0120barrel", "3526": "\u0120envelope", "3527": "\u0120bubble", "3528": "\u0120lying", "3529": "\u0120firework", "3530": "\u0120sort", "3531": "\u0120question", "3532": "zzy", "3533": "\u0120Pipp", "3534": "\u0120scooter", "3535": "\u0120determ", "3536": "\u0120rag", "3537": "\u0120bicycle", "3538": "elery", "3539": "\u0120needle", "3540": "\u0120Fr", "3541": "\u0120judge", "3542": "\u0120bulb", "3543": "\u0120leopard", "3544": "\u0120tem", "3545": "\u0120yacht", "3546": "\u0120pony", "3547": "\u0120cricket", "3548": "\u0120order", "3549": "\u0120homes", "3550": "\u0120ador", "3551": "tern", "3552": "\u0120truth", "3553": "\u0120hook", "3554": "dom", "3555": "\u0120rubbed", "3556": "ete", "3557": "igator", "3558": "\u0120bushes", "3559": "Sarah", "3560": "\u0120uncle", "3561": "\u0120cushion", "3562": "\u0120spell", "3563": "\u0120grown", "3564": "\u0120cooked", "3565": "\u0120adorable", "3566": "\u0120chalk", "3567": "\u0120soar", "3568": "\u0120purse", "3569": "\u0120skin", "3570": "\u0120themselves", "3571": "\u0120impatient", "3572": "\u0120celery", "3573": "\u0120tray", "3574": "\u0120shells", "3575": "\u0120pengu", "3576": "\u0120sniff", "3577": "\u0120prun", "3578": "\u0120walls", "3579": "\u0120seal", "3580": "\u0120lively", "3581": "\u0120case", "3582": "\u0120alligator", "3583": "\u0120distant", "3584": "\u0120radish", "3585": "\u0120saying", "3586": "\u0120speak", "3587": "\u0120motorcycle", "3588": "\u0120meat", "3589": "\u0120send", "3590": "illa", "3591": "\u0120spinning", "3592": "\u0120forth", "3593": "\u0120counting", "3594": "\u0120enth", "3595": "\u0120bounced", "3596": "\u0120chain", "3597": "\u0120ed", "3598": "\u0120cleaning", "3599": "ebra", "3600": "\u0120film", "3601": "\u0120slept", "3602": "\u0120pit", "3603": "\u0120surf", "3604": "\u0120marry", "3605": "usia", "3606": "\u0120wallet", "3607": "\u0120enthusia", "3608": "\u0120metal", "3609": "urb", "3610": "ebook", "3611": "\u0120bin", "3612": "\u0120week", "3613": "\u0120notebook", "3614": "\u0120wiped", "3615": "\u0120skip", "3616": "ision", "3617": "chair", "3618": "\u0120biggest", "3619": "\u0120impro", "3620": "\u0120avocado", "3621": "\u0120behave", "3622": "\u0120destroy", "3623": "vator", "3624": "\u0120bandage", "3625": "\u0120laughs", "3626": "\u0120steak", "3627": "\u0120pattern", "3628": "\u0120Sh", "3629": "\u0120post", "3630": "\u0120elevator", "3631": "\u0120Buzz", "3632": "usie", "3633": "\u0120dive", "3634": "\u0120shut", "3635": "\u0120skipped", "3636": "\u0120unlock", "3637": "\u0120diary", "3638": "ject", "3639": "\u0120zebra", "3640": "\u0120bags", "3641": "ating", "3642": "\u0120armchair", "3643": "rage", "3644": "aged", "3645": "under", "3646": "\u0120disturb", "3647": "\u0120oy", "3648": "\u0120pole", "3649": "\u0120showing", "3650": "\u0120gathered", "3651": "\u0120club", "3652": "\u0120nurse", "3653": "bul", "3654": "\u0120earth", "3655": "\u0120enc", "3656": "\u0120stranger", "3657": "\u0120sweater", "3658": "\u0120jellyfish", "3659": "\u0120screw", "3660": "\u0120temp", "3661": "\u0120Poppy", "3662": "\u0120compl", "3663": "\u0120mixer", "3664": "Give", "3665": "\u0120skull", "3666": "\u0120lime", "3667": "\u0120bump", "3668": "bulance", "3669": "\u0120ambulance", "3670": "nam", "3671": "\u0120father", "3672": "\u0120journal", "3673": "Gra", "3674": "\u0120loudly", "3675": "ito", "3676": "\u0120folder", "3677": "\u0120shield", "3678": "\u0120Bet", "3679": "\u0120Lulu", "3680": "\u0120library", "3681": "\u0120Peter", "3682": "\u0120buttons", "3683": "\u0120playground", "3684": "\u0120trucks", "3685": "\u0120ink", "3686": "\u0120lights", "3687": "\u0120tummy", "3688": "\u0120pointing", "3689": "\u0120city", "3690": "\u0120decorate", "3691": "\u0120station", "3692": "irit", "3693": "\u0120prep", "3694": "\u0120falls", "3695": "quito", "3696": "\u0120Polly", "3697": "Billy", "3698": "\u0120Fo", "3699": "\u0120fu", "3700": "ention", "3701": "nger", "3702": "\u0120Birdy", "3703": "lies", "3704": "\u0120herb", "3705": "nament", "3706": "\u0120ornament", "3707": "\u0120modest", "3708": "\u0120guard", "3709": "\u0120mos", "3710": "\u0120knows", "3711": "\u0120cord", "3712": "\u0120polish", "3713": "\u0120marble", "3714": "oby", "3715": "\u0120mosquito", "3716": "umbled", "3717": "\u0120salt", "3718": "\u0120attic", "3719": "\u0120whenever", "3720": "\u0120vest", "3721": "ctop", "3722": "\u0120resc", "3723": "\u0120yet", "3724": "\u0120ple", "3725": "\u0120disappeared", "3726": "ceed", "3727": "\u0120strawberry", "3728": "\u0120once", "3729": "\u0120Mum", "3730": "\u0120kay", "3731": "\u0120brothers", "3732": "\u0120itch", "3733": "\u0120pirate", "3734": "\u0120football", "3735": "\u0120split", "3736": "kele", "3737": "keleton", "3738": "\u0120hipp", "3739": "\u0120aut", "3740": "\u0120led", "3741": "uring", "3742": "ctopus", "3743": "\u0120driving", "3744": "\u0120cable", "3745": "\u0120support", "3746": "\u0120calling", "3747": "\u0120cupboard", "3748": "aky", "3749": "ushed", "3750": "\u0120wishes", "3751": "\u0120complet", "3752": "\u0120tripped", "3753": "\u0120root", "3754": "gl", "3755": "\u0120kayak", "3756": "\u0120octopus", "3757": "obile", "3758": "\u0120added", "3759": "\u0120edge", "3760": "\u0120mild", "3761": "stic", "3762": "\u0120determined", "3763": "\u0120succeed", "3764": "?\".", "3765": "\u0120reading", "3766": "omobile", "3767": "\u0120coal", "3768": "Well", "3769": "utes", "3770": "par", "3771": "\u0120suggest", "3772": "\u0120stack", "3773": "\u0120thunder", "3774": "\u0120kindness", "3775": "\u0120automobile", "3776": "\u0120complain", "3777": "\u0120enthusiastic", "3778": "\u0120sneeze", "3779": "\u0120cartoon", "3780": "\u0120yoga", "3781": "\u0120Little", "3782": "\u0120growl", "3783": "htub", "3784": "\u0120flea", "3785": "la", "3786": "\u0120meadow", "3787": "\u0120drawer", "3788": "\u0120bathtub", "3789": "\u0120ribb", "3790": "ophone", "3791": "\u0120means", "3792": "\u0120hall", "3793": "\u0120golf", "3794": "\u0120skeleton", "3795": "\u0120math", "3796": "\u0120veil", "3797": "\u0120hunter", "3798": "\u0120gor", "3799": "\u0120flame", "3800": "\u0120poke", "3801": "\u0120video", "3802": "\u0120chess", "3803": "\u0120troph", "3804": "\u0120cups", "3805": "\u0120glowing", "3806": "\u0120matt", "3807": "\u0120oyster", "3808": "work", "3809": "\u0120penny", "3810": "\u0120spear", "3811": "\u0120itself", "3812": "\u0120drawings", "3813": "\u0120hippo", "3814": "\u0120repair", "3815": "\u0120switch", "3816": "glasses", "3817": "\u0120sunglasses", "3818": "\u0120teleph", "3819": "\u0120costume", "3820": "\u0120dess", "3821": "\u0120zipp", "3822": ",\u00e2\u0122\u013f", "3823": "\u0120repe", "3824": "\u0120muffin", "3825": "\u0120arg", "3826": "\u0120pastry", "3827": "\u0120pun", "3828": "\u0120rolling", "3829": "\u0120minutes", "3830": "\u0120packed", "3831": "\u0120makeup", "3832": "iron", "3833": "ric", "3834": "\u0120People", "3835": "\u0120waffle", "3836": "case", "3837": "\u0120handle", "3838": "\u0120pear", "3839": "\u0120maze", "3840": "\u0120telephone", "3841": "\u0120pine", "3842": "ait", "3843": "\u0120gear", "3844": "\u0120hedge", "3845": "\u0120mattress", "3846": "\u0120package", "3847": "aving", "3848": "\u0120Miss", "3849": "\u0120shocked", "3850": "ines", "3851": "\u0120trophy", "3852": "\u0120powder", "3853": "\u0120knight", "3854": "\u0120cob", "3855": "\u0120missile", "3856": "\u0120managed", "3857": "\u0120frame", "3858": "\u0120encou", "3859": "\u0120wife", "3860": "\u0120ok", "3861": "\u0120separ", "3862": "web", "3863": "\u0120stairs", "3864": "\u0120rot", "3865": "\u0120camp", "3866": "urch", "3867": "rophone", "3868": "\u0120magaz", "3869": "\u0120colour", "3870": "\u0120grapes", "3871": "time", "3872": "\u0120file", "3873": "head", "3874": "\u0120Tina", "3875": "\u0120basketball", "3876": "Bye", "3877": "old", "3878": "per", "3879": "\u0120cobweb", "3880": "Re", "3881": "Jimmy", "3882": "anas", "3883": "\u0120Tweet", "3884": "See", "3885": "\u0120perm", "3886": "\u0120wool", "3887": "\u0120microphone", "3888": "esday", "3889": "\u0120eye", "3890": "\u0120leash", "3891": "\u0120gasp", "3892": "iew", "3893": "keep", "3894": "\u0120weep", "3895": "\u0120barking", "3896": "ature", "3897": "\u0120safely", "3898": "\u0120Dan", "3899": "\u0120tear", "3900": "\u0120view", "3901": "ffe", "3902": "\u0120slides", "3903": "\u0120steps", "3904": "istol", "3905": "ffee", "3906": "\u0120bananas", "3907": "\u0120staff", "3908": "\u0120spirit", "3909": "\u0120task", "3910": "\u0120giggled", "3911": "\u0120hoc", "3912": "\u0120hockey", "3913": "\u0120vend", "3914": "\u0120those", "3915": "\u0120gorilla", "3916": "Jill", "3917": "\u0120cooler", "3918": "\u0120Rose", "3919": "was", "3920": "cing", "3921": "\u0120early", "3922": "\u0120marched", "3923": "rosc", "3924": "\u0120mint", "3925": "\u0120Look", "3926": "washer", "3927": "\u0120flour", "3928": "\u0120hotel", "3929": "hic", "3930": "\u0120sailor", "3931": "\u0120dessert", "3932": "\u0120photo", "3933": "roscope", "3934": "\u0120vehic", "3935": "ilot", "3936": "\u0120often", "3937": "\u0120church", "3938": "\u0120Pete", "3939": "\u0120cooking", "3940": "\u0120remain", "3941": "\u0120five", "3942": "\u0120sausage", "3943": "otter", "3944": "\u0120ten", "3945": "\u0120tools", "3946": "\u0120medal", "3947": "\u0120either", "3948": "\u0120fireman", "3949": "chor", "3950": "\u0120grandpa", "3951": "\u0120otter", "3952": "\u0120baseball", "3953": "\u0120pretending", "3954": "\u0120pistol", "3955": "\u0120dishwasher", "3956": "\u0120rever", "3957": "\u0120organize", "3958": "\u0120pee", "3959": "\u0120vendor", "3960": "\u0120knock", "3961": "\u0120sight", "3962": "\u0120grill", "3963": "\u0120temple", "3964": "\u0120battery", "3965": "\u0120thinking", "3966": "\u0120opens", "3967": "\u0120ow", "3968": "\u0120realised", "3969": "\u0120iron", "3970": "\u0120laser", "3971": "\u0120sne", "3972": "\u0120sandbox", "3973": "\u0120oil", "3974": "\u0120patch", "3975": "\u0120hours", "3976": "\u0120rise", "3977": "\u0120whip", "3978": "'d", "3979": "ctory", "3980": "\u0120Give", "3981": "\u0120anchor", "3982": "\u0120trash", "3983": "ense", "3984": "\u0120short", "3985": "ney", "3986": "\u0120Betty", "3987": "\u0120rhin", "3988": "\u0120factory", "3989": "seum", "3990": "\u0120may", "3991": "\u0120ward", "3992": "ately", "3993": "\u0120cardboard", "3994": "ugged", "3995": "\u0120lotion", "3996": "Al", "3997": "\u0120message", "3998": "\u0120valu", "3999": "\u0120wardrobe", "4000": "\u0120cell", "4001": "\u0120museum", "4002": "apers", "4003": "\u0120ur", "4004": "ination", "4005": "\u0120hanging", "4006": "ucet", "4007": "ailable", "4008": "\u0120Sunny", "4009": "\u0120Zoom", "4010": "\u0120hive", "4011": "eer", "4012": "\u0120towers", "4013": "keeper", "4014": "\u0120blackboard", "4015": "\u0120mem", "4016": "\u0120excitement", "4017": "\u0120coffee", "4018": "\u0120pilot", "4019": "ready", "4020": "Fluffy", "4021": "\u0120napkin", "4022": "\u0120penguin", "4023": "ron", "4024": "\u0120check", "4025": "\u0120reward", "4026": "loo", "4027": "\u0120quit", "4028": "\u0120Pippin", "4029": "\u0120cane", "4030": "\u0120picking", "4031": "place", "4032": "\u0120Snow", "4033": "azor", "4034": "\u0120faucet", "4035": "\u0120ig", "4036": "\u0120passport", "4037": "\u0120Rob", "4038": "\u0120stumbled", "4039": "\u0120dreamed", "4040": "\u0120igloo", "4041": "\u0120Bessie", "4042": "aroo", "4043": "angaroo", "4044": "\u0120freez", "4045": "\u0120juicy", "4046": "\u0120allowed", "4047": "play", "4048": "\u0120holds", "4049": "\u0120already", "4050": "\u0120available", "4051": "\u0120sett", "4052": "\u0120bathe", "4053": "\u0120tornado", "4054": "imney", "4055": "\u0120fingers", "4056": "htray", "4057": "\u0120hanger", "4058": "\u0120newsp", "4059": "\u0120size", "4060": "\u0120laund", "4061": "\u0120lend", "4062": "\u0120chimney", "4063": "\u0120laundry", "4064": "\u0120oak", "4065": "\u0120fisher", "4066": "\u0120kangaroo", "4067": "\u0120men", "4068": "\u0120Everywhere", "4069": "\u0120telling", "4070": "Em", "4071": "\u0120novel", "4072": "body", "4073": "\u0120mummy", "4074": "\u0120pal", "4075": "\u0120mule", "4076": "\u0120cherries", "4077": "\u0120notice", "4078": "\u0120practice", "4079": "\u0120spilled", "4080": "\u0120reind", "4081": "\u0120complete", "4082": "\u0120enjoying", "4083": "\u0120microscope", "4084": "ampoo", "4085": "\u0120gain", "4086": "\u0120sub", "4087": "\u0120fireplace", "4088": "\u0120imagine", "4089": "anda", "4090": "arian", "4091": "\u0120display", "4092": "ocer", "4093": "\u0120Zip", "4094": "\u0120fastest", "4095": "\u0120magazine", "4096": "\u0120hurry", "4097": "\u0120cabinet", "4098": "\u0120shrink", "4099": "\u0120ashtray", "4100": "Wait", "4101": "\u0120cows", "4102": "\u0120Spike", "4103": "Joe", "4104": "gen", "4105": "\u0120palace", "4106": "\u0120improve", "4107": "aches", "4108": "\u0120rake", "4109": "\u0120reindeer", "4110": "\u0120falling", "4111": "oceros", "4112": "\u0120skirt", "4113": "ured", "4114": "\u0120discovered", "4115": "\u0120stared", "4116": "\u0120roared", "4117": "aid", "4118": "\u0120silver", "4119": "\u0120tub", "4120": "\u0120trail", "4121": "Is", "4122": "\u0120miner", "4123": "come", "4124": "\u0120bill", "4125": "iction", "4126": "\u0120fog", "4127": "\u0120ax", "4128": "stairs", "4129": "ilet", "4130": "\u0120hut", "4131": "\u0120happier", "4132": "\u0120taller", "4133": "ictionary", "4134": "\u0120oats", "4135": "\u0120fisherman", "4136": "\u0120object", "4137": "\u0120por", "4138": "vision", "4139": "\u0120valuable", "4140": "\u0120shampoo", "4141": "\u0120holes", "4142": "\u0120offered", "4143": "\u0120boots", "4144": "\u0120rhinoceros", "4145": "\u0120names", "4146": "\u0120toilet", "4147": "\u0120climbing", "4148": "\u0120blin", "4149": "vice", "4150": "Ow", "4151": "\u0120stretched", "4152": "iest", "4153": "\u0120zipper", "4154": "\u0120listening", "4155": "\u0120sym", "4156": "\u0120bathrobe", "4157": "alend", "4158": "\u0120jewelry", "4159": "\u0120Here", "4160": "\u0120jokes", "4161": "\u0120television", "4162": "\u0120prov", "4163": "\u0120calend", "4164": "\u0120stops", "4165": "\u0120axe", "4166": "\u0120jumps", "4167": "\u0120fuel", "4168": "\u0120sparkly", "4169": "cu", "4170": "\u0120perfume", "4171": "\u0120Susie", "4172": "\u0120bury", "4173": "bol", "4174": "Mummy", "4175": "\u0120pressed", "4176": "\u0120Kim", "4177": "reek", "4178": "\u0120rece", "4179": "fa", "4180": "\u0120Toby", "4181": "\u0120neat", "4182": "\u0120creek", "4183": "\u0120popped", "4184": "\u0120opera", "4185": "\u0120calendar", "4186": "\u0120snap", "4187": "\u0120gasped", "4188": "\u0120attach", "4189": "\u0120symbol", "4190": "\u0120Mar", "4191": "\u0120tuna", "4192": "\u0120papers", "4193": "Mr", "4194": "\u0120unpack", "4195": "\u0120resist", "4196": "\u0120dictionary", "4197": "\u0120subway", "4198": "\u0120letters", "4199": "\u0120freezer", "4200": "\u0120chose", "4201": "\u0120pinch", "4202": "zag", "4203": "\u0120spoke", "4204": "\u0120anyway", "4205": "\u0120super", "4206": "\u0120porch", "4207": "\u0120helper", "4208": "affe", "4209": "\u0120bikes", "4210": "\u0120lie", "4211": "arry", "4212": "iches", "4213": "\u0120tightly", "4214": "\u0120comfort", "4215": "\u0120shaking", "4216": "\u0120bookcase", "4217": "\u0120son", "4218": "\u0120razor", "4219": "aurant", "4220": "\u0120sandwiches", "4221": "\u0120Are", "4222": "igzag", "4223": "\u0120weigh", "4224": "\u0120against", "4225": "\u0120stickers", "4226": "\u0120restaurant", "4227": "\u0120newspaper", "4228": "\u0120blouse", "4229": "\u0120vehicle", "4230": "\u0120swinging", "4231": "\u0120disag", "4232": "\u0120ped", "4233": "\u0120nature", "4234": "\u0120squirrels", "4235": "ival", "4236": "\u0120belongs", "4237": "\u0120swamp", "4238": "\u0120incl", "4239": "\u0120butterflies", "4240": "\u0120gym", "4241": "\u0120growing", "4242": "\u0120buckle", "4243": "omed", "4244": "\u0120stirred", "4245": "\u0120mustache", "4246": "\u0120billboard", "4247": "xy", "4248": "\u0120beep", "4249": "te", "4250": "\u0120alarm", "4251": "\u0120lightning", "4252": "\u0120lip", "4253": "\u0120fest", "4254": "\u0120hung", "4255": "utor", "4256": "\u0120distance", "4257": "ogn", "4258": "\u0120cards", "4259": "\u0120obser", "4260": "\u0120agree", "4261": "Little", "4262": "\u0120ext", "4263": "\u0120tease", "4264": "\u0120recogn", "4265": "\u0120rubber", "4266": "ik", "4267": "\u0120hate", "4268": "fast", "4269": "ef", "4270": "Ouch", "4271": "\u0120doesn", "4272": "\u0120musician", "4273": "\u0120advice", "4274": "\u0120beef", "4275": "\u0120serve", "4276": "aspoon", "4277": "\u0120sweetie", "4278": "\u0120model", "4279": "lter", "4280": "\u0120crib", "4281": "\u0120blueberries", "4282": "\u0120sofa", "4283": "\u0120circles", "4284": "\u0120breakfast", "4285": "\u0120tutor", "4286": "asis", "4287": "\u0120bookshe", "4288": "stri", "4289": "\u0120giraffe", "4290": "\u0120festival", "4291": "\u0120separate", "4292": "\u0120shelter", "4293": "\u0120gas", "4294": "\u0120airport", "4295": "\u0120olive", "4296": "\u0120Big", "4297": "\u0120rail", "4298": "\u0120bookshelf", "4299": "\u0120frogs", "4300": "\u0120teaspoon", "4301": "\u0120reverse", "4302": "\u0120junk", "4303": "\u0120riding", "4304": "\u0120pleased", "4305": "\u0120drain", "4306": "\u0120Mrs", "4307": "\u0120wipe", "4308": "\u0120oasis", "4309": "\u0120soil", "4310": "\u0120ahead", "4311": "\u0120rescue", "4312": "\u0120leaving", "4313": "ummer", "4314": "\u0120painter", "4315": "\u0120squeeze", "4316": "\u0120chance", "4317": "\u0120poked", "4318": "\u0120knob", "4319": "\u0120Teddy", "4320": "\u0120peeked", "4321": "\u0120lumber", "4322": "\u0120trains", "4323": "\u0120extra", "4324": "\u0120slipp", "4325": "\u0120quiz", "4326": "\u0120refused", "4327": "res", "4328": "rmomet", "4329": "\u0120page", "4330": "\u0120rules", "4331": "\u0120happens", "4332": "\u0120sounded", "4333": "\u0120ins", "4334": "\u0120point", "4335": "\u0120winter", "4336": "\u0120dancer", "4337": "\u0120Grandpa", "4338": "\u0120birdc", "4339": "\u0120disappear", "4340": "rmometer", "4341": "\u0120Dolly", "4342": "\u0120weather", "4343": "\u0120waste", "4344": "\u0120lic", "4345": "\u0120birdcage", "4346": "\u0120theater", "4347": "\u0120reef", "4348": "\u0120carrying", "4349": "Daisy", "4350": "\u0120invite", "4351": "iform", "4352": "\u0120goal", "4353": "\u0120ostri", "4354": "\u0120uniform", "4355": "\u0120swung", "4356": "\u0120trade", "4357": "\u0120cliff", "4358": "\u0120wig", "4359": "ience", "4360": "\u0120lawn", "4361": "ola", "4362": "\u0120leaned", "4363": "\u0120Pandy", "4364": "angu", "4365": "\u0120accept", "4366": "\u0120admire", "4367": "\u0120fort", "4368": "\u0120accidentally", "4369": "\u0120pastel", "4370": "bbles", "4371": "\u0120stom", "4372": "\u0120langu", "4373": "\u0120twir", "4374": "\u0120suff", "4375": "\u0120panda", "4376": "riger", "4377": "\u0120bet", "4378": "rigerator", "4379": "\u0120peek", "4380": "render", "4381": "\u0120blinked", "4382": "\u0120starts", "4383": "\u0120refrigerator", "4384": "\u0120anywhere", "4385": "!\".", "4386": "\u0120imagined", "4387": "\u0120dreaming", "4388": "\u0120remove", "4389": "night", "4390": "\u0120shower", "4391": "\u0120Lee", "4392": "\u0120Co", "4393": "\u0120classroom", "4394": "\u0120ceiling", "4395": "\u0120caring", "4396": "ium", "4397": "\u0120grand", "4398": "\u0120missing", "4399": "aked", "4400": "\u0120license", "4401": "\u0120stable", "4402": "\u0120thermometer", "4403": "\u0120monkeys", "4404": "astic", "4405": "\u0120warned", "4406": "\u0120summer", "4407": "\u0120Where", "4408": "\u0120above", "4409": "\u0120brick", "4410": "ected", "4411": "\u0120cudd", "4412": "\u0120problems", "4413": "amber", "4414": "\u0120chasing", "4415": "\u0120label", "4416": "\u0120apron", "4417": "\u0120sent", "4418": "urnit", "4419": "urniture", "4420": "\u0120lawy", "4421": "\u0120lid", "4422": "uggage", "4423": "med", "4424": "\u0120respectful", "4425": "\u0120furniture", "4426": "\u0120frowned", "4427": "\u0120zoomed", "4428": "\u0120pages", "4429": "\u0120prevent", "4430": "\u0120bent", "4431": "\u0120luggage", "4432": "\u0120mistakes", "4433": "\u0120sunset", "4434": "\u0120ostrich", "4435": "ison", "4436": "\u0120suggested", "4437": "\u0120windows", "4438": "ations", "4439": "\u0120jail", "4440": "low", "4441": "\u0120wine", "4442": "\u0120ribbon", "4443": "\u0120older", "4444": "\u0120shouts", "4445": "\u0120grape", "4446": "\u0120Cl", "4447": "\u0120strug", "4448": "ucture", "4449": "\u0120structure", "4450": "\u0120spoil", "4451": "eor", "4452": "\u0120fixing", "4453": "\u0120chamber", "4454": "\u0120lions", "4455": "\u0120delay", "4456": "\u0120finds", "4457": "\u0120handed", "4458": "\u0120searching", "4459": "\u0120unite", "4460": "Did", "4461": "\u0120fought", "4462": "\u0120lawyer", "4463": "\u0120brightly", "4464": "\u0120pair", "4465": "\u0120meeting", "4466": "\u0120choice", "4467": "\u0120surprises", "4468": "\u0120Un", "4469": "\u0120Ellie", "4470": "\u0120art", "4471": "Ch", "4472": "\u0120favour", "4473": "eterin", "4474": "eterinarian", "4475": "adium", "4476": "\u0120stadium", "4477": "\u0120proudly", "4478": "iki", "4479": "\u0120veterinarian", "4480": "vet", "4481": "\u0120chairs", "4482": "rod", "4483": "\u0120slip", "4484": "\u0120Spe", "4485": "\u0120sadly", "4486": "\u0120Bow", "4487": "\u0120incre", "4488": "\u0120Carl", "4489": "\u0120puddles", "4490": "\u0120berry", "4491": "\u0120introd", "4492": "\u0120ranch", "4493": "veal", "4494": "\u0120Boun", "4495": "\u0120argue", "4496": "\u0120V", "4497": "\u0120admired", "4498": "\u0120cur", "4499": "\u0120favourite", "4500": "Your", "4501": "\u0120inf", "4502": "\u0120excitedly", "4503": "\u0120rac", "4504": "\u0120grabs", "4505": "mend", "4506": "\u0120steam", "4507": "thank", "4508": "\u0120human", "4509": "eorge", "4510": "sity", "4511": "\u0120Hel", "4512": "\u0120pushing", "4513": "\u0120saving", "4514": "\u0120Red", "4515": "\u0120reveal", "4516": "ommend", "4517": "alley", "4518": "\u0120yield", "4519": "olog", "4520": "\u0120mall", "4521": "\u0120reminded", "4522": "\u0120recommend", "4523": "\u0120leak", "4524": "\u0120surrender", "4525": "\u0120harb", "4526": "\u0120appl", "4527": "cuss", "4528": "aul", "4529": "\u0120weap", "4530": "\u0120regret", "4531": "\u0120putting", "4532": "\u0120valley", "4533": "\u0120mineral", "4534": "\u0120evening", "4535": "chan", "4536": "elcome", "4537": "\u0120matches", "4538": "\u0120forgave", "4539": "\u0120sneezed", "4540": "\u0120pup", "4541": "\u0120aw", "4542": "\u0120rushed", "4543": "ecause", "4544": "\u0120spade", "4545": "\u0120apolog", "4546": "\u0120plates", "4547": "\u0120discuss", "4548": "\u0120beg", "4549": "\u0120prepare", "4550": "\u0120harbor", "4551": "\u0120ignore", "4552": "\u0120country", "4553": "\u0120language", "4554": "\u0120Buzzy", "4555": "\u0120pulls", "4556": "\u0120plastic", "4557": "\u0120supply", "4558": "\u0120float", "4559": "\u0120sniffed", "4560": "\u0120Jazz", "4561": "\u0120replace", "4562": "\u0120meas", "4563": "\u0120shovel", "4564": "\u0120Bill", "4565": "\u0120raise", "4566": "\u0120Next", "4567": "\u0120fre", "4568": "\u0120cared", "4569": "\u0120socks", "4570": "\u0120strip", "4571": "\u0120doors", "4572": "\u0120mystery", "4573": "\u0120lives", "4574": "\u0120restore", "4575": "\u0120sticker", "4576": "\u0120sudden", "4577": "ari", "4578": "\u0120kinds", "4579": "\u0120slippery", "4580": "ero", "4581": "\u0120Ow", "4582": "\u0120player", "4583": "\u0120panic", "4584": "ricane", "4585": "\u0120hoping", "4586": "iday", "4587": "\u0120shone", "4588": "lex", "4589": "ude", "4590": "hero", "4591": "\u0120Mike", "4592": "\u0120Binky", "4593": "\u0120superhero", "4594": "\u0120delighted", "4595": "\u0120gro", "4596": "Yay", "4597": "\u0120chickens", "4598": "\u0120shoulder", "4599": "\u0120rained", "4600": "\u0120colourful", "4601": "\u0120breat", "4602": "\u0120Alice", "4603": "\u0120claw", "4604": "\u0120Bubbles", "4605": "Yuck", "4606": "\u0120softly", "4607": "rise", "4608": "\u0120port", "4609": "Grandma", "4610": "\u0120hol", "4611": "icer", "4612": "\u0120holiday", "4613": "\u0120\u00e2\u0122", "4614": "\u0120barks", "4615": "ason", "4616": "\u0120throwing", "4617": "\u0120planes", "4618": "Mary", "4619": "\u0120bend", "4620": "\u0120Freddy", "4621": "\u0120shakes", "4622": "\u0120infant", "4623": "\u0120ended", "4624": "\u0120shivering", "4625": "\u0120kneel", "4626": "\u0120sunrise", "4627": "\u0120pushes", "4628": "\u0120Olive", "4629": "\u0120thanks", "4630": "\u0120fresh", "4631": "\u0120suffer", "4632": "\u0120points", "4633": "imed", "4634": "wards", "4635": "\u0120Pat", "4636": "\u0120tip", "4637": "\u0120Speedy", "4638": "\u0120freeze", "4639": "\u0120keeping", "4640": "\u0120Would", "4641": "\u0120giggle", "4642": "\u0120copper", "4643": "\u0120smells", "4644": "\u0120dear", "4645": "ah", "4646": "\u0120enter", "4647": "\u0120provide", "4648": "cast", "4649": "chanic", "4650": "\u0120dishes", "4651": "\u0120End", "4652": "\u0120applau", "4653": "cond", "4654": "\u0120unh", "4655": "Next", "4656": "\u0120heads", "4657": "\u0120hurricane", "4658": "\u0120cherry", "4659": "\u0120thumb", "4660": "\u0120menu", "4661": "\u0120meowed", "4662": "\u0120mass", "4663": "\u0120second", "4664": "\u0120brighter", "4665": "ince", "4666": "\u0120sandcast", "4667": "\u0120mechanic", "4668": "\u0120wre", "4669": "\u0120sprayed", "4670": "\u0120letting", "4671": "\u0120event", "4672": "\u0120weapon", "4673": "\u0120laught", "4674": "\u0120x", "4675": "\u0120laughter", "4676": "\u0120clapping", "4677": "\u0120feelings", "4678": "Will", "4679": "icky", "4680": "\u0120splashing", "4681": "ement", "4682": "\u0120Or", "4683": "acked", "4684": "\u0120castles", "4685": "\u0120Fl", "4686": "cer", "4687": "\u0120score", "4688": "apping", "4689": "\u0120universe", "4690": "\u0120navy", "4691": "\u0120dem", "4692": "\u0120sticky", "4693": "ophie", "4694": "\u0120rooms", "4695": "\u0120row", "4696": "\u0120flies", "4697": "igi", "4698": "\u0120Dave", "4699": "\u0120unhappy", "4700": "\u0120greedy", "4701": "\u0120dare", "4702": "\u0120alive", "4703": "\u0120breaks", "4704": "\u0120ener", "4705": "\u0120courage", "4706": "\u0120invit", "4707": "Ready", "4708": "\u0120repeat", "4709": "\u0120demand", "4710": "gie", "4711": "\u0120trusted", "4712": "Lisa", "4713": "\u0120somewhere", "4714": "arlie", "4715": "\u0120prune", "4716": "bles", "4717": "\u0120wreck", "4718": "\u0120Y", "4719": "\u0120skill", "4720": "\u0120examine", "4721": "\u0120parts", "4722": "year", "4723": "\u0120eaten", "4724": "oe", "4725": "All", "4726": "erc", "4727": "enry", "4728": "\u0120mention", "4729": "\u0120raining", "4730": "\u0120Help", "4731": "\u0120snug", "4732": "Buddy", "4733": "\u0120throws", "4734": "\u0120jogged", "4735": "quest", "4736": "\u0120starting", "4737": "\u0120rush", "4738": "\u0120poison", "4739": "\u0120pirates", "4740": "heart", "4741": "\u0120vac", "4742": "\u0120content", "4743": "Emma", "4744": "\u0120Kiki", "4745": "\u0120sigh", "4746": "\u0120flapped", "4747": "\u0120drops", "4748": "\u0120chirp", "4749": "\u0120sport", "4750": "Qu", "4751": "\u0120sparkled", "4752": "\u0120Zoomy", "4753": "\u0120given", "4754": "\u0120streng", "4755": "\u0120steel", "4756": "Ann", "4757": "\u0120bumped", "4758": "\u0120yawned", "4759": "\u0120stud", "4760": "\u0120request", "4761": "\u0120scold", "4762": "\u0120myself", "4763": "\u0120strength", "4764": "\u0120shrugged", "4765": "Mark", "4766": "\u0120coats", "4767": "\u0120punish", "4768": "\u0120equ", "4769": "\u0120university", "4770": "\u0120paid", "4771": "\u0120Johnny", "4772": "\u0120pigs", "4773": "\u0120scratch", "4774": "\u0120toe", "4775": "\u0120exerc", "4776": "\u0120tracks", "4777": "\u0120upstairs", "4778": "\u0120prayed", "4779": "\u0120crossed", "4780": "\u0120squeezed", "4781": "\u0120impressed", "4782": "\u0120flood", "4783": "\u0120bouncing", "4784": "Alice", "4785": "\u0120rabbits", "4786": "ges", "4787": "\u0120badly", "4788": "..", "4789": "\u0120warn", "4790": "\u0120leather", "4791": "\u0120tug", "4792": "\u0120expect", "4793": "\u0120news", "4794": "\u0120tide", "4795": "\u0120Ted", "4796": "\u0120minute", "4797": "\u0120bears", "4798": "\u0120claws", "4799": "\u0120buzz", "4800": "\u0120sweetheart", "4801": "\u0120Sm", "4802": "yth", "4803": "\u0120nation", "4804": "Sh", "4805": "ythm", "4806": "\u0120vacation", "4807": "\u0120hist", "4808": "\u0120heat", "4809": "\u0120strawberries", "4810": "\u0120observe", "4811": "\u0120explored", "4812": "\u0120settle", "4813": "\u0120sandcastle", "4814": "\u0120yawn", "4815": "\u0120history", "4816": "\u0120Lilly", "4817": "\u0120Lola", "4818": "mare", "4819": "\u0120Mummy", "4820": "\u0120Sque", "4821": "ially", "4822": "inking", "4823": "\u0120believed", "4824": "\u0120horses", "4825": "Daddy", "4826": "\u0120Hoppy", "4827": "\u0120checked", "4828": "\u0120Mandy", "4829": "\u0120tour", "4830": "\u0120network", "4831": "\u0120cheek", "4832": "\u0120Under", "4833": "\u0120offer", "4834": "\u0120easily", "4835": "\u0120placed", "4836": "spec", "4837": "\u0120spots", "4838": "\u0120snowball", "4839": "ween", "4840": "men", "4841": "\u0120energy", "4842": "\u0120Bee", "4843": "\u0120imagination", "4844": "\u0120blueberry", "4845": "otten", "4846": "\u0120between", "4847": "specially", "4848": "\u0120Gigi", "4849": "izes", "4850": "\u0120daisy", "4851": "\u0120waving", "4852": "reeze", "4853": "reat", "4854": "\u0120vroom", "4855": "\u0120soak", "4856": "\u0120safari", "4857": "\u0120rhythm", "4858": "\u0120massage", "4859": "\u0120stomach", "4860": "\u0120baking", "4861": "quake", "4862": "\u0120nightmare", "4863": "\u0120insisted", "4864": "\u0120blowing", "4865": "\u0120entered", "4866": "Before", "4867": "\u0120stair", "4868": "\u0120palm", "4869": "\u0120beauty", "4870": "\u0120twisted", "4871": "\u0120bother", "4872": "\u0120writing", "4873": "\u0120scoop", "4874": "\u0120prunes", "4875": "\u0120brain", "4876": "\u0120ing", "4877": "ipment", "4878": "\u0120poppy", "4879": "\u0120hills", "4880": "noon", "4881": "\u0120afternoon", "4882": "\u0120equipment", "4883": "\u0120especially", "4884": "\u0120Ru", "4885": "hest", "4886": "\u0120sir", "4887": "\u0120pad", "4888": "\u0120See", "4889": "\u0120ingred", "4890": "\u0120calls", "4891": "\u0120ingredient", "4892": "\u0120Fox", "4893": "\u0120earthquake", "4894": "\u0120ignored", "4895": "\u0120Snowy", "4896": "\u0120burned", "4897": "\u0120nobody", "4898": "mble", "4899": "\u0120sty", "4900": "apa", "4901": "\u0120sew", "4902": "isty", "4903": "xygen", "4904": "\u0120hearts", "4905": "\u0120lear", "4906": "\u0120learnt", "4907": "\u0120lemonade", "4908": "\u0120increase", "4909": "illie", "4910": "Jenny", "4911": "\u0120gaz", "4912": "\u0120backpack", "4913": "\u0120mailman", "4914": "\u0120whistled", "4915": "\u0120pedal", "4916": "\u0120Sk", "4917": "Fred", "4918": "\u0120shopkeeper", "4919": "ffic", "4920": "\u0120permit", "4921": "\u0120tremble", "4922": "\u0120yucky", "4923": "anges", "4924": "\u0120moves", "4925": "\u0120introduce", "4926": "\u0120lemons", "4927": "\u0120crash", "4928": "\u0120beans", "4929": "\u0120floated", "4930": "edn", "4931": "ednesday", "4932": "ittens", "4933": "Welcome", "4934": "\u0120planned", "4935": "\u0120strike", "4936": "\u0120traffic", "4937": "\u0120include", "4938": "\u0120slap", "4939": "\u0120racing", "4940": "\u0120Lucky", "4941": "resses", "4942": "\u0120wisdom", "4943": "\u0120pur", "4944": "\u0120wags", "4945": "\u0120Finny", "4946": "laimed", "4947": "\u0120George", "4948": "\u0120luck", "4949": "\u0120following", "4950": "\u0120price", "4951": "ecting", "4952": "\u0120mama", "4953": "\u0120pitch", "4954": "\u0120below", "4955": "\u0120Elly", "4956": "\u0120Have", "4957": "Le", "4958": "\u0120weight", "4959": "\u0120exclaimed", "4960": "house", "4961": "\u0120buried", "4962": "\u0120follows", "4963": "\u0120comf", "4964": "\u0120recognize", "4965": "\u0120ingredients", "4966": "\u0120\u010a", "4967": "\u0120furt", "4968": "tain", "4969": "mem", "4970": "\u0120candles", "4971": "eme", "4972": "Mimi", "4973": "\u0120marbles", "4974": "riage", "4975": "unday", "4976": "emember", "4977": "eration", "4978": "\u0120Alex", "4979": "\u0120apart", "4980": "\u0120Wednesday", "4981": "\u0120growled", "4982": "uct", "4983": "ores", "4984": "\u0120conf", "4985": "\u0120teaching", "4986": "\u0120hopes", "4987": "\u0120folded", "4988": "\u0120closely", "4989": "\u0120Finn", "4990": "\u0120Who", "4991": "\u0120heel", "4992": "\u0120Su", "4993": "\u0120Sunday", "4994": "\u0120encourage", "4995": "\u0120Paul", "4996": "\u0120Owl", "4997": "\u0120zigzag", "4998": "\u0120pulling", "4999": "\u0120bouncy", "5000": "\u0120further", "5001": "\u0120chewed", "5002": "\u0120digging", "5003": "\u0120winning", "5004": "Woof", "5005": "With", "5006": "\u0120dresses", "5007": "\u0120image", "5008": "rec", "5009": "cery", "5010": "\u0120encoura", "5011": "\u0120shouting", "5012": "\u0120grocery", "5013": "\u0120twisty", "5014": "\u0120peanuts", "5015": "\u0120puzzles", "5016": "bbing", "5017": "\u0120Dog", "5018": "look", "5019": "\u0120scrat", "5020": "\u0120chores", "5021": "\u0120whisper", "5022": "\u0120Is", "5023": "\u0120spike", "5024": "\u0120Froggy", "5025": "\u0120cape", "5026": "\u0120snail", "5027": "\u0120acorns", "5028": "\u0120worms", "5029": "hood", "5030": "\u0120deeper", "5031": "\u0120urge", "5032": "ifi", "5033": "\u0120exper", "5034": "\u0120Whenever", "5035": "\u0120Tilly", "5036": "\u0120Squeaky", "5037": "\u0120Grace", "5038": "\u0120planted", "5039": "\u0120attention", "5040": "ecture", "5041": "\u0120exercise", "5042": "\u0120Danny", "5043": "\u0120cub", "5044": "\u0120operation", "5045": "\u0120underground", "5046": "\u0120hon", "5047": "\u0120agre", "5048": "\u0120quite", "5049": "\u0120creatures", "5050": "\u0120simp", "5051": "Everyone", "5052": "\u0120struggle", "5053": "oral", "5054": "\u0120Mittens", "5055": "ddy", "5056": "\u0120blood", "5057": "\u0120lecture", "5058": "\u0120washing", "5059": "\u0120hurting", "5060": "\u0120vanished", "5061": "\u0120gifts", "5062": "\u0120dressed", "5063": "\u0120invitation", "5064": "\u0120solved", "5065": "\u0120licks", "5066": "\u0120snuggled", "5067": "\u0120Sharing", "5068": "ippy", "5069": "\u0120ble", "5070": "\u0120marriage", "5071": "\u0120quietly", "5072": "\u0120warning", "5073": "\u0120jazz", "5074": "\u0120breathe", "5075": "reci", "5076": "\u0120elephants", "5077": "\u0120sizes", "5078": "\u0120dried", "5079": "\u0120fallen", "5080": "\u0120landscape", "5081": "ories", "5082": "\u0120sprink", "5083": "\u0120neighbour", "5084": "\u0120mice", "5085": "uesday", "5086": "\u0120appreci", "5087": "\u0120Sophie", "5088": "\u0120Joey", "5089": "\u0120\u00e2\u0122\u0135", "5090": "\u0120eagerly", "5091": "\u0120sailing", "5092": "\u0120Coco", "5093": "\u0120paused", "5094": "ips", "5095": "\u0120counter", "5096": "\u0120Good", "5097": "\u0120Bounce", "5098": "\u0120Penny", "5099": "\u0120worth", "5100": "looking", "5101": "\u0120Rock", "5102": "\u0120oxygen", "5103": "Because", "5104": "\u0120release", "5105": "\u0120shined", "5106": "Not", "5107": "pted", "5108": "\u0120reaches", "5109": "\u0120balan", "5110": "\u0120Zara", "5111": "isses", "5112": "\u0120oh", "5113": "\u0120kisses", "5114": "\u0120style", "5115": "\u0120bricks", "5116": "\u0120plays", "5117": "\u0120glo", "5118": "\u0120Tuesday", "5119": "\u0120ideas", "5120": "sed", "5121": "\u0120inst", "5122": "\u0120wob", "5123": "\u0120fireworks", "5124": "Bella", "5125": "iggly", "5126": "ucked", "5127": "\u0120seeing", "5128": "\u0120flap", "5129": "ops", "5130": "\u0120accepted", "5131": "right", "5132": "\u0120Pip", "5133": "Today", "5134": "\u0120blink", "5135": "mm", "5136": "\u0120Ros", "5137": "\u0120tremb", "5138": "These", "5139": "\u0120muddy", "5140": "\u0120memory", "5141": "\u0120married", "5142": "\u0120tomatoes", "5143": "\u0120exit", "5144": "\u0120Annie", "5145": "\u0120wagging", "5146": "\u0120fash", "5147": "Remy", "5148": "\u0120Charlie", "5149": "\u0120wandered", "5150": "unately", "5151": "ipping", "5152": "\u0120gloves", "5153": "\u0120captain", "5154": "\u0120pillows", "5155": "\u0120receive", "5156": "\u0120resp", "5157": "\u0120Pinky", "5158": "\u0120during", "5159": "\u0120Everything", "5160": "etch", "5161": "\u0120web", "5162": "\u0120petals", "5163": "\u0120watered", "5164": "\u0120Eventually", "5165": "\u0120si", "5166": "ived", "5167": "\u0120manage", "5168": "\u0120pinched", "5169": "\u0120brings", "5170": "ux", "5171": "\u0120vanish", "5172": "\u0120cakes", "5173": "\u0120fashion", "5174": "\u0120Bluey", "5175": "\u0120printer", "5176": "\u0120destroyed", "5177": "\u0120treasures", "5178": "nce", "5179": "\u0120allow", "5180": "ups", "5181": "\u0120hadn", "5182": "\u0120worse", "5183": "\u0120Fifi", "5184": "Surpr", "5185": "\u0120vel", "5186": "\u0120hits", "5187": "\u0120bur", "5188": "uxu", "5189": "\u0120velvet", "5190": "\u0120appear", "5191": "\u0120disagree", "5192": "do", "5193": "\u0120catching", "5194": "\u0120scattered", "5195": "\u0120Ro", "5196": "\u0120memories", "5197": "\u0120sorts", "5198": "\u0120Papa", "5199": "\u0120hers", "5200": "\u0120scolded", "5201": "\u0120signs", "5202": "\u0120pears", "5203": "\u0120oranges", "5204": "\u0120bones", "5205": "\u0120rang", "5206": "\u0120snapped", "5207": "\u0120sits", "5208": "\u0120seats", "5209": "Bl", "5210": "\u0120gazed", "5211": "\u0120raised", "5212": "\u0120Maria", "5213": "\u0120zipped", "5214": "\u0120pies", "5215": "\u0120prints", "5216": "\u0120shot", "5217": "\u0120sliding", "5218": "\u0120God", "5219": "\u0120fro", "5220": "\u0120easier", "5221": "ssible", "5222": "\u0120skills", "5223": "\u0120climbs", "5224": "\u0120twirled", "5225": "ccer", "5226": "\u0120blankets", "5227": "ester", "5228": "\u0120forgotten", "5229": "\u0120applaud", "5230": "\u0120baked", "5231": "Yum", "5232": "esterday", "5233": "\u0120difference", "5234": "orted", "5235": "\u0120luxu", "5236": "\u0120golden", "5237": "ising", "5238": "\u0120kitty", "5239": "\u0120Tw", "5240": "\u0120cutting", "5241": "\u0120season", "5242": "aggie", "5243": "\u0120nowhere", "5244": "\u0120crow", "5245": "\u0120soccer", "5246": "\u0120dared", "5247": "\u0120bites", "5248": "\u0120Henry", "5249": "\u0120Harry", "5250": "anny", "5251": "\u0120celebrated", "5252": "\u0120lung", "5253": "choo", "5254": "chie", "5255": "\u0120straight", "5256": "\u0120unlocked", "5257": "sters", "5258": "\u0120sorting", "5259": "\u0120collected", "5260": "\u0120bleed", "5261": "aped", "5262": "\u0120welcomed", "5263": "\u0120visited", "5264": "\u0120spoons", "5265": "\u0120ours", "5266": "\u0120stitch", "5267": "\u0120jogging", "5268": "Surprise", "5269": "medi", "5270": "\u0120emer", "5271": "\u0120Spark", "5272": "mediately", "5273": "\u0120isn", "5274": "\u0120tong", "5275": "\u0120trave", "5276": "\u0120winner", "5277": "umble", "5278": "\u0120since", "5279": "\u0120ruin", "5280": "\u0120prett", "5281": "Ok", "5282": "Moral", "5283": "\u0120Tony", "5284": "\u0120attached", "5285": "\u0120weeping", "5286": "\u0120marching", "5287": "\u0120luxury", "5288": "\u0120simple", "5289": "\u0120Each", "5290": "\u0120shouldn", "5291": "\u0120guessed", "5292": "\u0120zero", "5293": "\u0120created", "5294": "\u0120stuffed", "5295": "\u0120pets", "5296": "ction", "5297": "\u0120waist", "5298": "\u0120famil", "5299": "\u0120urged", "5300": "\u0120bowed", "5301": "\u0120selling", "5302": "\u0120floating", "5303": "rr", "5304": "\u0120Smith", "5305": "\u0120bye", "5306": "\u0120King", "5307": "\u0120vict", "5308": "\u0120kingdom", "5309": "\u0120olives", "5310": "\u0120kicking", "5311": "\u0120Wiggly", "5312": "\u0120punished", "5313": "\u0120Liz", "5314": "\u0120Baby", "5315": "sit", "5316": "\u0120toes", "5317": "\u0120An", "5318": "\u0120grant", "5319": "\u0120muscles", "5320": "\u0120jewels", "5321": "\u0120Rosie", "5322": "\u0120beds", "5323": "\u0120melted", "5324": "Goodbye", "5325": "\u0120slice", "5326": "\u0120grin", "5327": "\u0120understanding", "5328": "\u0120collection", "5329": "\u0120tore", "5330": "\u0120measured", "5331": "aker", "5332": "\u0120cras", "5333": "omeday", "5334": "iers", "5335": "\u0120trapped", "5336": "\u0120lined", "5337": "'ve", "5338": "\u0120acted", "5339": "fortunately", "5340": "\u0120encouraged", "5341": "va", "5342": "\u0120Sandy", "5343": "\u0120received", "5344": "\u0120waffles", "5345": "\u0120Before", "5346": "\u0120Wally", "5347": "\u0120west", "5348": "\u0120meow", "5349": "ents", "5350": "\u0120patterns", "5351": "rin", "5352": "ino", "5353": "eath", "5354": "\u0120brus", "5355": "\u0120mouths", "5356": "kins", "5357": "ring", "5358": "\u0120Kate", "5359": "Meow", "5360": "\u0120peaches", "5361": "\u0120breeze", "5362": "aded", "5363": "une", "5364": "\u0120printed", "5365": "\u0120soldiers", "5366": "\u0120someday", "5367": "\u0120potatoes", "5368": "\u0120pupil", "5369": "umes", "5370": "\u0120Millie", "5371": "\u0120drinks", "5372": "\u0120shed", "5373": "\u0120experience", "5374": "\u0120Tuna", "5375": "eep", "5376": "\u0120presents", "5377": "\u0120firef", "5378": "\u0120Ruby", "5379": "\u0120surround", "5380": "\u0120none", "5381": "osed", "5382": "ann", "5383": "\u0120voices", "5384": "\u0120drinking", "5385": "\u0120Uncle", "5386": "ishing", "5387": "\u0120relaxed", "5388": "\u0120victory", "5389": "cus", "5390": "\u0120paints", "5391": "\u0120breaking", "5392": "eve", "5393": "\u0120hurried", "5394": "ission", "5395": "\u0120twink", "5396": "\u0120tongue", "5397": "\u0120recor", "5398": "\u0120costumes", "5399": "\u0120flat", "5400": "\u0120mentioned", "5401": "\u0120begged", "5402": "\u0120teasing", "5403": "\u0120whistling", "5404": "\u0120fetch", "5405": "\u0120permission", "5406": "\u0120sip", "5407": "\u0120disagreed", "5408": "\u0120pearl", "5409": "akes", "5410": "\u0120stro", "5411": "vest", "5412": "\u0120These", "5413": "\u0120esc", "5414": "\u0120appro", "5415": "\u0120skipping", "5416": "\u0120fishing", "5417": "\u0120May", "5418": "Leo", "5419": "\u0120highest", "5420": "\u0120pra", "5421": "\u0120watches", "5422": "\u0120sorted", "5423": "\u0120ringing", "5424": "ship", "5425": "\u0120tonight", "5426": "\u0120Bo", "5427": "\u0120opin", "5428": "\u0120lets", "5429": "icing", "5430": "\u0120Qu", "5431": "\u0120perfectly", "5432": "\u0120shadows", "5433": "\u0120immediately", "5434": "\u0120herbs", "5435": "\u0120warmth", "5436": "\u0120spit", "5437": "\u0120remained", "5438": "ther", "5439": "\u0120Its", "5440": "walk", "5441": "Bobby", "5442": "irring", "5443": "Jen", "5444": "\u0120sneak", "5445": "\u0120six", "5446": "\u0120lips", "5447": "\u0120kneeled", "5448": "Blue", "5449": "\u0120contest", "5450": "\u0120Che", "5451": "utter", "5452": "\u0120cartoons", "5453": "\u0120sidewalk", "5454": "\u0120colours", "5455": "\u0120stamps", "5456": "\u0120ago", "5457": "Ha", "5458": "\u0120Toto", "5459": "\u0120Boo", "5460": "\u0120Follow", "5461": "\u0120east", "5462": "\u0120headed", "5463": "oved", "5464": "\",", "5465": "\u0120strang", "5466": "\u0120ladyb", "5467": "\u0120fed", "5468": "\u0120supposed", "5469": "\u0120roots", "5470": "\u0120lick", "5471": "\u0120crunch", "5472": "\u0120mixing", "5473": "\u0120works", "5474": "\u0120decorations", "5475": "\u0120melting", "5476": "\u0120known", "5477": "\u0120emergen", "5478": "Mandy", "5479": "\u0120rested", "5480": "\u0120Ab", "5481": "\u0120lines", "5482": "\u0120Suzy", "5483": "\u0120lily", "5484": "\u0120Jul", "5485": "\u0120instr", "5486": "\u0120laid", "5487": "\u0120Gr", "5488": "\u0120succeeded", "5489": "\u0120cones", "5490": "\u0120wiggle", "5491": "ety", "5492": "\u0120bang", "5493": "sing", "5494": "\u0120shock", "5495": "\u0120setting", "5496": "\u0120Slow", "5497": "\u0120studied", "5498": "\u0120strangers", "5499": "\u0120Rocky", "5500": "Really", "5501": "\u0120twigs", "5502": "\u0120brid", "5503": "\u0120theirs", "5504": "\u0120Dr", "5505": "\u0120girls", "5506": "boo", "5507": "!\",", "5508": "\u0120screams", "5509": "\u0120lands", "5510": "\u0120ordered", "5511": "\u0120stirring", "5512": "\u0120moments", "5513": "\u0120fields", "5514": "\u0120alright", "5515": "\u0120stealing", "5516": "Andy", "5517": "\u0120rul", "5518": "\u0120bravely", "5519": "avid", "5520": "\u0120Both", "5521": "\u0120mister", "5522": "!'", "5523": "\u0120invest", "5524": "\u0120scratched", "5525": "\u0120playtime", "5526": "\u0120ripped", "5527": "\u0120investig", "5528": "\u0120tucked", "5529": "\u0120resting", "5530": "\u0120burning", "5531": "ishes", "5532": "\u0120Clara", "5533": "\u0120Chicky", "5534": "\u0120bridges", "5535": "\u0120officer", "5536": "please", "5537": "Sammy", "5538": "Bird", "5539": "abies", "5540": "\u0120settled", "5541": "\u0120matched", "5542": "\u0120achie", "5543": "\u0120tex", "5544": "\u0120texture", "5545": "Happy", "5546": "\u0120waits", "5547": "\u0120turning", "5548": "\u0120Sky", "5549": "Peter", "5550": "ored", "5551": "\u0120trembling", "5552": "isten", "5553": "\u0120nails", "5554": "atie", "5555": "\u0120muffins", "5556": "\u0120Someone", "5557": "ids", "5558": "\u0120escaped", "5559": "\u0120James", "5560": "\u0120piles", "5561": "\u0120investigate", "5562": "osity", "5563": "\u0120broom", "5564": "\u0120ladybug", "5565": "\u0120sore", "5566": "\u0120Pepper", "5567": "\u0120appreciate", "5568": "\u0120admir", "5569": "\u0120threat", "5570": "\u0120babies", "5571": "\u0120silence", "5572": "\u0120sisters", "5573": "\u0120emergency", "5574": "\u0120area", "5575": "ides", "5576": "\u0120dads", "5577": "\u0120answers", "5578": "\u0120pupp", "5579": "\u0120keys", "5580": "\u0120chewing", "5581": "\u0120slapped", "5582": "\u0120wiz", "5583": "\u0120importance", "5584": "Boo", "5585": "\u0120served", "5586": "\u0120Hop", "5587": "\u0120safety", "5588": "izing", "5589": "Would", "5590": "Bu", "5591": "\u0120sparkle", "5592": "\u0120touching", "5593": "\u0120Later", "5594": "\u0120soared", "5595": "igail", "5596": "\u0120sings", "5597": "\u0120hen", "5598": "allen", "5599": "Ella", "5600": "bers", "5601": "antly", "5602": "Momo", "5603": "\u0120Dino", "5604": "\u0120keeps", "5605": "\u0120amazement", "5606": "\u0120challen", "5607": "\u0120twin", "5608": "\u0120hesit", "5609": "\u0120revealed", "5610": "achel", "5611": "\u0120item", "5612": "\u0120dire", "5613": "\u0120soaked", "5614": "zing", "5615": "\u0120writ", "5616": "\u0120foods", "5617": "\u0120rides", "5618": "\u0120dinosaurs", "5619": "\u0120recorded", "5620": "\u0120tickle", "5621": "\u0120inch", "5622": "\u0120Zigzag", "5623": "\u0120Me", "5624": "\u0120wizard", "5625": "\u0120vet", "5626": "\u0120trips", "5627": "\u0120glowed", "5628": "\u0120Frog", "5629": "Mmm", "5630": "\u0120hi", "5631": "\u0120beamed", "5632": "\u0120quack", "5633": "\u0120curled", "5634": "\u0120hated", "5635": "\u0120wink", "5636": "\u0120shopping", "5637": "\u0120eats", "5638": "Eventually", "5639": "\u0120Bug", "5640": "\u0120praised", "5641": "\u0120wooden", "5642": "\u0120bringing", "5643": "\u0120mittens", "5644": "\u0120studying", "5645": "\u0120guy", "5646": "\u0120brushes", "5647": "\u0120spaceship", "5648": "\u0120gust", "5649": "\u0120crawling", "5650": "\u0120Something", "5651": "Cat", "5652": "\u0120ruler", "5653": "\u0120flav", "5654": "\u0120downstairs", "5655": "\u0120shooting", "5656": "\u0120tastes", "5657": "\u0120napping", "5658": "\u0120sprinkles", "5659": "\u0120marks", "5660": "\u0120cuddled", "5661": "\u0120dot", "5662": "hello", "5663": "plash", "5664": "\u0120fut", "5665": "ales", "5666": "aved", "5667": "\u0120future", "5668": "\u0120monsters", "5669": "\u0120collecting", "5670": "\u0120measuring", "5671": "\u0120Happy", "5672": "'.", "5673": "\u0120families", "5674": "\u0120Out", "5675": "\u0120First", "5676": "\u0120Mo", "5677": "\u0120thrill", "5678": "\u0120oat", "5679": "irts", "5680": "\u0120result", "5681": "Jake", "5682": "\u0120approached", "5683": "\u0120Rabbit", "5684": "\u0120crunchy", "5685": "act", "5686": "Un", "5687": "ding", "5688": "\u0120remem", "5689": "\u0120bleeding", "5690": "\u0120remembers", "5691": "\u0120nicer", "5692": "\u0120beat", "5693": "\u0120sneaky", "5694": "\u0120disturbed", "5695": "\u0120leader", "5696": "\u0120scaring", "5697": "Or", "5698": "hind", "5699": "\u0120peel", "5700": "\u0120Hope", "5701": "\u0120firemen", "5702": "\u0120neighborhood", "5703": "\u0120Star", "5704": "\u0120grey", "5705": "\u0120Not", "5706": "\u0120motion", "5707": "\u0120noon", "5708": "\u0120possible", "5709": "Emily", "5710": "Somet", "5711": "\u0120apologized", "5712": "ues", "5713": "\u0120weighed", "5714": "Cl", "5715": "\u0120Did", "5716": "\u0120tickets", "5717": "\u0120naps", "5718": "\u0120loose", "5719": "\u0120pride", "5720": "\u0120youth", "5721": "\u0120swims", "5722": "ped", "5723": "\u0120strings", "5724": "\u0120recognized", "5725": "\u0120siren", "5726": "\u0120poking", "5727": "fied", "5728": "\u0120Ho", "5729": "cious", "5730": "elvet", "5731": "\u0120tricked", "5732": "\u0120wonders", "5733": "\u0120gained", "5734": "ha", "5735": "\u0120wanting", "5736": "\u0120crashed", "5737": "\u0120obe", "5738": "\u0120seesaw", "5739": "\u0120worker", "5740": "unnies", "5741": "ls", "5742": "oming", "5743": "\u0120draws", "5744": "\u0120scooped", "5745": ".'", "5746": "\u0120zooming", "5747": "\u0120opinion", "5748": "\u0120yelling", "5749": "\u0120prepared", "5750": "\u0120grinned", "5751": "\u0120Slowly", "5752": "\u0120awe", "5753": "\u0120poems", "5754": "\u0120doggy", "5755": "\u0120acting", "5756": "\u0120Beep", "5757": "\u0120happiest", "5758": "\u0120chef", "5759": "\u0120sneaked", "5760": "\u0120respons", "5761": "\u0120eff", "5762": "\u0120Always", "5763": "\u0120Lizzy", "5764": "\u0120owned", "5765": "\u0120bunnies", "5766": "\u0120anytime", "5767": "\u0120struck", "5768": "\u0120pedals", "5769": "oys", "5770": "\u0120knelt", "5771": "ena", "5772": "Ollie", "5773": "\u0120secrets", "5774": "\u0120pause", "5775": "\u0120decorated", "5776": "\u0120horns", "5777": "\u0120agreement", "5778": "\u0120Squ", "5779": "ided", "5780": "\u0120frost", "5781": "\u0120tallest", "5782": "\u0120obey", "5783": "Remember", "5784": "riends", "5785": "ogo", "5786": "\u0120Stop", "5787": "\u0120gigg", "5788": "Have", "5789": "\u0120decides", "5790": "\u0120Once", "5791": "\u0120behaved", "5792": "\u0120tugged", "5793": "\u0120sides", "5794": "\u0120woof", "5795": "\u0120slim", "5796": "zen", "5797": "\u0120goodnight", "5798": "\u0120keeper", "5799": "\u0120sparkling", "5800": "\u0120chirped", "5801": "\u0120precious", "5802": "mother", "5803": "uggling", "5804": "ien", "5805": "lier", "5806": "Tr", "5807": "\u0120repeated", "5808": "\u0120claps", "5809": "indy", "5810": "affes", "5811": "\u0120snowballs", "5812": "\u0120contain", "5813": "rs", "5814": "\u0120Ray", "5815": "\u0120ourselves", "5816": "allow", "5817": "\u0120giraffes", "5818": "\u0120balancing", "5819": "\u0120kindly", "5820": "\u0120spending", "5821": "\u0120writes", "5822": "ays", "5823": "ppers", "5824": "\u0120Like", "5825": "omas", "5826": "\u0120prop", "5827": "\u0120hissed", "5828": "First", "5829": "\u0120frozen", "5830": "\u0120frosting", "5831": "\u0120effort", "5832": "\u0120buzzing", "5833": "\u0120struggled", "5834": "oh", "5835": "\u0120Steve", "5836": "\u0120admiring", "5837": "\u0120rele", "5838": "iggy", "5839": "\u0120sweeties", "5840": "\u0120Velvet", "5841": "\u0120slimy", "5842": "\u0120brushed", "5843": "\u0120Am", "5844": "\u0120bloomed", "5845": "Susie", "5846": "\u0120polished", "5847": "\u0120Zoe", "5848": "arth", "5849": "\u0120comfy", "5850": "\u0120boo", "5851": "\u0120staying", "5852": "\u0120rubbing", "5853": "Ducky", "5854": "\u0120rocking", "5855": "\u0120pockets", "5856": "\u0120thrilled", "5857": "\u0120beside", "5858": "\u0120comple", "5859": "\u0120Aunt", "5860": "\u0120Maggie", "5861": "Ah", "5862": "\u0120eight", "5863": "urry", "5864": "isdom", "5865": "\u0120machines", "5866": "\u0120earlier", "5867": "\u0120yesterday", "5868": "\u0120seems", "5869": "\u0120rust", "5870": "\u0120Keep", "5871": "Sp", "5872": "\u0120traveled", "5873": "\u0120folding", "5874": "\u0120boom", "5875": "\u0120cracked", "5876": "ities", "5877": "\u0120hugging", "5878": "\u0120radishes", "5879": "\u0120Stitch", "5880": "\u0120opening", "5881": "\u0120loving", "5882": "\u0120circus", "5883": "\u0120surrounded", "5884": "\u0120curiosity", "5885": "\u0120Rachel", "5886": "\u0120spraying", "5887": "\u0120demanded", "5888": "anted", "5889": "\u0120paintings", "5890": "amie", "5891": "\u0120Green", "5892": "\u0120removed", "5893": "\u0120gaze", "5894": "\u0120honk", "5895": "\u0120pebbles", "5896": "\u0120zookeeper", "5897": "\u0120hardly", "5898": "\u0120catches", "5899": "edding", "5900": "\u0120sting", "5901": "\u0120stripes", "5902": "\u0120powers", "5903": "\u0120loaded", "5904": "\u0120Pippa", "5905": "Sometimes", "5906": "\u0120splashes", "5907": "\u0120pots", "5908": "\u0120petted", "5909": "\u0120matching", "5910": "\u0120David", "5911": "Thanks", "5912": "\u0120toss", "5913": "\u0120stare", "5914": "\u0120belly", "5915": "Yummy", "5916": "ibb", "5917": "\u0120whatever", "5918": "\u0120apologize", "5919": "\u0120rocked", "5920": "\u0120comforted", "5921": "\u0120Bree", "5922": "\u0120decision", "5923": "\u0120ribbons", "5924": "\u0120Joy", "5925": "\u0120Birdie", "5926": "ern", "5927": "\u0120struggling", "5928": "\u0120expected", "5929": "\u0120deser", "5930": "\u0120steep", "5931": "wh", "5932": "\u0120protected", "5933": "\u0120neighbors", "5934": "\u0120smiley", "5935": "\u0120chases", "5936": "During", "5937": "\u0120granted", "5938": "\u0120crumb", "5939": "\u0120Mat", "5940": "\u0120purred", "5941": "\u0120diving", "5942": "\u0120sadness", "5943": "Whiskers", "5944": "\u0120organizing", "5945": "lowers", "5946": "\u0120eagle", "5947": "\u0120heroes", "5948": "\u0120dipped", "5949": "\u0120sunlight", "5950": "\u0120lied", "5951": "\u0120pastels", "5952": "\u0120Frank", "5953": "Ex", "5954": "\u0120safer", "5955": "\u0120roads", "5956": "\u0120scru", "5957": "\u0120argued", "5958": "\u0120Milly", "5959": "\u0120goals", "5960": "\u0120Water", "5961": "\u0120discovery", "5962": "\u0120Abigail", "5963": "\u0120villag", "5964": "\u0120peered", "5965": "Ro", "5966": "\u0120Bouncy", "5967": "use", "5968": "loe", "5969": "\u0120tim", "5970": "\u0120dragons", "5971": "\u0120buildings", "5972": "\u0120buckets", "5973": "\u0120parties", "5974": "\u0120beard", "5975": "\u0120wedding", "5976": "Rex", "5977": "\u0120flutter", "5978": "\u0120planets", "5979": "\u0120ann", "5980": "\u0120Robby", "5981": "\u0120polishing", "5982": "\u0120fasc", "5983": "ira", "5984": "\u0120released", "5985": "\u0120Chr", "5986": "\u0120crabs", "5987": "\u0120Gogo", "5988": "\u0120tails", "5989": "\u0120Watch", "5990": "\u0120sausages", "5991": "\u0120argu", "5992": "\u0120contro", "5993": "\u0120bottles", "5994": "\u0120wiggled", "5995": "\u0120teased", "5996": "uke", "5997": "\u0120arguing", "5998": "\u0120sled", "5999": "\u0120padd", "6000": "\u0120dragged", "6001": "\u0120Car", "6002": "\u0120roaring", "6003": "\u0120clearing", "6004": "\u0120shirts", "6005": "\u0120movies", "6006": "\u0120gathering", "6007": "\u0120airpl", "6008": "\u0120wid", "6009": "joyed", "6010": "\u0120teaches", "6011": "\u0120spiders", "6012": "\u0120limes", "6013": "\u0120Remember", "6014": "\u0120Dare", "6015": "\u0120overjoyed", "6016": "\u0120actually", "6017": "\u0120sighs", "6018": "\u0120continue", "6019": "\u0120cuddle", "6020": "\u0120soaring", "6021": "\u0120smallest", "6022": "\u0120Jess", "6023": "\u0120drives", "6024": "\u0120Ju", "6025": "\u0120sparkles", "6026": "\u0120rip", "6027": "\u0120situ", "6028": "\u0120cubes", "6029": "\u0120refres", "6030": "\u0120talent", "6031": "\u0120challenge", "6032": "\u0120Olly", "6033": "\u0120grandmother", "6034": "\u0120Splash", "6035": "\u0120pouring", "6036": "umm", "6037": "\u0120pretends", "6038": "\u0120fascin", "6039": "\u0120cuts", "6040": "\u0120shrug", "6041": "\u0120quarreling", "6042": "\u0120peppers", "6043": "\u0120bank", "6044": "\u0120shivered", "6045": "\u0120mane", "6046": "\u0120dusty", "6047": "\u0120Jenn", "6048": "ley", "6049": "\u0120wondering", "6050": "\u0120villagers", "6051": "\u0120stretching", "6052": "njoy", "6053": "ib", "6054": "\u0120weeks", "6055": "\u0120wherever", "6056": "\u0120darker", "6057": "jam", "6058": "Tiny", "6059": "sses", "6060": "\u0120X", "6061": "\u0120rings", "6062": "\u0120onwards", "6063": "\u0120Katie", "6064": "\u0120united", "6065": "Achoo", "6066": "\u0120bead", "6067": "\u0120Everyday", "6068": "\u0120Being", "6069": "\u0120prettiest", "6070": "Johnny", "6071": "\u0120caut", "6072": "\u0120realize", "6073": "\u0120company", "6074": "\u0120penguins", "6075": "annah", "6076": "Luna", "6077": "Fr", "6078": "\u0120Spring", "6079": "\u0120bedtime", "6080": "\u0120completed", "6081": "\u0120Wisdom", "6082": "\u0120Leave", "6083": "\u00e2\u0122\u013f.", "6084": "\u0120knights", "6085": "\u0120flags", "6086": "\u0120Je", "6087": "\u0120Because", "6088": "\u0120playroom", "6089": "\u0120Prin", "6090": "\u0120actions", "6091": "\u0120Zero", "6092": "\u0120learns", "6093": "\u0120gotten", "6094": "\u0120patience", "6095": "inda", "6096": "dam", "6097": "\u0120kites", "6098": "\u0120responsible", "6099": "\u0120fears", "6100": "\u0120destination", "6101": "\u0120wires", "6102": "\u0120reply", "6103": "\u0120wrist", "6104": "\u0120dam", "6105": "aws", "6106": "\u0120packing", "6107": "\u0120mountains", "6108": "\u0120fault", "6109": "\u0120applauded", "6110": "\u0120scrubbed", "6111": "\u0120ma", "6112": "\u0120crept", "6113": "\u0120Ava", "6114": "Uh", "6115": "\u0120Earth", "6116": "\u0120satis", "6117": "\u0120third", "6118": "\u0120phot", "6119": "\u0120pencils", "6120": "\u0120wins", "6121": "\u0120sticking", "6122": "\u0120baker", "6123": "\u0120visiting", "6124": "\u0120wound", "6125": "\u0120uses", "6126": "\u0120peas", "6127": "\u0120reminder", "6128": "\u0120control", "6129": "ashed", "6130": "Grandpa", "6131": "\u0120joking", "6132": "\u0120awake", "6133": "\u0120instruct", "6134": "\u0120staring", "6135": "\u0120healed", "6136": "\u0120Put", "6137": "An", "6138": "\u0120hitting", "6139": "\u0120Fish", "6140": "\u0120screaming", "6141": "\u0120begin", "6142": "Rob", "6143": "uckily", "6144": "\u0120Friends", "6145": "\u0120Moo", "6146": "icorn", "6147": "\u0120helmets", "6148": "enty", "6149": "\u0120unicorn", "6150": "seek", "6151": "\u0120towels", "6152": "Silly", "6153": "\u0120Lou", "6154": "\u0120chips", "6155": "ica", "6156": "\u0120creation", "6157": "\u0120wasted", "6158": "bie", "6159": "Mar", "6160": "\u0120Behind", "6161": "laire", "6162": "\u0120masks", "6163": "\u0120items", "6164": "\u0120forgi", "6165": "ler", "6166": "\u0120firefight", "6167": "\u0120outdo", "6168": "\u0120lollipops", "6169": "Watch", "6170": "\u0120heav", "6171": "\u0120guns", "6172": "\u0120died", "6173": "\u0120Hippy", "6174": "\u0120seas", "6175": "\u0120glitter", "6176": "uddles", "6177": "\u0120arrive", "6178": "\u0120weren", "6179": "\u0120stole", "6180": "\u0120scales", "6181": "\u0120perched", "6182": "\u0120accom", "6183": "\u0120logs", "6184": "\u0120achieve", "6185": "die", "6186": "\u0120practicing", "6187": "ining", "6188": "\u0120whose", "6189": "Stay", "6190": "\u0120pumpkins", "6191": "\u0120instructions", "6192": "\u0120swoop", "6193": "\u0120batteries", "6194": "\u0120candies", "6195": "\u0120agrees", "6196": "\u0120project", "6197": "\u0120snakes", "6198": "\u0120chirping", "6199": "Benny", "6200": "\u0120shelves", "6201": "\u0120protecting", "6202": "\u0120parked", "6203": "\u0120exact", "6204": "\u0120Cra", "6205": "\u0120patiently", "6206": "\u0120activ", "6207": "\u0120videos", "6208": "\u0120shoulders", "6209": "\u0120blows", "6210": "hee", "6211": "Fo", "6212": "\u0120promises", "6213": "go", "6214": "\u0120dent", "6215": "usan", "6216": "uest", "6217": "jamas", "6218": "\u0120examined", "6219": "\u0120airplane", "6220": "Doggy", "6221": "\u0120roses", "6222": "ners", "6223": "\u0120accompl", "6224": "\u0120tasks", "6225": "Dave", "6226": "\u0120Hoot", "6227": "Poppy", "6228": "\u0120Bop", "6229": "Bunny", "6230": "\u0120beads", "6231": "\u0120bowls", "6232": "\u0120crumbs", "6233": "zes", "6234": "\u0120listens", "6235": "\u0120Love", "6236": "\u0120Catty", "6237": "\u0120Brownie", "6238": "Pete", "6239": "\u0120Ol", "6240": "\u0120dolphins", "6241": "\u0120cough", "6242": "\u0120bunch", "6243": "\u0120guest", "6244": "cakes", "6245": "\u0120requested", "6246": "\u0120remote", "6247": "\u0120improved", "6248": "anta", "6249": "\u0120reaching", "6250": "\u0120brand", "6251": "ayla", "6252": "\u0120alien", "6253": "\u0120Bye", "6254": "irm", "6255": "\u0120copy", "6256": "\u0120Sun", "6257": "\u0120cheering", "6258": "\u0120photos", "6259": "\u0120Julie", "6260": "\u0120Chew", "6261": "uggles", "6262": "Bad", "6263": "\u0120Jan", "6264": "\u0120Blink", "6265": "Time", "6266": "\u0120cans", "6267": "\u0120Cuddles", "6268": "...", "6269": "\u0120timer", "6270": "\u0120By", "6271": "\u0120replaced", "6272": "athy", "6273": "\u0120workers", "6274": "\u0120stern", "6275": "\u0120Enjoy", "6276": "aster", "6277": "\u0120neither", "6278": "Mike", "6279": "\u0120passing", "6280": "\u0120misses", "6281": "\u0120curtains", "6282": "\u0120confl", "6283": "Chirpy", "6284": "\u0120rainbows", "6285": "\u0120rubs", "6286": "George", "6287": "uctantly", "6288": "\u0120rolls", "6289": "\u0120patted", "6290": "ilo", "6291": "\u0120pajamas", "6292": "\u0120outdoors", "6293": "esome", "6294": "dies", "6295": "\u0120complaining", "6296": "\u0120Squirrel", "6297": "Lola", "6298": "Run", "6299": "\u0120puppet", "6300": "\u0120Princess", "6301": "\u0120closes", "6302": "\u0120beneath", "6303": "\u0120lap", "6304": "\u0120drums", "6305": "\u0120tune", "6306": "\u0120Beth", "6307": "\u0120Mouse", "6308": "\u0120filling", "6309": "Miss", "6310": "angled", "6311": "\u0120refuse", "6312": "\u0120Sorry", "6313": "\u0120sweat", "6314": "\u0120faced", "6315": "\u0120seven", "6316": "\u0120balanced", "6317": "eal", "6318": "\u0120rescued", "6319": "neath", "6320": "bl", "6321": "\u0120quacked", "6322": "\u0120Abby", "6323": "uded", "6324": "Paul", "6325": "istle", "6326": "\u0120awesome", "6327": "\u01201", "6328": "\u0120mission", "6329": "\u0120However", "6330": "\u0120guys", "6331": "\u0120conflict", "6332": "\u0120cautious", "6333": "\u0120vent", "6334": "\u0120observed", "6335": "\u0120cause", "6336": "\u0120introduc", "6337": "\u0120Thomas", "6338": "\u0120pastries", "6339": "\u0120\u0120", "6340": "\u0120Our", "6341": "\u0120exactly", "6342": "\u0120doctors", "6343": "\u0120rule", "6344": "\u0120becoming", "6345": "\u0120policeman", "6346": "\u0120mes", "6347": "uly", "6348": "\u0120rockets", "6349": "you", "6350": "\u0120Yes", "6351": "\u0120Dot", "6352": "\u0120fairies", "6353": "lay", "6354": "\u0120pout", "6355": "\u0120insist", "6356": "\u0120blooming", "6357": "\u0120tractor", "6358": "\u0120farther", "6359": "\u0120Sad", "6360": "avi", "6361": "Oops", "6362": "Great", "6363": "\u0120remembering", "6364": "\u0120included", "6365": "gers", "6366": "\u0120curly", "6367": "Zoom", "6368": "Fine", "6369": "\u0120teamwork", "6370": "zie", "6371": "\u0120fascinated", "6372": "\u0120wobbled", "6373": "\u0120slam", "6374": "\u0120truly", "6375": "\u0120helpers", "6376": "\u0120sights", "6377": "\u0120paddle", "6378": "\u0120stumble", "6379": "\u0120firm", "6380": "onn", "6381": "Henry", "6382": "\u0120Jilly", "6383": "acob", "6384": "\u0120caused", "6385": "\u0120prayer", "6386": "\u0120spong", "6387": "\u0120recording", "6388": "kelly", "6389": "ais", "6390": "\u0120traded", "6391": "\u0120starfish", "6392": "\u0120supplies", "6393": "\u0120thro", "6394": "\u0120pointy", "6395": "\u0120situation", "6396": "\u0120inviting", "6397": "eah", "6398": "\u0120neighbourhood", "6399": "\u0120everyday", "6400": "\u0120ornaments", "6401": "\u0120Ally", "6402": "inkle", "6403": "\u0120valued", "6404": "\u0120adding", "6405": "Some", "6406": "\u0120reluctantly", "6407": "\u0120dots", "6408": "\u0120stays", "6409": "\u0120tables", "6410": "\u0120prettier", "6411": "\u0120bare", "6412": "\u0120desert", "6413": "\u0120snowmen", "6414": "\u0120steady", "6415": "\u0120minerals", "6416": "araway", "6417": "\u0120thorn", "6418": "ody", "6419": "\u0120ast", "6420": "\u0120glasses", "6421": "\u0120faraway", "6422": "sm", "6423": "\u0120Get", "6424": "\u0120Foxy", "6425": "\u0120swooped", "6426": "\u0120Welcome", "6427": "\u0120Two", "6428": "\u0120Sure", "6429": "\u0120unf", "6430": "\u0120forks", "6431": "\u0120usually", "6432": "\u0120usual", "6433": "Polly", "6434": "\u0120dar", "6435": "\u0120Jamie", "6436": "\u0120winked", "6437": "\u0120sneezing", "6438": "\u0120solut", "6439": "\u0120loading", "6440": "\u0120sponge", "6441": "\u0120Quick", "6442": "\u0120insects", "6443": "\u0120pans", "6444": "Dog", "6445": "\u0120sobbed", "6446": "\u0120Santa", "6447": "James", "6448": "\u0120growling", "6449": "arter", "6450": "\u0120throat", "6451": "\u0120Chloe", "6452": "\u0120noses", "6453": "\u0120Josh", "6454": "\u0120Dizzy", "6455": "\u0120scarves", "6456": "\u0120confident", "6457": "\u0120yourselves", "6458": "\u0120Want", "6459": "agull", "6460": "\u0120homework", "6461": "\u0120superheroes", "6462": "\u0120Stay", "6463": "Joey", "6464": "rrr", "6465": "\u0120smarter", "6466": "\u0120windy", "6467": "\u0120librarian", "6468": "Tina", "6469": "\u0120Kids", "6470": "\u0120gems", "6471": "Days", "6472": "ora", "6473": "\u0120underneath", "6474": "\u0120kicks", "6475": "\u0120knowled", "6476": "\u0120itchy", "6477": "\u0120knowledge", "6478": "\u0120jackets", "6479": "\u0120Skelly", "6480": "\u0120For", "6481": "\u0120surface", "6482": "\u0120untie", "6483": "\u0120comm", "6484": "\u0120Duck", "6485": "\u0120princesses", "6486": "...\"", "6487": "Those", "6488": "ido", "6489": "Hold", "6490": "Yeah", "6491": "coon", "6492": "\u0120squares", "6493": "\u0120Henny", "6494": "\u0120warnings", "6495": "\u0120giggling", "6496": "iar", "6497": "\u0120reads", "6498": "vin", "6499": "Our", "6500": "\u0120choo", "6501": "eed", "6502": "son", "6503": "\u0120younger", "6504": "\u0120clowns", "6505": "\u0120Mix", "6506": "Toby", "6507": "\u0120ropes", "6508": "\u0120biting", "6509": "\u0120crowd", "6510": "\u0120Unfortunately", "6511": "pite", "6512": "Danny", "6513": "True", "6514": "\u0120seagull", "6515": "\u0120paddled", "6516": "\u0120wears", "6517": "\u0120delivered", "6518": "\u0120Mon", "6519": "\u0120twirl", "6520": "\u0120onions", "6521": "\u0120buzzed", "6522": "\u0120complained", "6523": "\u0120bumpy", "6524": "\u0120stem", "6525": "Ew", "6526": "\u0120piggy", "6527": "Mrs", "6528": "\u0120Anne", "6529": "\u0120direction", "6530": "ouch", "6531": "\u0120dived", "6532": "Roar", "6533": "\u0120tangled", "6534": "\u0120startled", "6535": "ults", "6536": "\u0120leaning", "6537": "bbie", "6538": "\u0120Ant", "6539": "\u0120Jones", "6540": "\u0120badge", "6541": "\u0120Po", "6542": "Grace", "6543": "\u0120unp", "6544": "\u0120deal", "6545": "though", "6546": "Annie", "6547": "\u0120vowed", "6548": "\u0120napkins", "6549": "anes", "6550": "\u0120tickled", "6551": "\u0120risk", "6552": "\u0120covers", "6553": "\u0120pec", "6554": "Shh", "6555": "\u0120yells", "6556": "\u0120satisfied", "6557": "int", "6558": "\u0120knocks", "6559": "\u0120refreshed", "6560": "tuce", "6561": "\u0120Sc", "6562": "cuse", "6563": "\u0120cous", "6564": "\u0120arrows", "6565": "Maggie", "6566": "\u0120Whistle", "6567": "Pe", "6568": "\u0120wipes", "6569": "\u0120speaking", "6570": "\u0120lettuce", "6571": "\u0120guessing", "6572": "Unfortunately", "6573": "\u0120Quack", "6574": "\u0120ripe", "6575": "\u0120Susan", "6576": "\u0120hides", "6577": "\u0120choices", "6578": "\u0120Dodo", "6579": "\u0120Rover", "6580": "Buzz", "6581": "\u0120signed", "6582": "\u0120slower", "6583": "\u0120seeker", "6584": "\u0120introduced", "6585": "\u0120singer", "6586": "\u0120creating", "6587": "\u0120Matt", "6588": "\u0120froze", "6589": "\u0120cent", "6590": "\u0120joked", "6591": "\u0120squeal", "6592": "\u0120toaster", "6593": "\u0120explorers", "6594": "fit", "6595": "\u0120avo", "6596": "Sophie", "6597": "\u0120praying", "6598": "\u0120written", "6599": "\u0120discovering", "6600": "\u0120provided", "6601": "\u0120Dara", "6602": "\u0120refle", "6603": "\u0120Lion", "6604": "Excuse", "6605": "\u0120mushrooms", "6606": "\u0120Jeff", "6607": "\u0120Paws", "6608": "\u0120paying", "6609": "\u0120knees", "6610": "ences", "6611": "\u0120hider", "6612": "\u0120wandering", "6613": "\u0120Ash", "6614": "\u0120images", "6615": "Charlie", "6616": "\u0120stung", "6617": "\u0120Wink", "6618": "\u0120magnets", "6619": "\u0120barely", "6620": "\u0120behaving", "6621": "\u0120tipto", "6622": "?\",", "6623": "\u0120marked", "6624": "brush", "6625": "\u0120restored", "6626": "\u0120Dee", "6627": "\u0120leading", "6628": "lled", "6629": "Big", "6630": "\u0120chuck", "6631": "ados", "6632": "\u0120nine", "6633": "\u0120greet", "6634": "Teddy", "6635": "\u0120gears", "6636": "\u0120bravery", "6637": "\u0120Snuggles", "6638": "ky", "6639": "\u0120competition", "6640": "\u0120outfit", "6641": "oline", "6642": "\u0120wishing", "6643": "\u0120properly", "6644": "\u0120ventured", "6645": "tle", "6646": "aa", "6647": "\u0120muscle", "6648": "\u0120dances", "6649": "\u0120chat", "6650": "\u0120salty", "6651": "\u0120pens", "6652": "amb", "6653": "\u0120Betsy", "6654": "\u0120ranger", "6655": "\u0120Ziggy", "6656": "\u0120deserve", "6657": "\u0120however", "6658": "sequ", "6659": "\u0120matters", "6660": "\u0120darkness", "6661": "\u0120burst", "6662": "\u0120Fu", "6663": "\u0120rainy", "6664": "\u0120cobwebs", "6665": "\u0120ruining", "6666": "\u0120chefs", "6667": "\u0120consequ", "6668": "\u0120blocking", "6669": "\u0120bak", "6670": "usted", "6671": "itely", "6672": "sty", "6673": "\u0120scur", "6674": "\u0120vines", "6675": "\u0120fab", "6676": "abel", "6677": "\u0120fabric", "6678": "\u0120entire", "6679": "\u0120basement", "6680": "\u0120performed", "6681": "\u0120least", "6682": "\u0120Buggy", "6683": "Sn", "6684": "\u0120scratches", "6685": "\u0120heavier", "6686": "\u0120Claire", "6687": "\u0120mints", "6688": "\u0120twirling", "6689": "\u0120avocados", "6690": "However", "6691": "\u0120Linda", "6692": "rink", "6693": "fl", "6694": "\u0120scurried", "6695": "\u0120losing", "6696": "\u0120sunflowers", "6697": "\u0120Jenna", "6698": "\u0120rainco", "6699": "\u0120swords", "6700": "Tweet", "6701": "\u0120click", "6702": "\u0120\u010a\u0120", "6703": "agic", "6704": "\u0120Laser", "6705": "\u0120silent", "6706": "\u0120jobs", "6707": "\u0120necklaces", "6708": "\u0120flames", "6709": "\u0120Luke", "6710": "\u0120relief", "6711": "\u0120Grumpy", "6712": "\u0120snat", "6713": "\u0120sewed", "6714": "\u0120rotting", "6715": "len", "6716": "Listen", "6717": "Follow", "6718": "\u0120tricky", "6719": "Jerry", "6720": "\u0120lighter", "6721": "ophia", "6722": "\u0120bows", "6723": "\u0120Skip", "6724": "\u0120exha", "6725": "\u0120solution", "6726": "\u0120consequences", "6727": "Alex", "6728": "\u0120Lena", "6729": "\u0120tires", "6730": "\u0120stain", "6731": "Beep", "6732": "\u0120unpacked", "6733": "Ab", "6734": "\u0120partic", "6735": "rance", "6736": "\u0120races", "6737": "\u0120pins", "6738": "\u0120bumps", "6739": "\u0120wraps", "6740": "aisies", "6741": "\u0120wow", "6742": "\u0120decorating", "6743": "\u0120backed", "6744": "cher", "6745": "\u0120dentist", "6746": "\u0120purr", "6747": "\u0120needles", "6748": "\u0120cautiously", "6749": "\u0120lifting", "6750": "izzie", "6751": "\u0120Pr", "6752": "\u0120accomplish", "6753": "\u0120triangles", "6754": "\u0120daisies", "6755": "ept", "6756": "\u0120hesitated", "6757": "\u0120annoy", "6758": "\u0120Those", "6759": "\u0120growls", "6760": "\u0120crackers", "6761": "oke", "6762": "\u0120stomped", "6763": "\u0120grabbing", "6764": "\u0120cott", "6765": "\u0120figured", "6766": "\u0120bodies", "6767": "\u0120mater", "6768": "\u0120buying", "6769": "\u0120Tree", "6770": "\u0120material", "6771": "\u0120Rolly", "6772": "\u0120Fido", "6773": "\u0120Adam", "6774": "\u0120swans", "6775": "\u0120ties", "6776": "\u0120gri", "6777": "vers", "6778": "\u0120grows", "6779": "\u0120sweets", "6780": "\u0120Goodbye", "6781": "\u0120El", "6782": "\u0120owners", "6783": "\u0120flavor", "6784": "\u0120cheeks", "6785": "\u0120Cathy", "6786": "\u0120suffering", "6787": "\u0120Jessie", "6788": "vroom", "6789": "\u0120fact", "6790": "\u0120groups", "6791": "cl", "6792": "bly", "6793": "\u0120forehead", "6794": "\u0120lungs", "6795": "Harry", "6796": "\u0120repa", "6797": "\u0120interested", "6798": "\u0120bakery", "6799": "\u0120Milo", "6800": "\u0120freed", "6801": "Lilly", "6802": "itches", "6803": "\u0120Nothing", "6804": "\u0120chuckled", "6805": "For", "6806": "\u0120swept", "6807": "\u0120conn", "6808": "?'", "6809": "\u0120thud", "6810": "\u0120exhausted", "6811": "Tw", "6812": "\u0120twinkling", "6813": "\u0120tapped", "6814": "\u0120nect", "6815": "rosty", "6816": "\u0120nectar", "6817": "elle", "6818": "\u0120feast", "6819": "\u0120darling", "6820": "indr", "6821": "\u0120Mad", "6822": "\u0120worries", "6823": "\u0120uns", "6824": "\u0120tunnels", "6825": "\u0120fuzzy", "6826": "\u0120repaired", "6827": "\u0120reason", "6828": "\u0120Trust", "6829": "\u0120Copper", "6830": "\u0120Ball", "6831": "\u0120activities", "6832": "lets", "6833": "\u0120pecked", "6834": "\u0120Hannah", "6835": "\u0120entrance", "6836": "\u0120Try", "6837": "\u0120raindr", "6838": "\u0120meals", "6839": "\u0120Listen", "6840": "\u0120particular", "6841": "\u0120completely", "6842": "\u0120mailed", "6843": "ctions", "6844": "\u0120nests", "6845": "\u0120waiter", "6846": "\u0120cuddly", "6847": "\u0120sense", "6848": "Ru", "6849": "\u0120Nana", "6850": "\u0120colored", "6851": "arky", "6852": "\u0120leap", "6853": "step", "6854": "band", "6855": "\u0120plenty", "6856": "\u0120peeking", "6857": "\u0120slammed", "6858": "\u0120Cara", "6859": "no", "6860": "\u0120players", "6861": "\u0120month", "6862": "\u0120budge", "6863": "\u0120Birthday", "6864": "\u0120Q", "6865": "\u0120scra", "6866": "\u0120includ", "6867": "\u0120forgets", "6868": "\u0120den", "6869": "\u0120handful", "6870": "\u0120Oliver", "6871": "\u0120mer", "6872": "ossible", "6873": "\u0120genie", "6874": "\u0120Christ", "6875": "\u0120stool", "6876": "\u0120talks", "6877": "\u0120Pup", "6878": "\u0120Suzie", "6879": "\u0120passports", "6880": "\u0120feeding", "6881": "\u0120films", "6882": "\u0120baths", "6883": "\u0120impossible", "6884": "\u0120determination", "6885": "May", "6886": "\u0120printing", "6887": "boat", "6888": "\u0120designed", "6889": "\u0120buses", "6890": "\u0120opp", "6891": "ueen", "6892": "lephant", "6893": "\u0120suitcase", "6894": "\u0120bars", "6895": "\u0120counts", "6896": "\u0120stolen", "6897": "\u0120spreading", "6898": "\u0120spikes", "6899": "\u0120Snap", "6900": "\u0120wiping", "6901": "\u0120steer", "6902": "\u0120lamb", "6903": "\u0120Rain", "6904": "\u0120honked", "6905": "etty", "6906": "Whee", "6907": "\u0120cowb", "6908": "\u0120separated", "6909": "blings", "6910": "\u0120siblings", "6911": "\u0120hops", "6912": "\u0120chop", "6913": "\u0120sewing", "6914": "\u0120fires", "6915": "\u0120Twinkle", "6916": "\u0120fever", "6917": "\u0120twinkle", "6918": "\u0120ty", "6919": "\u0120camping", "6920": "\u0120Mira", "6921": "\u0120lower", "6922": "\u0120changing", "6923": "yes", "6924": "retch", "6925": "\u0120behavi", "6926": "\u0120Bloom", "6927": "mas", "6928": "\u0120liqu", "6929": "\u0120celebration", "6930": "but", "6931": "\u0120squealed", "6932": "\u0120dollhouse", "6933": "Sunny", "6934": "\u0120backward", "6935": "\u0120age", "6936": "\u0120snatched", "6937": "\u0120cash", "6938": "ho", "6939": "\u0120twice", "6940": "lee", "6941": "\u0120sway", "6942": "itched", "6943": "\u0120celebrating", "6944": "\u0120Peanut", "6945": "\u0120shrinking", "6946": "\u0120ache", "6947": "weed", "6948": "\u0120kings", "6949": "rious", "6950": "\u0120shops", "6951": "\u0120kittens", "6952": "cope", "6953": "Rose", "6954": "\u0120Jessica", "6955": "\u0120Jacob", "6956": "rig", "6957": "\u0120Gina", "6958": "aura", "6959": "\u0120hus", "6960": "\u0120touches", "6961": "airy", "6962": "\u0120pancakes", "6963": "nies", "6964": "\u0120avoid", "6965": "\u0120spat", "6966": "\u0120Frosty", "6967": "hog", "6968": "\u0120Nina", "6969": "\u0120paths", "6970": "ives", "6971": "cky", "6972": "\u0120Hold", "6973": "\u0120rotten", "6974": "\u0120calmed", "6975": "Sandy", "6976": "\u0120seaweed", "6977": "\u0120dropping", "6978": "\u0120Mel", "6979": "iles", "6980": "Pipp", "6981": "\u0120twisting", "6982": "\u0120stroked", "6983": "\u0120Jon", "6984": "\u0120untied", "6985": "llen", "6986": "\u0120playhouse", "6987": "Millie", "6988": "\u0120students", "6989": "\u0120puppies", "6990": "\u0120Sof", "6991": "hi", "6992": "\u0120screws", "6993": "\u0120astron", "6994": "\u0120Re", "6995": "\u0120somebody", "6996": "igning", "6997": "\u0120liquid", "6998": "aren", "6999": "ammy", "7000": "\u0120wakes", "7001": "\u0120squish", "7002": "\u0120Woof", "7003": "\u0120bracelets", "7004": "\u0120astronaut", "7005": "immer", "7006": "\u0120thrown", "7007": "\u0120loops", "7008": "\u0120Other", "7009": "Luckily", "7010": "\u0120wrapping", "7011": "\u0120plain", "7012": "\u0120tramp", "7013": "\u0120planning", "7014": "\u0120skunk", "7015": "\u0120aimed", "7016": "\u0120pennies", "7017": "\u0120shoo", "7018": "\u0120lifts", "7019": "\u0120dancers", "7020": "\u0120sparks", "7021": "\u0120firefly", "7022": "pen", "7023": "\u0120poster", "7024": "yan", "7025": "endy", "7026": "\u0120cust", "7027": "\u0120Christmas", "7028": "Dan", "7029": "\u0120rewarded", "7030": "\u0120objects", "7031": "\u0120directions", "7032": "using", "7033": "ingo", "7034": "\u0120reflection", "7035": "\u0120husband", "7036": "\u00e2\u0122\u0136", "7037": "Take", "7038": "river", "7039": "\u0120clues", "7040": "uppy", "7041": "\u0120leads", "7042": "\u0120increased", "7043": "\u0120blocked", "7044": "\u0120rising", "7045": "\u0120dod", "7046": "\u0120cousin", "7047": "\u0120Yesterday", "7048": "\u0120Without", "7049": "\u0120forgetting", "7050": "rigued", "7051": "\u0120custom", "7052": "Kate", "7053": "\u0120trampoline", "7054": "\u0120beginning", "7055": "\u0120storekeeper", "7056": "\u0120pouted", "7057": "\u0120zebras", "7058": "\u0120hedgehog", "7059": "\u0120aff", "7060": "\u0120\u00e2\u0122\u013a", "7061": "\u0120borrowed", "7062": "\u0120Rollie", "7063": "\u0120snowfl", "7064": "\u0120countryside", "7065": "Jump", "7066": "\u0120mesmer", "7067": "\u0120Jay", "7068": "\u0120vehicles", "7069": "\u0120instrum", "7070": "\u0120Mic", "7071": "\u0120Kayla", "7072": "\u0120Up", "7073": "\u0120frowning", "7074": "ivity", "7075": "Pat", "7076": "Under", "7077": "\u0120marker", "7078": "yond", "7079": "\u0120presses", "7080": "\u0120beyond", "7081": "\u0120Queen", "7082": "\u0120damage", "7083": "\u0120Only", "7084": "iece", "7085": "ivery", "7086": "\u0120fart", "7087": "\u0120Tara", "7088": "\u0120Biggie", "7089": "jo", "7090": "\u0120health", "7091": "\u0120whispers", "7092": "\u0120swimsuit", "7093": "\u0120slips", "7094": "\u0120nibb", "7095": "\u0120Julia", "7096": "armer", "7097": "\u0120warmer", "7098": "\u0120flapping", "7099": "\u0120tiptoed", "7100": "\u0120regretted", "7101": "itted", "7102": "Zip", "7103": "\u0120laying", "7104": "\u0120Robo", "7105": "ades", "7106": "\u0120yelp", "7107": "\u0120Fire", "7108": "\u0120rains", "7109": "\u0120glued", "7110": "\u0120everybody", "7111": "\u0120creations", "7112": "\u0120hearing", "7113": "\u0120swir", "7114": "\u0120colder", "7115": "iversity", "7116": "ael", "7117": "\u0120shaped", "7118": "\u0120Elephant", "7119": "\u0120streets", "7120": "\u0120fins", "7121": "\u0120rusty", "7122": "\u0120cushions", "7123": "Out", "7124": "\u0120san", "7125": "\u0120farthest", "7126": "\u0120creativity", "7127": "\u0120Mikey", "7128": "ans", "7129": "\u0120sale", "7130": "Always", "7131": "Co", "7132": "\u0120strongest", "7133": "ibbit", "7134": "\u0120fits", "7135": "\u0120Sparky", "7136": "\u0120bells", "7137": "\u0120dollars", "7138": "\u0120Larry", "7139": "\u0120earn", "7140": "iam", "7141": "angle", "7142": "\u0120lending", "7143": "\u0120Moon", "7144": "\u0120Chirp", "7145": "eese", "7146": "\u0120cashier", "7147": "Milly", "7148": "\u0120including", "7149": "\u0120sniffs", "7150": "\u0120sank", "7151": "\u0120raincoat", "7152": "\u0120Rich", "7153": "\u0120trembled", "7154": "\u0120stopping", "7155": "\u0120source", "7156": "iti", "7157": "imon", "7158": "ae", "7159": "\u0120Missy", "7160": "\u0120wobbly", "7161": "\u0120indeed", "7162": "ters", "7163": "\u0120guests", "7164": "\u0120single", "7165": "\u0120recommended", "7166": "\u0120wee", "7167": "\u0120spells", "7168": "\u0120accomplishment", "7169": "\u0120belts", "7170": "\u0120surprising", "7171": "\u0120ends", "7172": "\u0120hopeful", "7173": "eet", "7174": "\u0120seasons", "7175": "\u0120Take", "7176": "\u0120Snowman", "7177": "\u0120Els", "7178": "Bear", "7179": "\u0120plans", "7180": "ichael", "7181": "\u0120supported", "7182": "stick", "7183": "illed", "7184": "\u0120suffered", "7185": "\u0120artist", "7186": "\u0120performance", "7187": "Nina", "7188": "\u0120slowed", "7189": "\u0120gross", "7190": "\u0120flavors", "7191": "iding", "7192": "ertain", "7193": "\u0120spins", "7194": "cho", "7195": "Quack", "7196": "\u0120labels", "7197": "uing", "7198": "\u0120raindrops", "7199": "\u0120delivery", "7200": "arac", "7201": "\u0120raccoon", "7202": "\u0120forgiving", "7203": "obody", "7204": "\u0120Woo", "7205": "\u0120pours", "7206": "the", "7207": "ility", "7208": "\u0120vanilla", "7209": "\u0120turtles", "7210": "\u0120stands", "7211": "Bill", "7212": "uess", "7213": "\u0120recipe", "7214": "\u0120beam", "7215": "\u0120tying", "7216": "\u0120Sw", "7217": "\u0120geese", "7218": "\u0120willing", "7219": "\u0120robber", "7220": "\u0120drawn", "7221": "Vroom", "7222": "\u0120wept", "7223": "\u0120Bones", "7224": "\u0120charac", "7225": "\u0120pops", "7226": "\u0120corners", "7227": "\u0120Sophia", "7228": "elia", "7229": "\u0120queens", "7230": "\u0120sailboat", "7231": "\u0120grip", "7232": "\u0120die", "7233": "\u0120drivers", "7234": "itude", "7235": "\u0120moo", "7236": "\u0120hallway", "7237": "\u0120imagining", "7238": "\u0120seconds", "7239": "\u0120Fuzzy", "7240": "Mine", "7241": "\u0120preparing", "7242": "\u0120widened", "7243": "\u0120adult", "7244": "\u0120Spirit", "7245": "\u0120grocer", "7246": "\u0120coop", "7247": "\u0120talented", "7248": "\u0120Pam", "7249": "\u0120Beaky", "7250": "\u0120Izzy", "7251": "ummies", "7252": "\u0120sailors", "7253": "lling", "7254": "\u0120softer", "7255": "\u0120aside", "7256": "\u0120watering", "7257": "\u0120sending", "7258": "\u0120knots", "7259": "\u0120unsure", "7260": "\u0120tipped", "7261": "Lulu", "7262": "\u0120treehouse", "7263": "\u0120horiz", "7264": "\u0120Lizzie", "7265": "\u0120notes", "7266": "\u0120echo", "7267": "igers", "7268": "\u0120achieved", "7269": "\u0120horizon", "7270": "\u0120squeak", "7271": "\u0120delivering", "7272": "\u0120pleasure", "7273": "\u0120hotter", "7274": "\u0120Stella", "7275": "Clara", "7276": "\u0120pupils", "7277": "\u0120burrow", "7278": "\u0120angels", "7279": "\u0120curiously", "7280": "Ellie", "7281": "\u0120yum", "7282": "\u0120blinking", "7283": "\u0120June", "7284": "\u0120tweet", "7285": "\u0120symbols", "7286": "\u0120det", "7287": "\u0120Stretch", "7288": "wk", "7289": "\u0120passen", "7290": "\u0120Rudy", "7291": "\u0120Cindy", "7292": "\u0120tummies", "7293": "\u0120tiss", "7294": "\u0120pigeons", "7295": "\u0120figures", "7296": "umbling", "7297": "oey", "7298": "\u0120bandages", "7299": "\u0120Robert", "7300": "\u0120coup", "7301": "\u0120Doctor", "7302": "\u0120robots", "7303": "alph", "7304": "\u0120tossed", "7305": "\u0120hour", "7306": "\u0120backwards", "7307": "\u0120roars", "7308": "Baby", "7309": "\u0120merma", "7310": "uzz", "7311": "\u0120rather", "7312": "atur", "7313": "Maria", "7314": "cited", "7315": "\u0120Play", "7316": "\u0120Crab", "7317": "Moo", "7318": "ighting", "7319": "Dolly", "7320": "\u0120groceries", "7321": "\u0120zipping", "7322": "Put", "7323": "Very", "7324": "\u0120unw", "7325": "prin", "7326": "\u0120among", "7327": "\u0120blown", "7328": "\u0120icing", "7329": "!\u00e2\u0122\u013f.", "7330": "\u0120rumble", "7331": "\u0120afterwards", "7332": "ipper", "7333": "\u0120screwd", "7334": "ushing", "7335": "\u0120sped", "7336": "\u0120prove", "7337": "\u0120glee", "7338": "\u0120Titi", "7339": "\u0120Tia", "7340": "\u0120dip", "7341": "\u0120overcome", "7342": "Ruby", "7343": "Quick", "7344": "\u0120surfboard", "7345": "\u0120shovels", "7346": "\u0120slices", "7347": "\u0120Toot", "7348": "\u0120merry", "7349": "\u0120wobble", "7350": "\u0120mate", "7351": "\u0120Turt", "7352": "\u0120Abbie", "7353": "\u0120heading", "7354": "\u0120disturbing", "7355": "\u0120swall", "7356": "\u0120reversed", "7357": "\u0120firefighters", "7358": "Jul", "7359": "\u0120swallowed", "7360": "\u0120chip", "7361": "\u0120scored", "7362": "\u0120flipped", "7363": "eds", "7364": "awn", "7365": "\u0120Jump", "7366": "\u0120squeezing", "7367": "usty", "7368": "Frank", "7369": "aty", "7370": "Su", "7371": "\u0120waking", "7372": "\u0120intrigued", "7373": "Sad", "7374": "Like", "7375": "\u0120maker", "7376": "\u0120Barky", "7377": "Betty", "7378": "\u0120puff", "7379": "\u0120hawk", "7380": "\u0120encouraging", "7381": "\u0120aud", "7382": "\u0120Ex", "7383": "osen", "7384": "onies", "7385": "\u0120chosen", "7386": "hew", "7387": "\u0120Farmer", "7388": "\u0120Ang", "7389": "\u0120couple", "7390": "\u0120designs", "7391": "\u0120slipping", "7392": "\u0120screwdriver", "7393": "\u0120squishy", "7394": "\u0120Emmy", "7395": "\u0120gardener", "7396": "\u0120center", "7397": "\u0120rivers", "7398": "\u0120respond", "7399": "\u0120markers", "7400": "iley", "7401": "\u0120tigers", "7402": "\u0120jars", "7403": "pecting", "7404": "\u0120frowns", "7405": "bird", "7406": "\u0120fluttered", "7407": "\u0120Sadly", "7408": "\u0120Kit", "7409": "Ribbit", "7410": "\u0120firefighter", "7411": "\u0120Sl", "7412": "\u0120Ryan", "7413": "\u0120suits", "7414": "\u0120secure", "7415": "\u0120sprinkled", "7416": "\u0120creamy", "7417": "ashes", "7418": "\u0120sharks", "7419": "\u0120ignoring", "7420": "\u0120bru", "7421": "\u0120giggles", "7422": "\u0120tissue", "7423": "\u0120tighter", "7424": "\u0120firmly", "7425": "ounce", "7426": "\u0120Laura", "7427": "fly", "7428": "\u0120shown", "7429": "\u0120familiar", "7430": "\u0120thorns", "7431": "Spike", "7432": "\u0120Wo", "7433": "\u0120drawers", "7434": "child", "7435": "\u0120Zee", "7436": "\u0120express", "7437": "Car", "7438": "ments", "7439": "\u0120def", "7440": "\u0120daring", "7441": "\u0120crossing", "7442": "\u0120audience", "7443": "\u0120performing", "7444": "\u0120coloured", "7445": "\u0120cloudy", "7446": "\u0120cor", "7447": "\u0120ais", "7448": "\u0120Nick", "7449": "rat", "7450": "\u0120pedaled", "7451": "Get", "7452": "\u0120mixture", "7453": "\u0120til", "7454": "\u0120gracefully", "7455": "ggy", "7456": "\u0120haircuts", "7457": "\u0120yielded", "7458": "\u0120ponies", "7459": "\u0120disob", "7460": "\u0120crowns", "7461": "\u0120bits", "7462": "\u0120todd", "7463": "\u0120Sleep", "7464": "\u0120nervously", "7465": "\u0120hangers", "7466": "bbled", "7467": "\u0120Patch", "7468": "Zoomy", "7469": "\u0120pays", "7470": "\u01202", "7471": "\u0120peck", "7472": "\u0120stroke", "7473": "\u0120ev", "7474": "fall", "7475": "Bang", "7476": "een", "7477": "\u0120respected", "7478": "\u0120napped", "7479": "\u0120Ron", "7480": "aven", "7481": "\u0120minded", "7482": "ddie", "7483": "Bessie", "7484": "ably", "7485": "Boys", "7486": "\u0120tested", "7487": "ading", "7488": "parent", "7489": "\u0120Chris", "7490": "Kim", "7491": "\u0120University", "7492": "\u0120Near", "7493": "\u0120beeh", "7494": "\u0120Turtle", "7495": "\u0120surfing", "7496": "\u0120neighbours", "7497": "arrow", "7498": "vered", "7499": "\u0120shady", "7500": "iona", "7501": "arlings", "7502": "\u0120magician", "7503": "\u0120enthusiasm", "7504": "\u0120darlings", "7505": "\u0120wisely", "7506": "\u0120stitches", "7507": "\u0120sails", "7508": "kend", "7509": "Dear", "7510": "\u0120weekend", "7511": "\u0120thoughts", "7512": "Freddy", "7513": "\u0120Tweetie", "7514": "\u0120reminds", "7515": "\u0120temper", "7516": "oring", "7517": "tha", "7518": "antha", "7519": "\u0120surroundings", "7520": "\u0120spits", "7521": "\u0120fleas", "7522": "\u0120teams", "7523": "\u0120lessons", "7524": "\u0120fills", "7525": "\u0120flip", "7526": "\u0120Along", "7527": "\u0120paintbrush", "7528": "\u0120melons", "7529": "\u0120mermaid", "7530": "oni", "7531": "Katie", "7532": "rac", "7533": "\u0120grandchild", "7534": "\u0120hoops", "7535": "\u0120explo", "7536": "\u0120elbow", "7537": "\u0120sports", "7538": "Guess", "7539": "\u0120lies", "7540": "\u0120Fighting", "7541": "\u0120panicked", "7542": "\u0120cleaner", "7543": "\u0120amount", "7544": "cused", "7545": "\u0120longest", "7546": "\u0120scooters", "7547": "\u0120lent", "7548": "ita", "7549": "immering", "7550": "\u0120sill", "7551": "\u0120beloved", "7552": "Pippin", "7553": "\u0120beehive", "7554": "Alright", "7555": "ongrat", "7556": "oga", "7557": "lle", "7558": "ongratul", "7559": "\u0120oysters", "7560": "\u0120grandparent", "7561": "\u0120forgiven", "7562": "\u0120magazines", "7563": "\u0120arr", "7564": "\u0120Wise", "7565": "\u0120elf", "7566": "\u0120repeating", "7567": "\u0120discussed", "7568": "\u0120sweetest", "7569": "\u0120Thanks", "7570": "Keep", "7571": "\u0120wadd", "7572": "\u0120Maya", "7573": "\u0120reass", "7574": "\u0120lace", "7575": "\u0120Granny", "7576": "\u0120nightmares", "7577": "\u0120tubes", "7578": "\u0120Willy", "7579": "Am", "7580": "\u0120understands", "7581": "\u0120spoonful", "7582": "\u0120nood", "7583": "\u0120bathing", "7584": "\u0120Zoey", "7585": "asty", "7586": "\u0120sweep", "7587": "\u0120manners", "7588": "onna", "7589": "crow", "7590": "Uncle", "7591": "\u0120wrink", "7592": "\u0120sprang", "7593": "\u0120nur", "7594": "\u0120bully", "7595": "\u0120Holly", "7596": "\u0120guide", "7597": "\u0120Yet", "7598": "\u0120crew", "7599": "romise", "7600": "ancy", "7601": "Jazz", "7602": "\u0120breathed", "7603": "while", "7604": "steps", "7605": "ilda", "7606": "ently", "7607": "\u0120Bally", "7608": "\u0120bulbs", "7609": "\u0120neare", "7610": "\u0120grassy", "7611": "\u0120wiggly", "7612": "\u0120testing", "7613": "\u0120spies", "7614": "\u0120coug", "7615": "\u0120solving", "7616": "\u0120sheets", "7617": "\u0120Roo", "7618": "\u0120footsteps", "7619": "ntil", "7620": "Afterwards", "7621": "\u0120speeding", "7622": "\u0120focused", "7623": "ounced", "7624": "cept", "7625": "?!\"", "7626": "\u0120mesmerized", "7627": "\u0120camel", "7628": "\u0120braver", "7629": "\u0120hesitant", "7630": "\u0120Sparkle", "7631": "\u0120licking", "7632": "\u0120rushing", "7633": "\u0120Well", "7634": "ne", "7635": "\u0120joining", "7636": "\u0120Puppy", "7637": "\u0120polar", "7638": "\u0120greeted", "7639": "\u0120Martha", "7640": "espite", "7641": "anna", "7642": "--", "7643": "\u0120Bubb", "7644": "Which", "7645": "Kiki", "7646": "\u0120worn", "7647": "\u0120materials", "7648": "\u0120changes", "7649": "\u0120aren", "7650": "\u0120Nobody", "7651": "undred", "7652": "\u0120stored", "7653": "\u0120bicycles", "7654": "\u0120mast", "7655": "\u0120anger", "7656": "Leave", "7657": "\u0120peacefully", "7658": "\u0120ships", "7659": "\u0120spice", "7660": "\u0120terrified", "7661": "\u0120nuzz", "7662": "\u0120gonna", "7663": "\u0120Show", "7664": "\u0120politely", "7665": "Snow", "7666": "\u0120spills", "7667": "\u0120scarecrow", "7668": "\u0120knives", "7669": "\u0120evil", "7670": "\u0120Mixy", "7671": "ppies", "7672": "\u0120burying", "7673": "ca", "7674": "\u0120healing", "7675": "\u0120donkey", "7676": "\u0120aeroplanes", "7677": "freeze", "7678": "Even", "7679": "\u0120seals", "7680": "\u0120scattering", "7681": "\u0120miles", "7682": "\u0120Chewy", "7683": "amboo", "7684": "\u0120dump", "7685": "\u0120worrying", "7686": "Bee", "7687": "zoom", "7688": "beep", "7689": "David", "7690": "\u0120Lenny", "7691": "\u0120puzzled", "7692": "\u0120stacked", "7693": "\u0120Kip", "7694": "Penny", "7695": "\u0120Nice", "7696": "\u0120loses", "7697": "dding", "7698": "\u0120travelled", "7699": "\u0120baskets", "7700": "\u0120Win", "7701": "\u0120Okay", "7702": "\u0120gazing", "7703": "\u0120blast", "7704": "ipes", "7705": "\u0120Tess", "7706": "Hurry", "7707": "\u0120temperature", "7708": "\u0120und", "7709": "\u0120tasting", "7710": "\u0120dripping", "7711": "\u0120clue", "7712": "\u0120believing", "7713": "\u0120pinching", "7714": "erm", "7715": "\u0120soaking", "7716": "\u0120rats", "7717": "\u012010", "7718": "isc", "7719": "\u0120sandy", "7720": "rect", "7721": "\u0120Isn", "7722": "\u0120Simon", "7723": "rey", "7724": "anwhile", "7725": "gling", "7726": "\u0120Abi", "7727": "Binky", "7728": "\u0120punishment", "7729": "\u0120banged", "7730": "\u0120humans", "7731": "\u0120crashing", "7732": "\u0120force", "7733": "\u0120Ana", "7734": "\u0120hundred", "7735": "\u0120gest", "7736": "\u0120Lia", "7737": "\u0120swimmer", "7738": "\u0120Chess", "7739": "\u0120snowflakes", "7740": "\u0120relaxing", "7741": "\u0120resisted", "7742": "\u0120beeped", "7743": "\u0120Fairy", "7744": "\u0120quarreled", "7745": "form", "7746": "elie", "7747": "\u0120ramp", "7748": "\u0120Wendy", "7749": "\u0120joins", "7750": "abby", "7751": "\u0120backpacks", "7752": "\u0120Ph", "7753": "years", "7754": "\u0120dressing", "7755": "\u0120delayed", "7756": "\u0120toddler", "7757": "\u0120Luckily", "7758": "\u0120flight", "7759": "\u0120covering", "7760": "\u0120Te", "7761": "orter", "7762": "Two", "7763": "Open", "7764": "By", "7765": "\u0120encouragement", "7766": "\u0120benches", "7767": "\u0120toward", "7768": "\u0120scraped", "7769": "\u0120purpose", "7770": "\u0120focus", "7771": "\u0120Judy", "7772": "Bow", "7773": "\u0120correct", "7774": "'.\"", "7775": "\u0120lipstick", "7776": "\u0120bamboo", "7777": "Spe", "7778": "\u0120twinkled", "7779": "\u0120potion", "7780": "\u0120permitted", "7781": "\u0120months", "7782": "\u0120Cow", "7783": "\u0120languages", "7784": "\u0120orders", "7785": "\u0120freedom", "7786": "Tony", "7787": "\u0120risks", "7788": "\u0120poppies", "7789": "\u0120master", "7790": "shm", "7791": "\u0120noodles", "7792": "\u0120faded", "7793": "\u0120wounds", "7794": "shmallow", "7795": "rier", "7796": "Kids", "7797": "isions", "7798": "\u0120Jojo", "7799": "\u0120creams", "7800": "\u0120birdhouse", "7801": "\u0120cells", "7802": "\u0120annoyed", "7803": "\u0120Herb", "7804": "opes", "7805": "\u0120sniffing", "7806": "\u0120cheers", "7807": "\u0120adults", "7808": "Birdy", "7809": "\u0120unwra", "7810": "ecca", "7811": "Buzzy", "7812": "\u0120puck", "7813": "\u0120opinions", "7814": "\u0120floats", "7815": "andas", "7816": "Instead", "7817": "\u0120flown", "7818": "\u0120sneezes", "7819": "\u0120scen", "7820": "\u0120handsome", "7821": "\u0120Hug", "7822": "\u0120nodding", "7823": "\u0120Mint", "7824": "\u0120smelling", "7825": "\u0120burnt", "7826": "\u01205", "7827": "\u0120drifted", "7828": "ider", "7829": "bage", "7830": "\u0120within", "7831": "\u0120scient", "7832": "\u0120height", "7833": "\u0120damaged", "7834": "\u0120bothering", "7835": "\u0120tearing", "7836": "\u0120slither", "7837": "\u0120pleaded", "7838": "\u0120instruments", "7839": "\u0120ease", "7840": "\u0120Ali", "7841": "Back", "7842": "\u0120scientist", "7843": "\u0120Marie", "7844": "Mira", "7845": "Goodnight", "7846": "\u0120pound", "7847": "\u0120seller", "7848": "\u0120handing", "7849": "da", "7850": "\u0120germ", "7851": "\u0120Say", "7852": "\u0120wasting", "7853": "\u0120files", "7854": "\u0120results", "7855": "\u0120dreamt", "7856": "\u0120Mabel", "7857": "bell", "7858": "\u0120explains", "7859": "\u0120destroying", "7860": "\u0120brushing", "7861": "ousy", "7862": "\u0120hiss", "7863": "\u0120characters", "7864": "\u0120Razor", "7865": "\u0120Cr", "7866": "Carl", "7867": "\u0120certain", "7868": "\u0120Ste", "7869": "Pandy", "7870": "Behind", "7871": "\u0120sweaty", "7872": "unched", "7873": "\u0120business", "7874": "\u0120Robbie", "7875": "\u0120talents", "7876": "\u0120onward", "7877": "Try", "7878": "\u0120engines", "7879": "\u0120bravest", "7880": "ition", "7881": "\u0120sternly", "7882": "\u0120Pen", "7883": "\u0120Janie", "7884": "prints", "7885": "\u0120postman", "7886": "\u0120mosquitoes", "7887": "\u0120minds", "7888": "cake", "7889": "\u0120tuck", "7890": "\u0120scares", "7891": "urious", "7892": "\u0120stomp", "7893": "\u0120apologised", "7894": "uel", "7895": "\u0120manag", "7896": "\u0120snuck", "7897": "\u0120bitten", "7898": "attered", "7899": "\u0120tilted", "7900": "\u0120switched", "7901": "\u0120reminding", "7902": "\u0120decisions", "7903": "\u0120singers", "7904": "\u0120desper", "7905": "\u0120behavior", "7906": "\u0120Poor", "7907": "ashing", "7908": "\u0120Judge", "7909": "bbers", "7910": "inny", "7911": "\u0120squeaked", "7912": "\u0120peeled", "7913": "\u0120Everybody", "7914": "\u0120yumm", "7915": "\u0120purrs", "7916": "\u0120Bra", "7917": "\u0120treated", "7918": "\u0120smashed", "7919": "\u0120rustling", "7920": "\u0120displayed", "7921": "\u0120Until", "7922": "\u0120neatly", "7923": "\u0120matey", "7924": "\u0120planting", "7925": "\u0120Bess", "7926": "inier", "7927": "\u0120marshmallow", "7928": "\u0120insp", "7929": "\u0120yelped", "7930": "\u0120sy", "7931": "\u0120grandparents", "7932": "\u0120cracks", "7933": "\u0120bellies", "7934": "aver", "7935": "\u0120shines", "7936": "\u0120scamp", "7937": "\u0120Navy", "7938": "\u0120hoo", "7939": "\u0120failed", "7940": "\u0120coloring", "7941": "\u0120Yoga", "7942": "\u0120zooms", "7943": "\u0120Make", "7944": "rup", "7945": "\u0120nasty", "7946": "\u0120breathing", "7947": "\u0120combed", "7948": "\u0120pandas", "7949": "\u0120despite", "7950": "line", "7951": "\u0120address", "7952": "ighing", "7953": "\u0120waterfall", "7954": "uffin", "7955": "omp", "7956": "cc", "7957": "\u0120Loop", "7958": "\u0120Angel", "7959": "Tilly", "7960": "\u0120wider", "7961": "\u0120robbers", "7962": "\u0120antic", "7963": "Play", "7964": "Abigail", "7965": "\u0120sweaters", "7966": "\u0120echoed", "7967": "\u0120doorway", "7968": "\u0120Todd", "7969": "evin", "7970": "\u0120edges", "7971": "\u0120inj", "7972": "\u0120Shadow", "7973": "Aunt", "7974": "\u0120gap", "7975": "\u0120disobey", "7976": "\u0120Blinky", "7977": "wise", "7978": "Liz", "7979": "\u0120Michael", "7980": "sss", "7981": "\u0120tar", "7982": "\u0120Flick", "7983": "oscope", "7984": "orking", "7985": "Wake", "7986": "\u0120taped", "7987": "\u0120magnif", "7988": "ulp", "7989": "father", "7990": "\u0120scolds", "7991": "\u0120flaps", "7992": "\u0120action", "7993": "\u0120crawls", "7994": "\u0120Mindy", "7995": "Ros", "7996": "\u0120swap", "7997": "\u0120gobbled", "7998": "\u0120backs", "7999": "\u0120Gary", "8000": "\u0120warri", "8001": "\u0120Fishy", "8002": "\u0120Eddie", "8003": "Slow", "8004": "\u0120steth", "8005": "\u0120sever", "8006": "\u0120shinier", "8007": "\u0120probably", "8008": "\u0120newspapers", "8009": "\u0120several", "8010": "\u0120occ", "8011": "Rock", "8012": "Lena", "8013": "\u0120encount", "8014": "\u0120Meg", "8015": "\u0120serving", "8016": "\u0120quieter", "8017": "\u0120plucked", "8018": "\u0120connected", "8019": "tock", "8020": "\u0120Share", "8021": "\u0120ouch", "8022": "igger", "8023": "Ted", "8024": "Adam", "8025": "\u0120gesture", "8026": "Too", "8027": "Fl", "8028": "\u0120student", "8029": "\u0120plot", "8030": "\u0120doorbell", "8031": "\u0120squaw", "8032": "\u0120cares", "8033": "fire", "8034": "\u0120rescuing", "8035": "\u0120grandson", "8036": "\u0120Se", "8037": "\u0120spy", "8038": "\u0120simply", "8039": "\u0120rows", "8040": "\u0120goo", "8041": "iel", "8042": "\u0120whistles", "8043": "mies", "8044": "vant", "8045": "Shrink", "8046": "Magic", "8047": "\u0120snaps", "8048": "\u0120shorter", "8049": "\u0120astronauts", "8050": "sss", "8051": "\u0120unpacking", "8052": "\u0120cottage", "8053": "\u0120Time", "8054": "\u0120swo", "8055": "\u0120accidents", "8056": "ibi", "8057": "\u0120swollen", "8058": "\u0120mood", "8059": "\u0120Nut", "8060": "Steve", "8061": "abelle", "8062": "\u0120Zippy", "8063": "\u0120Mousy", "8064": "anie", "8065": "Zara", "8066": "\u0120bothered", "8067": "Hannah", "8068": "\u0120stethoscope", "8069": "found", "8070": "\u0120trusting", "8071": "\u0120causing", "8072": "Mat", "8073": "Mad", "8074": "\u0120leapt", "8075": "\u0120dresser", "8076": "aint", "8077": "\u0120sou", "8078": "\u0120proper", "8079": "\u0120pills", "8080": "retty", "8081": "\u0120throughout", "8082": "Olive", "8083": "\u0120runner", "8084": "\u0120prayers", "8085": "\u0120Dina", "8086": "\u0120joyful", "8087": "Thomas", "8088": "\u0120Karen", "8089": "mates", "8090": "\u0120locks", "8091": "\u0120Prince", "8092": "Jamie", "8093": "\u0120goats", "8094": "what", "8095": "\u0120target", "8096": "rest", "8097": "\u0120Wait", "8098": "\u0120dears", "8099": "\u0120Bang", "8100": "artled", "8101": "Red", "8102": "\u0120waddled", "8103": "\u0120munch", "8104": "\u0120flips", "8105": "\u0120Cro", "8106": "onnie", "8107": "\u0120lowered", "8108": "\u0120stepping", "8109": "\u0120cons", "8110": "\u0120Jackie", "8111": "\u0120teachers", "8112": "\u0120cowboy", "8113": "\u0120Toys", "8114": "\u0120inches", "8115": "\u0120envelopes", "8116": "ears", "8117": "\u0120char", "8118": "\u0120Vroom", "8119": "\u0120explorer", "8120": "\u0120anticip", "8121": "\u0120playd", "8122": "\u0120Ready", "8123": "\u0120Ruff", "8124": "\u0120Ralph", "8125": "unity", "8126": "Nice", "8127": "Finn", "8128": "\u0120Bad", "8129": "ening", "8130": "\u0120knocking", "8131": "\u0120floors", "8132": "\u0120efforts", "8133": "\u0120Pl", "8134": "\u0120uniforms", "8135": "lied", "8136": "\u0120plug", "8137": "\u0120Tri", "8138": "\u0120aware", "8139": "\u0120footprints", "8140": "Someone", "8141": "\u0120nearly", "8142": "\u0120Fiona", "8143": "llas", "8144": "\u0120disc", "8145": "\u0120Ria", "8146": "ivi", "8147": "\u0120whimp", "8148": "\u0120trot", "8149": "\u0120sens", "8150": "\u0120glitt", "8151": "\u0120appreciation", "8152": "oosh", "8153": "\u0120necks", "8154": "\u0120collap", "8155": "\u0120checks", "8156": "\u0120lapt", "8157": "\u0120except", "8158": "ici", "8159": "\u0120charge", "8160": "\u0120Jacky", "8161": "\u0120fluttering", "8162": "\u0120umbrellas", "8163": "acy", "8164": "\u0120sandcastles", "8165": "\u0120Davey", "8166": "\u0120statues", "8167": "\u0120stamped", "8168": "\u0120Honey", "8169": "omb", "8170": "iscuit", "8171": "ails", "8172": "Hoppy", "8173": "\u0120shrank", "8174": "\u0120Amelia", "8175": "rily", "8176": "\u0120prick", "8177": "\u0120finishing", "8178": "\u0120adds", "8179": "rons", "8180": "\u0120stroll", "8181": "\u0120hunters", "8182": "\u0120dodged", "8183": "\u0120chocolates", "8184": "\u0120passengers", "8185": "\u0120germs", "8186": "oger", "8187": "nie", "8188": "\u0120wrig", "8189": "\u0120aprons", "8190": "\u0120aisle", "8191": "\u0120sets", "8192": ".'\"", "8193": "\u0120Gerry", "8194": "\u0120weeds", "8195": "\u0120novels", "8196": "\u0120demanding", "8197": "\u0120Taking", "8198": "gles", "8199": "\u0120scratching", "8200": "\u0120meows", "8201": "issa", "8202": "Dr", "8203": "\u0120nurses", "8204": "Lucky", "8205": "\u0120minding", "8206": "\u0120discussing", "8207": "urrender", "8208": "\u0120killed", "8209": "\u0120driveway", "8210": "\u0120Cari", "8211": "\u0120becomes", "8212": "\u0120toolbox", "8213": "\u0120laptop", "8214": "\u0120haird", "8215": "\u0120Eliz", "8216": "\u0120posit", "8217": "\u0120attack", "8218": "\u0120Sadie", "8219": "\u0120Gl", "8220": "\u0120Despite", "8221": "Speedy", "8222": "sol", "8223": "\u0120scampered", "8224": "\u0120bounces", "8225": "\u0120supplied", "8226": "\u0120sprays", "8227": "\u0120deed", "8228": "\u0120tempt", "8229": "\u0120suggestion", "8230": "\u0120friendships", "8231": "\u0120burns", "8232": "Coco", "8233": "\u0120slapping", "8234": "\u0120closing", "8235": "Arrr", "8236": "\u0120invites", "8237": "\u0120belongings", "8238": "\u0120anticipation", "8239": "\u0120springing", "8240": "\u0120form", "8241": "\u0120erase", "8242": "\u0120cotton", "8243": "\u0120Stan", "8244": "\u0120twists", "8245": "\u0120rays", "8246": "\u0120snuggle", "8247": "\u0120forgives", "8248": "\u0120models", "8249": "\u0120shall", "8250": "\u0120massages", "8251": "\u0120humming", "8252": "\u0120responded", "8253": "\u0120newfound", "8254": "\u0120ghosts", "8255": "\u0120expecting", "8256": "\u0120Shelly", "8257": "\u0120cheated", "8258": "Does", "8259": "\u0120Wooly", "8260": "Gigi", "8261": "otte", "8262": "\u0120traveling", "8263": "\u0120Ne", "8264": "\u0120cond", "8265": "\u0120battle", "8266": "\u0120although", "8267": "\u0120arran", "8268": "alloween", "8269": "\u0120mommies", "8270": "\u0120invitations", "8271": "\u0120carries", "8272": "\u0120aim", "8273": "\u0120refreshing", "8274": "\u0120presented", "8275": "hel", "8276": "\u0120twenty", "8277": "\u0120rowed", "8278": "\u0120Bumpy", "8279": "ots", "8280": "\u0120squir", "8281": "rie", "8282": "arlotte", "8283": "\u0120foxes", "8284": "\u0120cooper", "8285": "\u0120final", "8286": "\u0120duckling", "8287": "\u0120cafe", "8288": "\u0120Bibi", "8289": "Pip", "8290": "\u0120marshmallows", "8291": "\u0120clicked", "8292": "\u0120Zipper", "8293": "oor", "8294": "\u0120jets", "8295": "\u0120designing", "8296": "\u0120beaver", "8297": "five", "8298": "\u0120Muffin", "8299": "\u0120Halloween", "8300": "\u0120mugs", "8301": "\u0120Whoever", "8302": "\u0120drown", "8303": "\u0120Although", "8304": "\u0120tricycle", "8305": "\u0120picnics", "8306": "\u0120oppos", "8307": "\u0120convin", "8308": "\u0120Ruth", "8309": "\u0120Excited", "8310": "iens", "8311": "\u0120Cle", "8312": "\u0120scoops", "8313": "\u0120congratul", "8314": "\u0120Pop", "8315": "\u0120Maddie", "8316": "po", "8317": "Sadly", "8318": "\u0120\u00e2\u0122\u0136", "8319": "\u0120travels", "8320": "\u0120aliens", "8321": "\u0120tests", "8322": "\u0120questioned", "8323": "\u0120Speed", "8324": "inted", "8325": "\u0120strips", "8326": "\u0120craft", "8327": "\u0120Im", "8328": "Near", "8329": "atty", "8330": "Mouse", "8331": "covered", "8332": "\u0120defe", "8333": "\u0120Flutter", "8334": "\u0120Bubba", "8335": "iri", "8336": "Br", "8337": "\u0120fights", "8338": "roken", "8339": "Ball", "8340": "\u0120opposite", "8341": "\u0120Biggy", "8342": "Hmm", "8343": "Find", "8344": "Elly", "8345": "Chloe", "8346": "\u0120rout", "8347": "\u0120grandfather", "8348": "\u0120encountered", "8349": "\u0120Never", "8350": "\u0120decl", "8351": "inch", "8352": "\u0120afford", "8353": "\u0120raising", "8354": "iment", "8355": "\u0120upside", "8356": "\u0120Vivi", "8357": "Meanwhile", "8358": "Jess", "8359": "\u0120flashed", "8360": "\u0120calmly", "8361": "\u0120Rita", "8362": "\u0120yawning", "8363": "\u0120sincere", "8364": "\u0120realizes", "8365": "aturday", "8366": "Trust", "8367": "Choo", "8368": "\u0120crystals", "8369": "\u0120buddy", "8370": "\u0120Samantha", "8371": "\u0120cupcakes", "8372": "\u0120buckled", "8373": "byes", "8374": "Both", "8375": "\u0120winners", "8376": "\u0120defin", "8377": "verse", "8378": "ris", "8379": "\u0120conc", "8380": "',", "8381": "\u0120weapons", "8382": "\u0120caw", "8383": "shadow", "8384": "Josh", "8385": "\u0120packages", "8386": "\u0120cheat", "8387": "\u0120Saturday", "8388": "\u0120sacks", "8389": "\u0120messes", "8390": "\u0120goodbyes", "8391": "\u0120coach", "8392": "\u0120attem", "8393": "quet", "8394": "\u0120convers", "8395": "\u0120Truck", "8396": "\u0120Flo", "8397": "val", "8398": "\u0120drift", "8399": "\u0120caps", "8400": "\u0120Mina", "8401": "\u0120Eva", "8402": "emies", "8403": "\u0120enemies", "8404": "asha", "8405": "\u0120yummiest", "8406": "\u0120scrub", "8407": "\u0120swallow", "8408": "\u0120returning", "8409": "\u0120admiration", "8410": "\u0120Softy", "8411": "\u0120Megan", "8412": "Since", "8413": "\u0120sprout", "8414": "\u0120Louise", "8415": "\u0120unable", "8416": "\u0120Playing", "8417": "\u0120Another", "8418": "ooks", "8419": "\u0120sadder", "8420": "\u0120freezing", "8421": "\u0120brightest", "8422": "\u0120bless", "8423": "\u0120Yawn", "8424": "rian", "8425": "\u0120respon", "8426": "reverse", "8427": "\u0120response", "8428": "\u0120cosy", "8429": "\u0120Oh", "8430": "\u0120diamonds", "8431": "\u0120bride", "8432": "stalk", "8433": "\u0120reapp", "8434": "\u0120opport", "8435": "\u0120honking", "8436": "\u0120garbage", "8437": "\u0120Man", "8438": "\u0120whispering", "8439": "\u0120stretches", "8440": "\u0120prevented", "8441": "erk", "8442": "antastic", "8443": "\u0120whoever", "8444": "\u0120odd", "8445": "\u0120awful", "8446": "\u0120Gray", "8447": "alth", "8448": "\u0120weighs", "8449": "\u0120journeys", "8450": "\u0120awoke", "8451": "Brrr", "8452": "\u0120traps", "8453": "\u0120spices", "8454": "\u0120dragonfly", "8455": "off", "8456": "\u0120born", "8457": "\u0120reassured", "8458": "\u0120clip", "8459": "ivia", "8460": "\u0120stall", "8461": "\u0120beanstalk", "8462": "\u0120argum", "8463": "\u0120examining", "8464": "\u0120definitely", "8465": "\u0120beetles", "8466": "\u0120automobiles", "8467": "\u0120Maisy", "8468": "mine", "8469": "Hop", "8470": "\u0120visitors", "8471": "\u0120stuffing", "8472": "\u0120playdate", "8473": "\u0120washes", "8474": "cie", "8475": "broken", "8476": "\u0120wiser", "8477": "\u0120customer", "8478": "uper", "8479": "emma", "8480": "Rachel", "8481": "\u0120travelling", "8482": "\u0120Sofia", "8483": "\u0120Jolly", "8484": "\u0120Flop", "8485": "ouquet", "8486": "\u0120hairdress", "8487": "\u0120bouquet", "8488": "\u0120Nurse", "8489": "orse", "8490": "bble", "8491": ",'", "8492": "\u0120tumbled", "8493": "\u0120decoration", "8494": "\u0120campfire", "8495": "\u0120Elle", "8496": "\u0120honesty", "8497": "\u0120bud", "8498": "vy", "8499": "ebecca", "8500": "Only", "8501": "\u0120bomb", "8502": "\u0120welcoming", "8503": "\u0120offering", "8504": "\u0120wealth", "8505": "\u0120troubles", "8506": "\u0120occas", "8507": "\u0120Ot", "8508": "\u0120Jax", "8509": "\u0120Hello", "8510": "\u0120loudest", "8511": "\u0120inspired", "8512": "\u0120increasing", "8513": "\u0120type", "8514": "\u0120parted", "8515": "\u0120groan", "8516": "\u0120Chick", "8517": "\u0120Nutty", "8518": "irac", "8519": "\u0120whales", "8520": "\u0120Thunder", "8521": "\u0120Ricky", "8522": "\u0120declared", "8523": "\u0120correctly", "8524": "yler", "8525": "ooky", "8526": "fus", "8527": "\u0120beaks", "8528": "\u0120Quacky", "8529": "athan", "8530": "\u0120cleared", "8531": "\u0120cowboys", "8532": "\u0120nuzzled", "8533": "\u0120Dotty", "8534": "\u0120prizes", "8535": "Finny", "8536": "\u0120warmly", "8537": "\u0120Missile", "8538": "\u0120rewards", "8539": "\u0120obeyed", "8540": "\u0120customers", "8541": "Should", "8542": "\u0120sirens", "8543": "\u0120comforting", "8544": "\u0120Fel", "8545": "shaped", "8546": "\u0120connect", "8547": "\u0120Flappy", "8548": "match", "8549": "\u0120towns", "8550": "\u0120Magic", "8551": "\u0120Bingo", "8552": "elieve", "8553": "\u0120rely", "8554": "\u0120Vicky", "8555": "Honey", "8556": "\u0120trigger", "8557": "\u0120owns", "8558": "\u0120insisting", "8559": "\u0120fantastic", "8560": "\u0120bends", "8561": "\u0120Fe", "8562": "\u0120spoiling", "8563": "\u0120hairdresser", "8564": "\u0120surrendered", "8565": "\u0120supporting", "8566": "\u0120shares", "8567": "\u0120poses", "8568": "\u0120pipes", "8569": "\u0120cleans", "8570": "rench", "8571": "Sun", "8572": "Outside", "8573": "Julie", "8574": "\u0120wrinkled", "8575": "\u0120Cook", "8576": "\u0120chopped", "8577": "\u0120recorder", "8578": "\u0120moons", "8579": "\u0120beaming", "8580": "unes", "8581": "ellow", "8582": "Beth", "8583": "\u0120thanking", "8584": "\u0120snowy", "8585": "\u0120Wolf", "8586": "enn", "8587": "\u0120scurry", "8588": "\u0120experien", "8589": "\u0120enjoyable", "8590": "\u0120active", "8591": "\u0120coral", "8592": "\u0120Piggy", "8593": "\u0120environ", "8594": "\u0120dollar", "8595": "\u0120Kevin", "8596": "worm", "8597": "elope", "8598": "\u0120loc", "8599": "Je", "8600": "\u0120streamers", "8601": "\u0120Bub", "8602": "udged", "8603": "\u0120Patty", "8604": "\u0120Mother", "8605": "\u0120Zack", "8606": "inger", "8607": "Suzy", "8608": "\u0120examp", "8609": "\u0120shorts", "8610": "\u0120shooed", "8611": "\u0120environment", "8612": "Tree", "8613": "\u0120ill", "8614": "\u0120scent", "8615": "\u0120bruises", "8616": "uster", "8617": "\u0120grat", "8618": "\u0120Luc", "8619": "Bo", "8620": "\u0120hisses", "8621": "\u0120steering", "8622": "\u0120self", "8623": "\u0120plugged", "8624": "\u0120Elsa", "8625": "\u0120warrior", "8626": "yl", "8627": "\u0120visits", "8628": "\u0120exercises", "8629": "screen", "8630": "irl", "8631": "aptain", "8632": "\u0120dangers", "8633": "\u0120cuddles", "8634": "\u0120Rel", "8635": "\u0120Ar", "8636": "\u0120unfortunately", "8637": "\u0120squished", "8638": "\u0120signing", "8639": "\u0120Light", "8640": "bee", "8641": "Ray", "8642": "\u0120pilots", "8643": "\u0120disappoint", "8644": "munk", "8645": "\u0120gratitude", "8646": "\u0120applauding", "8647": "\u0120providing", "8648": "\u0120Moppy", "8649": "alf", "8650": "\u0120tickles", "8651": "\u0120ting", "8652": "\u0120Rub", "8653": "Grow", "8654": "\u0120storms", "8655": "\u0120nights", "8656": "\u0120jud", "8657": "\u0120convinced", "8658": "\u0120badger", "8659": "\u0120Elsie", "8660": "\u0120youn", "8661": "\u0120responsib", "8662": "\u0120choosing", "8663": "\u0120Kelly", "8664": "Joy", "8665": "\u0120youngest", "8666": "\u0120nearest", "8667": "\u0120brains", "8668": "\u0120activity", "8669": "Abby", "8670": "\u0120exploded", "8671": "\u0120coughed", "8672": "\u0120arranged", "8673": "Claire", "8674": "\u0120rewarding", "8675": "\u0120Tre", "8676": "\u0120Fly", "8677": "pr", "8678": "good", "8679": "erpiece", "8680": "\u0120sunscreen", "8681": "\u0120peep", "8682": "\u0120bond", "8683": "\u0120Floppy", "8684": "asers", "8685": "Mon", "8686": "\u0120Tweety", "8687": "\u0120Sweet", "8688": "\u0120Katy", "8689": "\u0120Sal", "8690": "ilities", "8691": "\u0120annoying", "8692": "eow", "8693": "\u0120soapy", "8694": "sn", "8695": "meow", "8696": "Splash", "8697": "\u0120rails", "8698": "\u0120laces", "8699": "\u0120threads", "8700": "\u0120tapping", "8701": "\u0120offic", "8702": "\u0120appreciated", "8703": "\u0120Pine", "8704": "\u0120Phil", "8705": "boards", "8706": "\u0120weighing", "8707": "\u0120heartbroken", "8708": "\u0120emerged", "8709": "\u0120congratulated", "8710": "\u0120Pick", "8711": "Danger", "8712": "\u0120Sil", "8713": "\u0120crocodiles", "8714": "\u0120clerk", "8715": "\u0120scram", "8716": "\u0120attempt", "8717": "\u0120Nancy", "8718": "water", "8719": "Ahoy", "8720": "\u0120messed", "8721": "\u0120example", "8722": "\u0120dial", "8723": "\u0120Min", "8724": "\u0120Kay", "8725": "\u0120De", "8726": "\u0120Any", "8727": "Momma", "8728": "\u0120hooks", "8729": "\u0120Jonny", "8730": "\u0120tops", "8731": "\u0120chipmunk", "8732": "\u0120soot", "8733": "\u0120guarding", "8734": "\u0120bathed", "8735": "raged", "8736": "\u0120manager", "8737": "\u0120Tippy", "8738": "ortunately", "8739": "\u0120Microscope", "8740": "Friends", "8741": "etah", "8742": "Snowy", "8743": "\u0120masterpiece", "8744": "\u0120Baa", "8745": "\u0120erasers", "8746": "\u0120tips", "8747": "\u0120finishes", "8748": "\u0120fet", "8749": "\u0120common", "8750": "\u0120Tomorrow", "8751": "mbers", "8752": "\u0120trotted", "8753": "\u0120nibbled", "8754": "\u0120members", "8755": "\u0120digs", "8756": "People", "8757": "\u0120kinder", "8758": "\u0120cheetah", "8759": "\u0120particularly", "8760": "\u0120chews", "8761": "\u0120blond", "8762": "ircle", "8763": "\u0120rips", "8764": "\u0120beast", "8765": "Lizzy", "8766": "\u0120argument", "8767": "ative", "8768": "\u0120faith", "8769": "\u0120Helping", "8770": "\u0120earned", "8771": "Anne", "8772": "\u0120observing", "8773": "\u0120forgiveness", "8774": "\u0120Joke", "8775": "\u0120Cici", "8776": "chievous", "8777": "\u0120instantly", "8778": "\u0120fishes", "8779": "\u0120experienced", "8780": "\u0120curl", "8781": "\u0120cheaper", "8782": "\u0120Jumpy", "8783": "Rosie", "8784": "\u0120mischievous", "8785": "\u0120generosity", "8786": "\u0120cages", "8787": "\u0120Twist", "8788": "Gr", "8789": "Baa", "8790": "\u0120meowing", "8791": "\u0120foam", "8792": "mered", "8793": "Cindy", "8794": "\u0120stores", "8795": "\u0120grandd", "8796": "\u0120Ag", "8797": "etchup", "8798": "\u0120mattered", "8799": "\u0120teles", "8800": "\u0120passes", "8801": "\u0120limp", "8802": "Sque", "8803": "\u0120sleeps", "8804": "iolet", "8805": "\u0120breaths", "8806": "ordinary", "8807": "ettle", "8808": "ending", "8809": "\u0120trans", "8810": "\u0120rin", "8811": "\u0120gasps", "8812": "\u0120Freddie", "8813": "Got", "8814": "\u0120rumbling", "8815": "\u0120hatch", "8816": "\u0120Momma", "8817": "over", "8818": "abra", "8819": "\u0120tin", "8820": "\u0120grassho", "8821": "\u0120accomplished", "8822": "\u0120Hopper", "8823": "acing", "8824": "\u0120thump", "8825": "\u0120telescope", "8826": "\u0120strum", "8827": "\u0120smartest", "8828": "\u0120mats", "8829": "\u0120whined", "8830": "\u0120moat", "8831": "Gina", "8832": "\u0120scrambled", "8833": "\u0120farmers", "8834": "\u0120Ice", "8835": "\u0120drip", "8836": "Robbie", "8837": "\u0120syrup", "8838": "\u0120gardens", "8839": "\u0120collapsed", "8840": "\u0120angrily", "8841": "\u0120More", "8842": "ouraged", "8843": "idey", "8844": "\u0120vegg", "8845": "\u0120styles", "8846": "\u0120forests", "8847": "\u0120experiences", "8848": "\u0120discoveries", "8849": "hole", "8850": "\u0120tor", "8851": "\u0120medals", "8852": "\u0120types", "8853": "\u0120otters", "8854": "\u0120meaning", "8855": "\u0120faint", "8856": "\u0120conqu", "8857": "\u0120Pig", "8858": "\u0120Does", "8859": "pit", "8860": "adabra", "8861": "acock", "8862": "\u0120snapping", "8863": "\u0120hardest", "8864": "\u0120fif", "8865": "ering", "8866": "\u0120movements", "8867": "\u0120expression", "8868": "\u0120surv", "8869": "\u0120chilly", "8870": "\u0120bubbly", "8871": "\u0120affect", "8872": "Pinky", "8873": "\u0120vests", "8874": "\u0120unfair", "8875": "\u0120court", "8876": "Whenever", "8877": "\u0120toothbrush", "8878": "\u0120scores", "8879": "\u0120extraordinary", "8880": "Never", "8881": "\u0120attitude", "8882": "\u0120vibr", "8883": "\u0120horri", "8884": "\u0120bluebird", "8885": "\u0120Monkey", "8886": "mel", "8887": "lls", "8888": "Mo", "8889": "\u0120spears", "8890": "\u0120ketchup", "8891": "\u0120Berry", "8892": "Mother", "8893": "\u0120sooner", "8894": "\u0120grasshopper", "8895": "\u0120behaviour", "8896": "Karen", "8897": "\u0120patches", "8898": "\u0120habit", "8899": "yd", "8900": "erts", "8901": "\u0120pokes", "8902": "\u0120momma", "8903": "\u0120afar", "8904": "\u0120Ashley", "8905": "lo", "8906": "ieves", "8907": "Jacob", "8908": "\u0120thicker", "8909": "\u0120scri", "8910": "\u0120Friend", "8911": "Jon", "8912": "\u0120squeezes", "8913": "\u0120slithered", "8914": "\u0120shrunk", "8915": "\u0120classmates", "8916": "\u0120Terry", "8917": "\u0120Fle", "8918": "\u0120icky", "8919": "\u0120prickly", "8920": "\u0120glittering", "8921": "\u0120expert", "8922": "\u0120topp", "8923": "\u0120kneeling", "8924": "\u0120announced", "8925": "\u0120Super", "8926": "\u0120Riri", "8927": "elling", "8928": "\u0120peacock", "8929": "\u0120marking", "8930": "ctric", "8931": "\u0120costs", "8932": "\u0120Cally", "8933": "\u0120Achoo", "8934": "\u0120zigzags", "8935": "\u0120watermel", "8936": "\u0120thieves", "8937": "\u0120skirts", "8938": "\u0120jumper", "8939": "\u0120hood", "8940": "\u0120acts", "8941": "\u0120Zog", "8942": "\u0120App", "8943": "\u0120wolves", "8944": "\u0120Swim", "8945": "\u0120Cloud", "8946": "Papa", "8947": "\u0120thumbs", "8948": "\u0120squeaky", "8949": "\u0120concer", "8950": "\u0120cocoon", "8951": "\u0120woodcut", "8952": "\u0120boards", "8953": "\u0120Eliza", "8954": "\u0120Becky", "8955": "\u0120servant", "8956": "idence", "8957": "affle", "8958": "\u0120cheating", "8959": "\u0120Jason", "8960": "bu", "8961": "\u0120trading", "8962": "\u0120raking", "8963": "cat", "8964": "Jessie", "8965": "\u0120explaining", "8966": "\u0120Eric", "8967": "rick", "8968": "\u0120tidied", "8969": "\u0120biscuit", "8970": "\u0120lunchtime", "8971": "\u0120luckily", "8972": "\u0120Ac", "8973": "Frog", "8974": "\u0120Puffy", "8975": "\u0120spilling", "8976": "\u0120Day", "8977": "Fire", "8978": "\u0120transform", "8979": "\u0120desserts", "8980": "\u0120Use", "8981": "\u0120Maddy", "8982": "\u0120Daniel", "8983": "\u0120Animal", "8984": "\u00e2\u0122\u00a6", "8985": "ror", "8986": "anced", "8987": "\u0120Mine", "8988": "\u0120Still", "8989": "\u0120Gill", "8990": "rough", "8991": "amma", "8992": "\u0120messages", "8993": "\u0120mirac", "8994": "\u0120Captain", "8995": "idy", "8996": "\u0120windowsill", "8997": "\u0120chill", "8998": "\u0120beating", "8999": "\u0120Tammy", "9000": "\u0120Lung", "9001": "\u0120Gilly", "9002": "oot", "9003": "\u0120seeking", "9004": "\u0120actor", "9005": "\u0120Rainbow", "9006": "\u0120Lina", "9007": "\u0120William", "9008": "sess", "9009": "its", "9010": "\u0120Math", "9011": "pril", "9012": "Any", "9013": "\u0120foreshadow", "9014": "war", "9015": "acles", "9016": "Bluey", "9017": "\u0120leans", "9018": "\u0120Step", "9019": "\u0120Pinch", "9020": "\u0120Hi", "9021": "racadabra", "9022": "Freeze", "9023": "Bounce", "9024": "\u0120watermelon", "9025": "\u0120hissing", "9026": "\u0120flashing", "9027": "\u0120dev", "9028": "\u0120cloths", "9029": "\u0120Tiger", "9030": "\u0120Monster", "9031": "\u0120Frankie", "9032": "pop", "9033": "\u0120winding", "9034": "\u0120positive", "9035": "\u0120funn", "9036": "\u0120discouraged", "9037": "\u0120Wil", "9038": "\u0120woodcutter", "9039": "\u0120forts", "9040": "\u0120dripped", "9041": "\u0120compete", "9042": "\u0120teapot", "9043": "\u0120pressing", "9044": "\u0120disagreeing", "9045": "icking", "9046": "\u0120glimmering", "9047": "\u0120veggies", "9048": "\u0120trusts", "9049": "\u0120tidying", "9050": "\u0120kangaroos", "9051": "\u0120Peep", "9052": "\u0120tempted", "9053": "\u0120landing", "9054": "\u0120Flora", "9055": "\u0120dock", "9056": "\u0120shallow", "9057": "\u0120overw", "9058": "\u0120formed", "9059": "eling", "9060": "\u0120rack", "9061": "\u0120fade", "9062": "\u0120Tooth", "9063": "flowers", "9064": "\u0120worst", "9065": "\u0120electric", "9066": "\u0120cops", "9067": "Nothing", "9068": "\u0120apology", "9069": "iving", "9070": "creams", "9071": "ai", "9072": "\u0120sleds", "9073": "\u0120Silver", "9074": "\u0120Life", "9075": "upid", "9076": "\u0120comets", "9077": "\u0120ass", "9078": "Owl", "9079": "\u0120sav", "9080": "\u0120Shark", "9081": "\u0120Mag", "9082": "\u0120Jelly", "9083": "Bug", "9084": "\u0120situations", "9085": "\u0120papa", "9086": "\u0120officers", "9087": "\u0120conversation", "9088": "\u01204", "9089": "Rain", "9090": "\u0120Roger", "9091": "\u0120Charlotte", "9092": "storm", "9093": "aye", "9094": "\u0120suns", "9095": "\u0120ding", "9096": "\u00e2\u0122\u013f,", "9097": "\u0120zips", "9098": "\u0120structures", "9099": "\u0120scurrying", "9100": "\u0120pizzas", "9101": "\u0120overwhel", "9102": "\u0120miller", "9103": "\u0120Butter", "9104": "\u0120granddaughter", "9105": "\u0120foggy", "9106": "\u0120Olivia", "9107": "\u0120Hurry", "9108": "\u0120Amber", "9109": "Zoe", "9110": "\u0120Janey", "9111": "\u0120webs", "9112": "\u0120deserved", "9113": "Rabbit", "9114": "\u0120opportunity", "9115": "\u0120cubs", "9116": "\u0120Yummy", "9117": "\u0120Spidey", "9118": "\u0120Sasha", "9119": "\u0120Mixie", "9120": "\u0120Buster", "9121": "\u0120snorted", "9122": "\u0120rhino", "9123": "\u0120differences", "9124": "\u0120Gold", "9125": "\u0120quacking", "9126": "\u0120Tell", "9127": "ifully", "9128": "ended", "9129": "Fifi", "9130": "\u0120heaven", "9131": "\u0120Birds", "9132": "\u0120unlo", "9133": "\u0120levers", "9134": "\u0120inchworm", "9135": "\u0120inter", "9136": "\u0120approach", "9137": "\u0120Tyler", "9138": "ssess", "9139": "\u0120seagulls", "9140": "\u0120possess", "9141": "\u0120cooperate", "9142": "\u0120Rufus", "9143": "\u0120Felix", "9144": "\u0120Boom", "9145": "welcome", "9146": "sers", "9147": "ragon", "9148": "of", "9149": "?\u00e2\u0122\u013f.", "9150": "andra", "9151": "\u0120pose", "9152": "\u0120disappointment", "9153": "\u0120Smoke", "9154": "ocular", "9155": "\u0120speaks", "9156": "\u0120sneaks", "9157": "snap", "9158": "\u0120binocular", "9159": "\u0120artwork", "9160": "\u0120surfed", "9161": "\u0120scowl", "9162": "\u0120answering", "9163": "\u0120Snake", "9164": "\u0120shortcut", "9165": "\u0120Grand", "9166": "\u0120sipped", "9167": "\u0120robin", "9168": "\u0120dep", "9169": "Climb", "9170": "\u0120arrest", "9171": "\u0120Inky", "9172": "ssy", "9173": "\u0120unwrapped", "9174": "\u0120ribbit", "9175": "\u0120reun", "9176": "\u0120amused", "9177": "\u0120Amanda", "9178": "ugar", "9179": "\u0120repeats", "9180": "\u0120pepperoni", "9181": "\u0120applause", "9182": "\u0120keyhole", "9183": "\u0120checkout", "9184": "\u0120Mae", "9185": "\u0120Cars", "9186": "Lia", "9187": "Deal", "9188": "\u0120visitor", "9189": "\u0120striking", "9190": "\u0120puppets", "9191": "\u0120paddling", "9192": "Eat", "9193": "\u0120unz", "9194": "\u0120croaked", "9195": "\u0120attacked", "9196": "\u0120Circle", "9197": "orsie", "9198": "\u0120spooky", "9199": "\u0120Otto", "9200": "\u0120Gus", "9201": "Each", "9202": "\u0120groaned", "9203": "\u0120beautifully", "9204": "\u0120Brian", "9205": "ili", "9206": "gar", "9207": "cidents", "9208": "\u0120swimsuits", "9209": "\u0120consider", "9210": "\u0120checking", "9211": "uses", "9212": "\u0120Yellow", "9213": "jest", "9214": "\u0120waters", "9215": "\u0120groom", "9216": "\u0120Squeak", "9217": "\u0120Slinky", "9218": "yle", "9219": "Jenn", "9220": "\u0120invent", "9221": "Luke", "9222": "\u0120nets", "9223": "\u0120exams", "9224": "otion", "9225": "ets", "9226": "\u0120drying", "9227": "\u0120Rebecca", "9228": "udy", "9229": "artin", "9230": "agine", "9231": "\u0120shrugs", "9232": "\u0120lump", "9233": "\u0120Auntie", "9234": "sie", "9235": "lest", "9236": "\u0120sobbing", "9237": "\u0120shyly", "9238": "\u0120shoots", "9239": "\u0120honks", "9240": "\u0120heels", "9241": "\u0120cheerfully", "9242": "\u0120Since", "9243": "hny", "9244": "esses", "9245": "\u0120shh", "9246": "\u0120chin", "9247": "anish", "9248": "\u0120whimpered", "9249": "\u0120healthier", "9250": "\u0120hangs", "9251": "icious", "9252": "Milo", "9253": "\u0120Mus", "9254": "\u0120caterpillars", "9255": "izzes", "9256": "Slowly", "9257": "\u0120squinted", "9258": "\u0120magnifying", "9259": "\u0120fries", "9260": "\u0120Ratty", "9261": "\u0120fascinating", "9262": "\u0120blamed", "9263": "\u0120Find", "9264": "lers", "9265": "ulpture", "9266": "ching", "9267": "\u0120sculpture", "9268": "\u0120frustration", "9269": "\u0120Tip", "9270": "ouched", "9271": "\u0120shimmering", "9272": "\u0120Penelope", "9273": "eat", "9274": "\u0120poss", "9275": "\u0120Peace", "9276": "edic", "9277": "Sharing", "9278": "\u0120suck", "9279": "\u0120pleas", "9280": "\u0120numbered", "9281": "\u0120nibble", "9282": "\u0120Waffle", "9283": "othy", "9284": "ibbles", "9285": "ellie", "9286": "amil", "9287": "\u0120flowing", "9288": "\u0120baa", "9289": "hings", "9290": "Pepper", "9291": "\u0120raked", "9292": "\u0120grumbled", "9293": "\u0120Off", "9294": "that", "9295": "Bubbles", "9296": "\u0120builder", "9297": "racted", "9298": "\u0120swaying", "9299": "\u0120petting", "9300": "\u0120guards", "9301": "\u0120facing", "9302": "\u0120Woolly", "9303": "\u0120sprinkle", "9304": "\u0120mysteries", "9305": "\u0120details", "9306": "\u0120Har", "9307": "sey", "9308": "\u0120snort", "9309": "\u0120flock", "9310": "\u0120enemy", "9311": "\u0120Boat", "9312": "\u0120textures", "9313": "\u0120tablet", "9314": "\u0120goodies", "9315": "\u0120Curious", "9316": "\u0120Barry", "9317": "Yesterday", "9318": "\u0120popping", "9319": "\u0120wildflowers", "9320": "\u0120stacks", "9321": "\u0120marve", "9322": "\u0120fans", "9323": "\u0120crops", "9324": "\u0120countries", "9325": "\u0120Gracie", "9326": "how", "9327": "\u0120knobs", "9328": "\u0120Tessa", "9329": "\u0120Seeing", "9330": "\u0120local", "9331": "\u0120bushy", "9332": "\u0120stew", "9333": "\u0120peeped", "9334": "\u0120hunting", "9335": "\u0120drowned", "9336": "\u0120bowing", "9337": "\u0120binoculars", "9338": "\u0120angrier", "9339": "\u0120Bubu", "9340": "\u0120maps", "9341": "\u0120Match", "9342": "\u0120quizzes", "9343": "\u0120niece", "9344": "\u0120moonlight", "9345": "\u0120Li", "9346": "\u0120Glow", "9347": "Im", "9348": "\u0120outfits", "9349": "\u0120Johnson", "9350": "\u0120Deal", "9351": "OO",
[...]
